#version: 0.2
e r
Ġ t
Ġ a
e n
Ġ d
Ġ s
i n
c h
e s
o n
o m
a r
Ġ m
Ġ h
a n
Ġ w
a t
Ġ p
Ġ c
Ġt h
i s
o r
Ġ n
Ġ l
a s
T om
o u
r e
Ġ b
Ġ f
e l
i t
o s
Ġ g
Ġt o
Ġ v
e d
u n
a l
t e
Ġ in
Ġ e
Ġd i
q u
Ġth e
a m
in g
Ġ o
e t
Ġa n
Ġ is
a d
Ġ i
Ġd e
u s
Ġ qu
l e
t o
Ġ y
Ġth at
Ġ un
i e
Ġ es
r o
Ġd o
Ġ Tom
i c
Ġ M
' t
l l
v e
i a
i d
h e
r a
i ch
Ġh a
Ġy ou
Ġ k
t a
Ġs e
t i
o l
ar y
er e
Ġm e
Ġ Ã
Ġb e
r i
i r
Ġn o
Ġan d
u m
Ġ ch
en t
i m
l d
i g
an d
e m
Ġw as
a y
Ġl a
ĠM ary
Ġo f
Ġqu e
Ġh e
Ġ I
Ġ S
ar e
Ġ z
t er
Ġa l
n o
Ġc on
Ġ re
Ã ¡
u r
u t
v er
Ġc om
s t
l a
os t
Ġs a
Ã £
en d
' s
Ġs u
Ġv er
Ġe in
Ġs t
Ã£ o
Ġw h
Ġ r
Ġl e
on e
Ã ¼
Ġg o
Ġp er
es s
i o
Ġn e
i l
c e
Ġch e
an t
Ġ B
ich t
Ġ j
Ġl i
Ġf or
Ġ A
o c
k e
Ġ er
Ã Ń
Ã ©
ou ld
Ã ³
h t
at o
Ã ¤
N on
Ġa s
o d
Ġp ar
T he
a g
s e
Ġis t
l y
Ġ en
u i
o t
el l
i on
Ġa b
en te
Ġ on
I ch
Ġn icht
d e
ĠÃ ¨
h r
H e
Ġ el
a c
b e
Ġdi d
Ġn on
Ġes t
p p
es t
as s
a ch
Ġs o
Ġ F
in d
u l
Ġw e
no w
Ġ um
Ġl o
Ġ it
ou t
Ã ª
Ġk now
t en
Ġdi e
Ġha ve
it h
on o
en s
in k
u d
i ll
at e
Ġp ro
Ġg e
Ġh er
us t
g e
Ġs p
Ġz u
Ã ¶
Ġ L
am i
b er
g en
Ġm a
Ġw ith
a b
Ġ G
ad o
i er
Ġno t
u ch
Ġa t
m p
c i
Ġw ant
Ġh is
u f
in e
T h
and o
Ġsa id
o w
Ġi l
Ġc an
Ġs ch
or e
a v
Ġ E
S ami
a z
Ġa m
W h
h er
ĠÃ ©
Ġf r
Ġp r
Ġs h
Q u
Ġun a
Ġt r
Ġd er
o k
Ġth ink
Ġd u
Ġd on
Ġa ll
Ġun d
i j
Ġh as
Ġdid n
Ġm an
g l
Ġt e
Ġ T
an n
Ġa re
Ġ K
Ã ł
W e
om e
u p
Ġs he
E s
n d
â Ģ
i am
n e
oc Ãª
Ġd el
Ġn Ã£o
o p
Y ou
Ġd a
f f
a p
g ht
Ġa r
al l
s o
ch e
Ġd as
Ġ P
b en
Ġc ost
o i
e i
Ġ "
Ġth is
Ġe x
or t
Ġ us
Ġi ch
Ġ H
it o
M ary
es e
Ġh im
v a
is t
Ġh at
Ġm y
Ġd en
S he
i z
Ġthe y
a i
Ġa c
r ui
Â ¿
h n
Ġw ill
' m
i en
E u
rui re
an o
Ġcost ruire
Ġ J
I o
Ã Ł
ar d
c k
as t
Ġ W
Ġs ono
Ġp re
v o
i b
h ing
D o
Ġcom p
Ġwh at
iam o
e c
Ġli ke
Ġp or
c o
Ġpar a
g o
on d
Ġest Ã¡
Ġw or
Ã §
p er
Ġan y
or a
g u
un g
Ġh ad
I t
Ġ N
Ġd es
Ġs ie
l o
ch en
Ã ²
ar ia
Ġ ri
en n
Ġyou r
Ġp l
a k
Ġm i
Ġv i
Ġw ould
Ġ R
Ġ D
m er
l i
un d
z a
N o
Ã¼ r
c a
Ġc as
Ġg et
Ġa uf
Ġc ar
Ġw ar
L a
l ich
os a
al ly
ou ght
Ġto ld
ad a
u g
Ġ C
h a
f t
Ġs c
ÃŃ a
Ġgo ing
g er
m a
ad e
Ġd is
Ġi m
. "
ig ht
Ġa d
Ġs ol
os s
Ġt im
Ġs ich
Ġ out
Ġw ir
an no
ic a
Ġd ass
Ġh o
Ġdo es
Ġm u
m o
Ġs i
Ġg r
Ġab out
Ġh el
Ġp i
s el
E r
Ġne ed
Ġv o
Ġto d
v en
at a
The y
ost on
Ġt em
es to
S ie
or o
ĠB oston
s ch
Ġm it
u e
or d
Ġs ta
h o
el e
r en
am e
Ġi mp
Ġb y
Ġsh ould
' re
Ġw ere
m en
Ġver y
Ġs er
b le
ic e
' ll
Ġg i
' ve
Ġk e
in a
m e
it e
g n
Ġe ver
Ġtim e
Ġp u
g i
D i
Ġein e
Ġe m
Ġ V
ĠS ch
Ġ up
at ion
Ġt ra
h en
Ä ĥ
Ġa g
Ġc o
Ġcom e
Ġt u
Ġc ould
Ã³ n
u to
Ġ ra
ay s
Ġ one
Ġv ocÃª
on g
er s
Ġis n
es ta
Ġf e
Ġn i
ar t
p r
at i
an te
am ente
end o
Ġth ought
Ġ Z
Ġh ere
Ġfr om
re d
id o
E l
V ocÃª
v i
Ġ U
Ġhel p
r an
on t
Ġw er
Ġbe en
f e
Ġde m
Ã Ī
z e
ou r
r y
Ġm ir
is s
ĠS ie
' d
Ġ ent
Ġse in
k ed
Ġp e
er n
I n
it Ãł
P er
Ġum a
Ġha be
Ġ ro
Ġes ta
b a
d en
Wh at
M e
Ġdoes n
us s
p o
Ã ±
al e
Ġc u
is h
Ġm uch
Ã¡ s
D ie
Ġm o
Ġg u
Ġb o
D e
I k
ic i
D as
ust r
ic o
c c
ti on
ay la
Ġp o
M i
Ġcas a
Ġch i
Ġn a
Ġm ol
Ġwh o
Ġb u
Ġb ut
Ġlo ok
ac k
Ġst ud
Ġer a
Ġ or
an to
ou s
Ġl os
Ġv is
it t
er o
Ġre ally
as e
o g
n t
an g
Ġqu al
am os
re i
Ġc l
sel f
Ġl et
Ġt i
Ġv on
w e
Ġcon t
a ve
Ġm ich
h l
Ġa us
Ġthe m
or n
Ġdo ing
Th is
al ia
re e
Ġgo od
Ġal s
it a
Ġha pp
c t
Ġo p
Ġth ere
ess o
i le
Ġ u
w n
an a
Ġf at
Ġin ter
i one
Ġne ver
ĠA ustr
Ġi f
Ġever y
Ġl as
Ġp a
Ġs ti
c ia
H o
Ġf in
b re
Ġt ell
Ã ¬
b r
Ġk ann
qu e
Ġe en
Ġc a
t hing
ij n
o hn
f er
e p
Ġj ust
Ġr es
Ġn u
Ġf are
Ġs ind
Ġt er
or m
Ã ī
id e
Ġt al
Ġes s
I l
Ġi r
k en
Ġt ut
Ġs ome
Ġf a
Ġt en
ĠS t
Ġth an
Ġes c
ĠM aria
ion al
Ġm in
ou nd
ec t
os e
ar s
en to
c er
ch Ã©
b l
S e
Ã º
Ġa f
Ġein en
u te
ll a
N Ã£o
en ti
Ġt a
v es
ch t
p e
Ġc am
Ġf Ã¼r
Ġv e
Ġ O
Ġwor k
Ã ¹
Ġc ol
Ġsu a
Ġun s
el t
Ã¶ n
is ch
Ġc er
Ġp ass
Ġj e
at er
Ġper s
om et
Ġgo t
âĢ ľ
el y
m ente
Ġg es
Ġh et
a hr
Ġi hr
A l
t y
Ġp ia
Ġde c
Ġv or
H ow
e k
Ġla v
ĠÃ ¼
I s
g h
j o
Ġv ol
ic k
i ed
Ġc i
id a
et to
Ġwh en
b i
Ġp ri
Ġ os
Ġe u
Ġmol to
Ġdi r
v ed
Ġsp e
in o
Ġp ens
Ġw o
Ġpi Ã¹
s te
us e
Ġm ore
ĠL ayla
Ġb et
ri ed
E le
Ġd r
L ei
Ġn az
D er
Ġb el
ĠAustr alia
W ir
Ġse e
Ġo t
âĢ ŀ
Ġw ie
Th at
Ġf o
Ġthe ir
Ġf i
Ġnaz ional
Ġwant ed
Ġnazional itÃł
ĠÃ¼ ber
ri end
Ġsti ll
Ġno w
Ġpro ble
Ġs ay
Ġc or
Ġa v
Ġt ro
Ġha ben
Ġf az
et t
a in
Ġh ow
Ġm or
er a
Ġp od
Ġb ack
ti g
Ġwas n
A nd
ell o
Ġma i
u re
Ġe t
Ġw on
Ġh ome
Ġa qu
Ġof f
Ġal le
Ġqu i
Ã ¨
Ġma is
Ġni et
r es
an c
Ġa p
an s
Ġf av
ul t
ach t
r u
Ġb en
n en
L e
Ġme in
Ġf ar
r as
d i
S ono
Ġm ar
Ġk ne
un t
Ġs to
mp re
Ġse i
D u
E st
Ġd ar
Ġa pp
os so
Ġis so
Ġno ch
ĠA l
Ġdi es
Ġc os
Ġo ver
o le
in t
Ġm et
Ġkne w
u ra
Ġqu esto
Ġg en
is e
al t
L ui
Th ere
op le
Ġex p
m i
gl io
o b
l and
d er
et z
ro w
ou gh
Ġdi ch
Per chÃ©
ĠL e
Ġmu ito
ed e
Ã¼ ck
an z
Ġ 1
ag e
Ġf al
ar i
Ġtal k
or i
Ġv an
Wh y
Ġc ap
Ġac c
Ġon ly
Ġl oro
i ÃŁ
P or
Ġqual c
Ġb in
Ġas s
Ġs omet
it i
at t
Ġy e
ĠU n
Ġwir d
Ġs on
b ra
Ġto o
Ġn ach
Ġcon s
Ġf ac
H a
g g
n a
Ġcom o
u b
Ġb r
g t
it y
Ġb es
Ã¤ t
od y
Ġp ol
Ġcomp r
ren ch
Ġm Ã¡s
Ġs al
Ġf u
p ar
v el
Ġt om
ing s
Ġw a
M y
Ġb us
Ġel e
T u
ver s
Ġag ain
Ġpe ople
Ġh ou
Ġv ai
ĠF rench
Ġd at
Ġl ot
Ġv a
Ġe at
Ġse m
ĠH a
ĠJ ohn
ad y
Ġess ere
Ġa i
Ġand are
Ġin c
Ġ 2
Ġpers on
Ġl ie
P ens
Ġv en
Ãī l
Ġse em
v ing
Ġde i
m ent
h i
Ġb ra
Ġi h
om men
Ġhapp en
Ġm al
er t
Ġver o
ol a
ve te
ĠA r
el o
el la
Ġd one
al i
y ing
Ġf l
Ġb l
Ġm en
Ġm is
a u
b be
Ġta ke
Ã§ Ã£o
Ġl ast
Ġo b
end e
Ġt re
er en
Ġspe ak
Ġsomet hing
Ġd etto
g et
el d
Ġbe f
w o
ĠS p
Ġtod ay
os o
Ġ our
f ul
r it
Ġd ur
Ġs or
Ġp oss
W as
Ġse hr
Ġin s
Ġc osa
ti m
ot her
Ġf ind
ond er
j e
Ġpr es
Ġs m
ed o
ter n
Ġf riend
ien e
Ġri ght
b ody
Ġne w
one y
Ġs ent
Ġin to
n g
Ġma ke
Ġsu o
Ġi de
L o
b t
Ġf am
ed i
Ġc all
Ġany thing
Ġtem po
x t
Ġd ay
Ġn ie
Ġas ked
Ġes te
Ġm io
Ġdi ff
p t
Ġs in
om an
Ġn ur
Ġwh y
Ã¶ r
Ġqu er
em os
n i
Ġw ay
b iamo
ĠG e
Ġfav or
Ġle i
Ã© s
Ġsu re
Ġw ent
Ġso ll
Ġm oney
Ġh ier
Ġfaz er
i el
Ġm ach
S i
o ol
D on
Â ¡
an za
Ġs en
gl i
Ġl ong
Ġab le
Ġpl ay
an ce
w ays
Ġre al
M aria
m an
E la
k t
ab le
Ġth ree
j a
Ġm ia
at ed
he it
Ġm ight
Ġse mpre
b ro
ch te
Ġen c
Ġb is
Ãª s
un o
Ġhou se
Ġot her
Ġg er
i re
Ġi hn
el a
Ġv u
Ġal ways
Ġknow s
f en
g gi
Ġd in
w as
Ġpar l
Ġm ade
g a
Do ve
Ġh op
g r
Ġpl an
Ã³ s
Ġme hr
Ġer ano
Ġz ijn
Ġcos Ã¬
Ġqualc osa
u c
p a
ot h
en a
ĠÃ ł
Ġre c
c is
Ġg l
Ġw ell
Ġvis it
Ġan c
Ġab er
ar n
ĠR e
ig en
w er
Ġsol o
Ġwe ek
Ġsch ool
Ġf ir
Ġf il
Ġs ays
Ġl an
Ġwer den
Ġm at
Ġke in
Ġgr and
ur n
ĠZ e
Ġpro f
Ġ âĢŀ
Ġl ui
Ġman y
Ġfr anc
om m
h or
ent s
Ġvi el
Ġv ost
D id
Ġin f
i Ã³n
z o
ad os
Ġh and
ad re
Ġbet ter
r os
am o
0 0
it u
Ġanc ora
Ġsta y
ed er
a uf
le ase
Ġaf ter
Ġpro b
Ġha b
Ġg ut
Ġbef ore
ĠE n
Ġbo ok
Ġwould n
Ġund er
z i
Ġli k
ess e
Ġa w
or row
Ġwh ere
Ġm es
Ġin t
Ġf oi
Ġfat to
Ġr is
g an
st and
s s
Ġk Ã¶n
ol o
Ġim mer
Ġb ro
E lla
d o
Ġre g
Ġw enn
c es
ĠE r
Ġwa it
Ġchi ld
ib t
os to
Ã§ a
Ġal g
Ġve z
Ġo ld
N oi
Ġst r
Ġs te
Ġs ur
Ġme u
es ter
re m
Ġqu es
end er
Ġhe b
Ġm ag
ti l
Ã© m
Ġn os
is te
un ca
W ie
Ġs us
Ġg re
Ġg ro
Ġpia ce
Ġfe el
u ro
Ġein em
Ġet was
Ġdel la
be it
Ġdo wn
Ġdo v
Ġb ar
re t
Ġcon f
as i
Ġc ou
Ġin v
p l
I f
C om
Ġp as
m al
b o
Ġc al
Ġsch on
ch o
Ġproble m
Ġqu ando
Ġwe iÃŁ
z en
Ġbel ie
se gn
Ġf un
ĠM ens
Ġres p
ri o
Ġwant s
Ġc re
m in
g ar
Ġm uss
Ġst art
ĠF ran
ig o
d ay
Ġw onder
er i
Ġlo ve
Ġhim self
Ġes per
Ġz e
Ġn ost
Ġf el
Ġprob ab
ig e
L et
Ġge w
Ġh om
Ġb it
Ġw at
Ġi k
Ġse u
in i
an ti
Ġfir st
Ġa o
Ġd os
Ġz ur
Ġp ut
Ġc are
Ġz w
Ġn ada
Ġpar t
Ġm us
Ġe ven
n er
Ġm ust
Ġb est
av a
ĠZe it
Ġbu y
Ġke ine
Ġp al
A re
Ġle ft
Ġlav oro
Ġli fe
Ġh ard
Ġal t
f ic
Ġne xt
Ġm ay
Ġp osso
etz t
ger ia
ra u
Ġus ed
ar a
Ġall a
Ġw ur
an k
A s
on s
l ie
is ed
Ã¤ n
ĠI n
is ta
enn ad
Ġz um
ĠG es
Ġar en
itt le
Ġro om
Ġimp ort
Ġesta va
Ġsu pp
Ġw r
ĠV er
pp o
Ġv ia
Ġp la
Pens o
Ġm Ã¶
Ġ ou
Ġg li
Ġcould n
Ġar ri
z ione
C an
Ġl ittle
V oi
Ã¼ n
Ġye ars
Ġs ia
Ġt ele
ch i
Ġa uch
ĠF re
or s
Ġse c
r ie
l am
Ġver d
T en
M ennad
Ġtom orrow
Ġdi re
id ad
ass en
ont r
Ġqu esta
Wh en
Ġ om
Ġle ave
âĢ ĵ
im a
ing u
Ġdis se
U n
Ġj ob
Ġv ac
te t
Ġdo g
Ġhas t
T od
Ġin segn
ĠB er
id er
Ġ /
Ã ¢
Ġte ach
Ġst ato
b ia
Ġw in
l et
Ġm as
Ġde in
ier t
Ġha i
Ġre ad
Ġqu Ã©
Ġein er
Ġn ight
Ġmu y
le ep
Ġs Ã£o
i es
Ġb re
ff e
or es
Ġas k
Ġevery thing
Ġg el
ig li
e in
Ġ We
re ady
g te
is ten
Ġal ready
Ġso bre
Ġprobab ly
am b
Ġpro p
Ġp ic
S o
Ġs ig
t or
W enn
os ed
b al
Ġt iene
ud o
Ġhat te
H ij
M an
i ve
Ġge f
Ġtod o
b ar
u er
Ġide a
Ġtut to
Ġm ost
y s
Ġa ff
c ere
Qu esto
Ġnicht s
at en
Ġpre t
C u
Ġto ok
Ġm om
Ġd an
Ġsa w
ig h
Ġme ine
ir l
Ġben e
E n
Ġgi ve
Ġt wo
Ġd av
ind a
Ġmin ha
Ġle arn
Ġan t
Ġli bro
b st
Ġp ot
is ter
il y
Ġih m
Ġdel le
l io
gu a
E in
ib le
Ġcon os
ke it
Ġd al
e ft
er v
Ġver s
Ġp are
Ġwur de
ĠEn gl
an e
Ġli ve
Ġs el
at h
Ġe mp
Ġth ings
la u
Ġse ine
ur t
en ce
or to
Ġpr om
g io
Ġc ame
Ġh ij
ĠJ ap
l ia
Ġdis c
Ġhapp y
Ġt un
Ġand ate
ied er
Ġw Ã¤
in ha
C he
ich e
Ġm ed
un gen
ĠI t
Ġd om
Ġbe g
Ġs w
Ġo c
Ġai ut
V o
Ġf er
Ġme et
Q ui
Ġtod os
u ally
Ġwo ll
re bbe
and a
Ġcer c
ĠM ar
ĠA n
ĠÃ ®
ĠP ar
Ġl u
ĠC h
Ġbe i
ver y
Ġh or
g el
Ġand iamo
. .
W ar
Ġhop e
Ġqu ello
V i
Ġo der
Wh ere
m os
Ġg io
Ġw al
Ġre m
Ġy et
t h
Ġm od
i ro
C i
Ġh anno
Ġg irl
Ġha cer
Ġn el
Ġfriend s
k ommen
L ayla
Â ł
Ġm il
v id
on te
Ġes p
Ġbelie ve
Ġk ind
is chen
Es ta
Ġv ado
Ġs ing
h re
V ai
Ġa vete
Ġre l
Ġaw ay
Ġvo le
ch a
Ġf ound
t ing
Ġpre cis
Ġvis to
Ġv anno
Ġre p
ta in
im m
Ġtut ti
os ta
V a
Wh o
Ġd ri
an ge
Ġwer de
to y
Ġs et
Ġall es
H et
S ei
Ġaqu i
Ġg ra
i k
Ġn um
And iamo
und o
ĠÃ© l
Ġdr ink
id ade
Ġa ut
n te
Ġw ish
ier en
Es te
Ġv ida
Qu ando
Ġb ir
Ġsa be
al mente
Ġt ie
Ġneed s
Ġfat her
qu i
Ġest ud
it ar
Ġsh ow
i an
Ġl le
P u
Ã© n
Ġw Ã¼r
ess en
È Ľ
v is
ig er
ci Ã³n
Qu al
ed es
Ġso on
Ġo wn
Ġchild ren
Ġhappen ed
Ġas p
Ġunder stand
Ġvo or
Ġen ough
Ġal go
ar o
Ġc at
Ġel a
es te
ĠK ind
Ġgrand e
in c
Ġf ic
Ġg ave
Ġbe c
L os
Ġdi z
oc k
m ore
Ġdo or
Ġg ibt
Ġj o
A n
Ġpl ann
Qu Ã©
Ġtro v
Ġsc u
Ġnu o
And ate
Ġgro ÃŁ
V ado
Ġc ri
Ġbe ing
Ġun ter
Ġd orm
Ġhe eft
Ġf ra
g es
Ã± o
i vers
È Ļ
Ġver l
E very
at her
Ġinter ess
ĠMens chen
c il
Ġl un
Ġany more
Ġof ten
Ġs ar
Ġm Ã¼
Ġest ar
Ġb ad
Ġg em
ar ly
Ġpar te
Ġb ed
Ġvo glio
b biamo
est ed
a ar
s che
Ġge hen
h ne
Ġr ic
im o
Ġs ame
Ġmach en
ester day
ĠB e
Ġwith out
Ġneed ed
Ġw ieder
Ġf ue
Ġbe m
Ġt ried
or no
Ġa ve
Ġwor d
Z e
Ġdec id
Ġun o
Ġlook ed
ar io
ab y
al s
Ġcou nt
u ll
st en
at ur
P lease
id ent
Ġman gi
Ġp ag
Ġ end
L oro
Ġr u
ing en
Ġher self
Ġde ve
is a
. âĢľ
t ra
ca use
Ġh Ã¤t
A ll
Ġs leep
Di es
is che
Ġtro ppo
Ġb ist
Ġbe cause
Ġdu e
in n
Ġhe ard
Ã¶ s
ĠI s
us ta
Ã± os
ĠÃ ¡
Ġp es
Ġtra ba
ed ere
Ġd ist
Ġs im
Ġproble ma
Ã¤ ch
ĠkÃ¶n nen
Ġpri ma
Ġa pr
Ġ ora
Ġprof ess
3 0
C ome
ĠT ag
iss en
ri g
V anno
Ġsol di
ĠE s
Ġc in
ÃŃ as
Ġin gl
i p
Ġl ate
el le
Ġw ater
v ent
Ġp h
Ġtra bal
Ġsu cc
Ġth ing
ac iÃ³n
Ġwat ch
C hi
O s
Ġn unca
Ġlav or
l es
ĠA b
Ġa an
Ġpod e
Ġparl are
M a
ion i
Ġ ord
ĠÃ º
c io
ij k
ĠG er
Ġp ra
Ġc le
get her
Ġm ont
ol og
Ġv oi
ÃŃ s
T e
Ġpu Ã²
Ġf re
Ġa j
Ġdo ch
az ione
land a
Ġh al
Ġsa gen
sel ves
Ġtu a
r ess
es en
og no
ta g
Ġin d
uch t
h al
Ġwr ong
u ter
Ġstud i
Ġgu ard
Ġto gether
Ġar ound
War um
oc o
ĠD e
L as
Ġbis ogno
N e
ed en
et en
Ġye ar
in s
Ġques tion
ĠAl geria
z t
Ã¤ nd
Ġh um
z u
it al
Ġan s
ol d
it er
Ġle g
Ġy esterday
N Ã³s
en o
Ġpar ty
Ġm el
Ġb an
ri b
Ġper o
Ġsur pr
Ġb oth
p le
Ġcon c
ss en
c ul
Ġsie te
a ce
Ġpro v
T i
i Ã³
ĠP ro
d io
Ġsp re
uch en
Ġpre oc
et a
Ġt an
Ġvu ole
k ing
Ġnot hing
H ai
pp ed
ĠJ ahr
Ġwor ld
Ġhe ute
Ġs Äĥ
ic al
âĢ Ļ
Ġli v
Ġop en
p re
Ġenc ontr
Ã§ o
Ġlan gu
Ġsu oi
Ġc r
W o
O n
Ġs ic
Ġr ich
ra id
v ere
am en
W er
u ld
S t
ar am
Ġm other
Ġke ep
Ġent r
d u
S u
Ã¤ r
Ġp adre
Ġper m
Ġg anz
ag t
Ġge h
Ġexp ect
Ġtr y
Ġt ak
Ġstart ed
ĠHa us
ent es
Ġse g
Ġg ente
Ġgre at
Ġm ind
Ġsupp osed
Ġpr on
Ġri es
ĠG eld
Ġf ig
Ġp esso
Ġo l
hr en
am ento
Ġaf raid
un a
g ra
Ġh ot
Ġw i
Ġj Ã¡
m as
Ġm orn
Ġplann ing
Ġt urn
Ġer r
Ġlik ely
Ġlook ing
u ti
Ġj etzt
Ġlet ter
om as
Ġpret ty
Ġn ame
Ġsa b
Ġany one
Ġmorn ing
ĠM ond
u ta
Ġm undo
Ġg a
H is
as c
ĠmÃ¶ chte
p h
Ġm er
Ġs um
ĠJap an
Y o
Ġb ig
m and
h ora
Ġfranc ese
Ġl on
Ġk on
ĠLe ben
Ġb ought
mp o
Ġbus y
Ġtr ad
Ġdur ch
f ici
em ber
ĠAr beit
ud a
is ti
en e
ver o
Ġsa gte
et her
Qu esta
Ġlook s
ad or
Ġsu per
E ra
or ta
Ġ2 0
Ġac t
Ãª n
B e
ier a
Ã µ
om en
ĠBer ber
ÃŃ n
gn i
El es
l ic
ut ter
Ġno i
Ġf elt
Ġre f
omm t
H ave
ff en
Ġse en
Me in
ish ed
Ġcont in
Ġges ch
ti v
un de
Ġs k
Ġal one
ĠF e
on a
ĠSch w
os p
Ġesta ba
ch er
Ġha ven
Ġdi ese
w or
Ġl ost
Ġg an
ar te
Ġs iamo
Ġimp ar
Ġab biamo
Ġha bl
Ġen jo
ĠF rau
f r
Ġ ed
Ġt anto
Ġs ou
Ġp ort
Ġn ella
Ġsto p
il i
as se
el s
Ġg ar
Ġpla ce
ar lo
und en
Ġgi Ãł
Ġdi ver
Est ou
Ġwh ich
Ġra g
C on
ĠS e
Ġshould n
Ġtie mpo
et s
Ġh our
Ġs enti
Ġest Ã£o
Ġk ill
ĠwÃ¼r de
ot t
Ġg lau
Ġa y
Ġvi ele
Ã¼ h
Ġch iam
Ġcon v
Ġsu e
Ġest ou
c ar
r at
Ġe as
Ġv ic
Ġm ie
ug h
m ost
? âĢľ
v ol
Ġtu o
S ta
Ġst or
ess er
Ġm ijn
Ġdi a
H ab
Ġb ien
Ġsch w
oman i
k lich
s p
Ġwh ether
ffe e
v or
Ġus e
Ġk le
Ġqu anto
Ġteach er
Ġna ar
Ġel se
Ġpre par
ing e
V or
Ġsh o
Ġcall ed
un to
Ġcl ass
Ġl ar
Ġan im
Ġant es
Ġe uch
r ia
Ã¡ n
Ãµ es
Ġten ho
Ġz o
Ġaqu ÃŃ
Ġ Y
ab a
ar ing
ar ed
Ġf ast
ÃŁ en
Ġth r
Ġde ine
Ġtr ans
r ad
Ġmuch o
C osa
c ol
ar de
id en
est ra
ĠÃ® n
es a
ess a
et ta
Ġfo to
Ġha y
Ġpre fer
al d
h os
k es
im mer
in ci
iz e
Ġvac anza
Ġi o
it s
Ġa uto
b all
Ġun til
Ġni ente
it ed
G li
Ġcom m
à ¤
Ġcon se
om p
j or
en ta
ct or
Ġbe h
Ġwh ile
j ar
Ġlik es
Ġse gu
ĠM ann
Ġtr ying
Ġm iss
Ġmar ried
Ġt orn
Ġm ac
hl en
z ie
ĠW elt
Ġper d
Ġrem ember
c ion
P re
Ġex c
Ġth ese
Qu e
Ġb ere
h men
ei ra
Ġseem s
i et
ra b
Ġge ht
Ġper f
Ġp op
Ġth ir
Ġre ady
Ġthr ough
Ġan g
Ġe y
Ġe ach
Ġvol ta
Ġl ang
ig n
ĠA mer
z ia
ac t
Ġdec is
Ġpia cere
Ġmont h
A m
Ġes o
Ġget ting
Ġfe w
Ġdiff ic
Ġg usta
Ã¤ l
Ã¶r t
Ġs Ã³
Ġo cc
us ed
Ġge k
Ġdav vero
Ġam ig
ĠN e
er g
um e
Ġtalk ing
Ġt on
all en
in ter
ĠB uch
Ġel la
Ġb as
Ġpar ents
Ġd rei
Ġdo ve
Ġto t
ug ar
ation s
Ġrag az
Ġscu ola
in ho
la ub
Ġad m
S em
am a
u k
Ġo ggi
Do v
el n
Ġan other
c on
Ġst ata
ĠF l
ĠFre und
Ġ -
am m
t her
gl ich
iz z
Ġlas ci
Ġein mal
ĠT e
Ġqu ier
u le
Ġbit te
end en
Ġu it
Ġ He
ell en
u al
Ġr est
Ġfar lo
p i
Ġ1 9
un k
Ġe arly
ĠB r
ell i
Ġsein en
b ri
Ġzw ei
it ion
Ġcomp let
Ġih re
Ġs at
ul ar
ad as
Ġcom er
Ġd ays
Ġst and
ĠEngl ish
Ġp ay
Ġm adre
ad il
l u
Ġd re
et ti
Ġper chÃ©
Ġab s
ĠH er
Ġthink s
Ġpi ano
Ġwar en
J e
Ġb le
Ġb ic
Ġh Ã¡
Ġd ro
Ġsu ch
Ġfam ily
Ġt Ã£o
Ġgi orno
Ġti red
c ed
h Ã£
ess uno
et er
Ġh igh
te m
a us
Ġa inda
Ġre t
Ġsu b
Ġt ri
Ġfo od
Ġp ou
Ġris p
Ġpu ede
S to
Ġcont ro
Ġqu ero
H ast
ĠMond ay
Ġdis p
Ġfav ore
Ġbo y
Vo glio
gu e
Ġv al
Ġzur Ã¼ck
Ġges agt
Ġqu ite
Ġfal ar
Ġ Â¿
Ġand r
at z
te te
am p
ĠhÃ¤t te
ar on
iz ed
Ġalg um
G e
ĠGer man
u ÃŁ
os se
Ġdies es
c le
c ess
o h
Ġha ving
Ġmel hor
Ġv ec
Ġent re
Ġse hen
Ġv ou
ur ch
or gen
M ar
r Ã¤
au ti
Ġr un
Ġs oc
p ed
Ġb a
r icht
Ġit s
Ġyou ng
hn en
le ich
ud ar
ti ve
l er
b an
Ġw ind
Ġhe ar
Ġb om
in ed
Ġex per
Ġwir klich
h ar
âĢ Ķ
at s
Ġmin ut
Ġnu lla
Ġfa ce
Ġn ome
ou d
Ġwork ing
Ġp on
us a
Ġre d
Th omas
Ġal most
Ġc ant
Ġbe auti
Ġst up
sch a
Ġcom ing
Ġv ir
un e
Ġw el
Ġar t
" .
Ġhe ad
Ġp ap
Ġtele f
at es
v ano
Ġl Ã¡
Ġcu ando
Ġl oc
em and
Ġsus p
D an
Ġm acht
as on
ard o
Do es
ato e
ran k
Ġd am
Com o
Ġch ance
Ġd ann
ĠC an
Ġans wer
Ġpod er
ond o
Ġlangu age
l ed
Ġo hne
Ġde p
S ch
ind o
er te
Ġs itu
all o
r er
Ġh u
Ġp os
i ous
Ġun ivers
Ãº n
Ġsem bra
Ġdei x
Ġsel bst
om o
Ġz ie
ce u
Ġex t
M ay
ib lio
Ġger ade
Ġbro ther
b or
Ġd ell
k s
Ġm ul
Ġal so
Ġmy self
ber o
Ġad esso
Ġcount ry
ion o
A vete
Ġde f
ar la
Ġcon he
u la
Ġbeauti ful
Ġsu l
ĠM al
ĠE uro
Ġn em
Ġpor ta
on ia
Ġes se
Ġdecid ed
h as
Ġy o
atoe ba
ant es
Ġm im
it en
I hr
Ġt arde
ar mi
Ġar m
id ente
Ġcor re
f l
f ach
ĠmÃ¼ ssen
Ġth ose
Ġk ommt
Ġab b
p s
t est
av o
Ã¼ t
end ere
ĠB l
Ġk l
Ġcons ider
ĠE l
ia pp
VocÃª s
Ġk id
Ġver ste
Ġenjo y
Ġmom ento
Ġad v
Ġsome one
Es toy
Ġstud y
per o
or te
Ġevery one
Ġc red
ch ina
Ġp oco
ar ti
Ġan che
Ġc ur
il t
Ġcol d
itt ed
Ġcerc are
Ġdi f
Ġtr ou
Ġall ow
g ed
Ġh urt
Ġdes c
ag en
o f
Ġt udo
Ġger ne
Ġs it
Ġmes mo
ent ro
Ġm igli
Ġp lease
Ġwer en
Ġinsegn are
Ġfor t
gg io
Ġg ing
Ġs Ã©
Ġhas n
ati ve
Ġme m
p ro
l os
Ġpens o
ĠHa use
i f
A bbiamo
I st
e g
Ġcontin u
u gen
Ġ Ð
Ġlavor are
c tion
Ġsurpr ised
Ġv ita
Ġin ten
Ġsa p
ut h
ese hen
at ing
Ġthem selves
Ġmis ta
Ġset tim
ed a
Me ine
er es
i al
Ġseem ed
Ġd omani
are i
v am
ĠvocÃª s
n is
Ġdies er
ĠGes ch
Ġqu em
N unca
it as
Ġk an
Ġar r
Ġcar ro
L i
Ġch ange
Ġpor que
Ġad d
on es
Ġc ose
Ġpu edo
ar Ã¡
Ġwoll te
ĠÃ ¤
Ġst ar
Ġtim es
Ġan ni
Ġa ver
Ã ´
Ġk am
Ġsc ri
Ġim m
Ġinf orm
g unt
u ck
Ġw en
Ġwait ing
ĠW o
Ġc e
P osso
Ġn ad
Ġle v
lich e
Ġl im
Ġk ommen
ĠwÃ¤ re
Ġqu a
at to
Ġgi orn
Ġd ou
it te
Ġpic t
ord o
as te
Ãº s
Ġdi ce
ith er
esta ur
ĠA uto
Ġkein en
Ã³ mo
Sie te
Ġag ora
enn en
id os
Ã¤ hr
s a
Ġme glio
Ġasp ett
Ġqualc uno
Ġm att
Is so
Ġm os
up t
Ġh ora
f ahr
Ġs om
Ġb esser
n am
Ġb amb
ce pt
Ġwi fe
w h
Ġde ver
Ġc ry
Ġho je
Ġr id
Ġch o
Ġbre ak
Ġmein en
Ġg ost
Ġfel iz
Ġd ÃŃa
ĠI ch
Ġra in
Ġan os
Ġstudi are
W ould
Ġperson a
Ġgl ad
ri j
Ã± ana
uss ia
Ġtem p
Ġdel e
Ã¼ ber
Ġtr uth
Ġh ung
Ġm ad
Ġsch Ã¶n
Ġp at
ĠM us
Ã¤ d
Ġmor gen
Ġein fach
Ġsen hor
Ġs l
ĠM utter
T ut
us o
Ġge en
Ġli ving
b ol
in ess
Ġarri v
Ġf ine
Ġsein er
Ġr it
Ġcomp uter
You r
Ġpa ÃŃs
ent ly
F or
per anto
Ġc ui
Ġb iblio
he iro
Ġf osse
Ġc op
Ġden n
N u
Ġn ue
ad t
f Ã¼
Ġg one
Ġv edere
v ia
u en
Ġon ce
es ti
Ġh osp
Ġlan ge
d a
ern en
ort un
Ġtra in
end a
iz i
al o
Ġli ves
c up
om a
Ġbes ch
Al s
ou n
k er
is o
S ome
Ġm ess
Ġpare ce
Ġo gni
Ġfil m
Ġglau be
r ic
ĠI r
Ġha ir
Ġcas e
Ġp el
Ġv el
I m
it os
ĠN ach
y o
Ġpesso as
Ġsa ber
w ard
Ġyour self
Ġl ugar
Ġph one
v os
h m
Ġn ice
ĠA ng
g end
Qu anto
Ġco ok
Ġsa pe
A d
Ġt ien
alt h
l Ã¤
ass er
Ã¶ ren
Ġcol le
Ġv in
Ġin st
Ġqual che
Ġdo ctor
Ġk iss
Ã³n de
ĠKind er
Ġmac china
hl t
Ġha ar
us h
ĠG r
gan gen
Ġi eri
Ġth en
a um
g un
Ġir m
ust ed
ci al
Ġsch n
u ght
P ro
Ġme jor
Ġa go
Ġl isten
Ġverd ad
ie f
Est Ã¡
Ġam ico
Ġst ran
Di ese
Ġsen za
Ġdiffic ult
Ġand re
uf en
Ġdiff er
Ġw rit
Ġpr Ã³
Ġsin ce
Ã¡ rio
Ġdies em
m ar
Ð ¾
Ġmeet ing
Ġpol ice
Ġm ale
D a
Cu Ã¡
ra i
ĠI hnen
il o
Ġtr ue
Ġac onte
Ġer o
Ġ âĢĵ
Qu em
z z
no t
Ġcon d
en as
Ġz us
Ġdi ed
ge ben
Ġcompr ar
Tod os
Ġcomp an
ung s
Ġw issen
Ġcam bi
v ie
Ġst ate
F adil
Ġstud ent
Ġdal la
Ġv est
Ġpers one
Ġcon st
ap e
Ġdr ess
Ġj a
Ġco isa
at ta
Ġp elo
Ġn erv
Ġbiblio te
ĠFran z
.. .
Ġtraba jo
Ġinter ested
ĠL ie
Ġf ut
b b
im os
Ġg esehen
Ġimport ant
ut t
Ten go
l im
et te
W ill
an gen
pr ess
f riend
enn is
am bi
Ġand eren
Ġst re
ĠE st
Ã¼ s
Ġp ai
Ġfr at
v ir
Ġre ason
ĠSp ra
Ġdin ero
Ġl ingu
hal ten
A t
Ġm ens
Ġver g
Ġc ab
Ġat t
Ġhour s
Ġdiz er
Ġten go
Ġh on
Ġh em
Ġsm all
Ġsar Ãł
Ġey es
H er
Ġver sch
est ro
u de
Ġs ister
Ġeas y
Ġgem acht
Ġp ed
Ġb lo
ent os
t s
Ã¤ ll
Ġspre chen
Ġamig os
Ġha ce
Ġw oman
ĠV ater
Ġb ag
Ġsem ana
Ġg ust
Ġpro te
ti ma
ars i
Ġpreoc cup
Ġm on
Ġbook s
scha ft
Ġpr oss
Ġave va
s i
Ġf Ã¼
Ġdo ll
Ġhosp ital
Ġany body
Ġmat ter
Ġliv ro
H anno
ist s
Ġl Ã¬
ĠT V
res ti
Ġpar ti
Ġne cess
Ġmen os
Ġk om
ĠK aby
Ġa Ã±os
ÃŁ e
ĠS ami
Ġse us
Ġf um
Ġkon nte
Ġpol it
Ġd ort
Ġl and
C re
Ġlet z
ar m
T ell
Ġvi ve
Al geria
D es
ingu Ã©m
Ġwal k
in es
ĠL ib
Ġ ur
Ġex act
S iamo
Ġoff ice
U m
Ġheb ben
Ġam ici
Ãªn cia
Ġal c
ĠM e
et ter
ot are
Ġhor as
Ġne go
Ġimport ante
ÃŃ o
Ġus ually
Ġdif ÃŃ
Ġa cho
ra ge
Ġi gn
Ġp az
Ġter min
ĠA us
ion es
Ġs ick
Ġpass ap
Ġs il
Ġw ahr
Ġme us
Ġang ry
a ke
Ġli ved
Ġam igo
Ã¶s isch
en se
Ġlon ger
us to
Ġgio c
Ġnuo vo
Ġof t
Ġsor ry
Ġm ent
ch ten
Ġco ffee
Ġand ere
Ġdin ner
k a
Ġt w
Ġver amente
Ġb er
Ġfor g
Ġquer ia
Ġmus ic
hr er
Ġne ces
Ġimpar are
Ġn at
ig keit
Ġkann st
am men
Ġ âĢĶ
ĠMens ch
Ġre ce
p ort
Ġma Ã±ana
m t
Ġv om
ĠP ol
and er
Ġvo gl
Ġein es
Ġav ere
W at
P od
ĠT atoeba
Ġdes p
H ay
Ġs unt
ÈĽ i
Ġdi jo
Ġmangi are
Ġpou co
Ġno ite
Ġm Ã£
Ġdur ante
u red
Ġli br
g ia
end ed
Ġfel ice
Ġa ir
Ġg osta
Ġpro gr
lich en
Ġfe z
an ta
ad es
ai x
ĠH and
ĠP l
i ra
ĠB ras
pp e
f el
Ġhand s
Ġgen er
Ġdri ve
Ġf esta
Ġv ide
um p
ag li
Ġfor m
Ġvost ro
Ġp un
Ġme an
Ġr estaur
Ġsig n
ĠdifÃŃ cil
gi one
Ġl lam
Ġqu el
Ġop in
i ld
Ġimp ress
Ġton ight
oc a
Ġge gen
! âĢľ
Ġfo ll
Ġher m
ar ÃŃa
Ġon de
ist or
Ġca f
Ġde vo
ich tig
Ġsein em
On de
? "
E ll
Ġn am
Ġhel fen
Ġbe k
j ect
Ġne g
ac i
Ġmie i
Ġl he
enn t
Ġfin ished
ĠPro ble
Ġ The
Ġm ij
ll o
ann i
Ġpri m
ĠE in
Ġel es
z za
ĠE g
Ġs ound
Ġbec ome
Ġb at
ou w
Ġlet to
n ess
Ġocc up
V u
ar to
bl ic
Ġl at
Ġand ato
ĠAb end
Ġst an
Ġposs ib
Ġt ent
Ġl l
ien to
Ã¢ n
V er
Ġl ight
Ġde b
ut en
Ġinter est
c co
z zo
an i
Ġqu ed
Ġtu oi
Ġhot el
Ġt inha
r Ãł
Ġmein er
Ġ 5
Ġprofess or
s am
ig t
Ġy a
Ġwe aring
Ġpassap orto
ľ ber
Ġr Ã¡
Ã§ Ãµes
Ġg ol
ĠG l
Ġti po
ar l
art h
ĠSch ule
Ġs ci
ugh ter
ĠS on
Ġschn ell
Ġma kes
Ġsettim ana
Ġch ang
Ġp le
Ġh in
Ġdin heiro
g ent
ĠA ugen
Ã± a
at or
c to
Ġvi ol
Ġs y
ag gio
Ġsp end
Ġt ue
ĠFranz Ã¶sisch
Ġsw im
Ġhabl ar
ĠIr landa
W aar
Ġ 3
re ich
Ġat Ã©
Ġpres ent
wh ere
Ġforg ot
Ġtele vis
in en
ch ter
ĠÃº l
el i
ot to
k el
al es
ull ie
ÃŃ vel
K ann
er ra
is se
Ġpron to
Ġde gli
i os
Ġcan not
Ġwe g
Ġsor pr
Ġc ra
Ġsie mpre
Ġri us
Ġn orm
Ġtrabal ho
Ġat ten
ad en
Ġu cc
Ġl ater
Ġf ell
Ġqu ella
Ġes toy
Ġex am
oh ann
ĠF r
Ġtod as
E nt
Ġhe iÃŁ
ck t
l oss
ĠestÃ¡ n
Ġno vo
ĠB Ã¼
Is to
v ate
ach e
Ġess en
ĠW asser
ag o
ĠRe g
U na
Ġk auf
Ġesc re
Ġtrou ble
Ġfoll ow
Qui ero
es o
Ġries co
Ġr istor
Ġj emand
be i
Ġma ar
s ta
Ġn Ã³s
Ġde v
ĠV or
ere m
Ġpr esto
Ġdou bt
Ġbr ing
Ġvole va
h ol
ĠN iger
Ġc ity
Ġtod a
Ġs un
Ġp ul
Ġser v
Ġfranc Ãªs
Ġa le
ant as
Ã© r
Ġcon ta
ĠH und
Ġg leich
Ġbes te
Ġprom ised
Ġcon vers
ĠL and
Ġacc ident
ow er
Ġhom bre
Ġl assen
Ã¼n f
is m
Ġg osto
Ġc ir
ĠUn ter
Ġafter no
Ġsoll te
Ġhab it
Ġnum ber
c um
Ġper so
Ġdec ir
k et
Ġe ff
Ġdies en
er d
ion s
gn a
Ġdiffer ent
it to
ĠZ immer
j er
Ġmed ic
Ã§ as
s ide
Ġ edi
Ġp ie
Ġafterno on
Ã¡ t
oss a
ĠSt adt
Ġdiver t
Ġam b
Ġf ab
Ġli ber
c en
Ġe v
Ġfi re
ar ten
uf f
Ġhe art
we en
Ġfic ar
res te
Ġplay ing
a hre
h in
Ġes to
Ġquier o
Ġs ens
ĠI nd
Ġr an
Ġtr es
Ġbec ame
at os
Ġver t
Ġsi x
j os
Ġs ed
Ġstor y
p ido
Ġm Ãºs
Ġsich er
Ġnie mand
b ens
u ri
Ġcar ta
Ġcan e
Ġf id
Ġer k
Ġc itt
Ġcaf Ã©
Ġar beit
Ġcer tain
qu er
ich te
Ġagain st
Ġd ra
ĠC hr
ach en
Me u
Ġf Ã¡
Ġhab ÃŃa
Ġwho le
Ġla w
u it
Ġf all
Ġord er
ui ld
Ġwe il
n et
ĠLe ute
em ent
Ġi ll
ag u
Ġsch le
Ġlun ch
H Ã¡
Ġg ab
Ġal to
ir t
Ã¼ck lich
Ġcle an
Ġf ree
Ġz al
Ġa te
ĠU hr
itt ing
ord en
Ġmigli ore
Ġb on
Ġj og
Ġmod o
Ġc ul
ĠJ ohann
Ġ20 1
u o
Ġvost ri
amb Ã©m
x i
Ġhom em
Ġsusp ect
Ãª m
y p
is on
Ġb or
Ġi d
ĠN o
Ġser ious
Ġdre am
Ġfor get
Ġoc up
Ġbeh ind
ĠM on
Ġn as
ente mente
Ġb ri
Ġsp os
Ġcont ra
P r
Ġsp ent
Ġim ag
Ġsa gt
Ġt ennis
Ġreal mente
Ġto wn
R e
Ġqu ick
ci as
Ġwind ow
Ġsec ret
Ġse a
ur es
est re
Ġtr Ãªs
Ġmein em
edi at
g as
Ġp ost
gra f
Ġh i
Ġwor den
Ġsic uro
Ġha ber
Ġam or
Ġle gg
t ed
Dies es
are bbe
Ġge he
Every one
Ġnost ri
Ġhum an
Ġturn ed
K Ã¶n
Ġer w
Ġcompr ato
Ã¤d chen
Ġsa h
Ġsol d
ĠT ok
Ġr ad
i u
Ġin di
ut sch
T o
it z
la in
Ġw il
Ġde ber
Ġvost ra
Ġs b
Ġcu id
as ed
Ġbet ween
Ġsum mer
Ġt able
Ġres ult
Ġbus iness
s er
Ġm and
Ġe con
fr ica
Ġpia cc
hl er
May be
C h
et o
bo ok
l ess
z y
Ġv iene
Ġapr ender
i or
ch io
Ġo pp
it ori
ay a
Ġverd ade
Ġexact ly
E m
a ir
Ġm ÃŃ
Ġman o
W ann
c ri
Ġch ar
ĠD an
Ġdo en
uch e
ĠN acht
on i
Ġs ond
Ġst ra
A qu
Ġg est
D at
Ġan ge
ĠG od
c y
ro om
ĠA uf
or en
Ġwoll en
Ġsig ni
Ġdam it
Ġzus ammen
g est
in ce
V en
Ġein z
ĠIt alia
Ġhelp ed
Ð µ
l ar
Ã© d
Ġcompr are
Ġt est
Ġde ath
Ġdan ger
c ra
ti mo
Ġestud i
ad er
ort h
Ġret urn
Ġ Th
Ġda ughter
ei ro
Ġdem asi
Ġpa ura
Ġz ou
Ġeat ing
er Ãł
Ġli ked
ĠG iapp
Ġtut te
im ento
ĠGiapp one
e ver
Ġc ada
i us
Ġf lo
ĠJ ahre
Ġalt ro
Ġn essuno
Ġan no
ĠS om
ĠJohann es
Ġmo et
Ġrel ig
ck en
Ġwr ite
wor k
z Ã¤
Ġt ambÃ©m
Ġs we
is to
Ġencontr ar
is c
ag es
ĠS a
ess i
iz za
Ġfu ori
Ġhe alth
Ġvisit ato
Vor rei
Ġfu ll
Ġbro ke
Ġcompan y
H as
Ġj eden
Ġhis tor
Ġd it
is as
Ġof fer
az z
Ġno g
er Ã²
Ġdi vent
Ġign or
Ġso f
V ole
Ġc Äĥ
r am
Ð °
la g
ag n
Ġvia ggio
ĠIs lam
Ġges tern
Ġsch e
ch ed
Ġkill ed
âĢ Ŀ
ĠR oman
s on
ĠL ond
Ġl Ã¤
Ġre cht
P ara
ar Ã©
Ġa hora
em a
Ġgo ver
ag na
Ġgeh Ã¶rt
Ġp ast
Ġma king
Ġar rab
a ut
ĠEs peranto
ic os
Ġgr an
ĠM Ã¤dchen
Ġgl ass
Ã¤l t
b us
Ġn om
Ġpr endere
ze it
Ġstup id
Ġhung ry
Ġe igen
Ġpreoc up
Ġsond ern
en h
Ġam an
Ġke pt
Ġcam era
C ould
le icht
iz o
ien ce
f ol
ok ing
in nen
ie g
Ġdes de
ant s
Ġap art
ra gen
Ġpr inci
Ġapp ena
E ine
h es
qu a
A r
Ġle av
Ġtr ust
Ġb ast
ag er
O ur
Ġk o
ig ent
Ġsp esso
Sem bra
ot ros
b and
ig lia
Dies er
ar me
Ġv ier
P ot
e gn
er ta
im es
Ġs ong
Ġb uild
Ġvol te
Ġc ent
il ed
ĠB rie
Ġag ree
Ġgu y
Ġci Ã²
Ġweek end
Ġge b
Ġcri an
Ġact ually
Ġl ess
ro t
gu Ã©m
Ġne ar
Ġposs ible
ri m
Ã¡ vel
ud er
tion s
Ġfr ase
Ġallow ed
Ġmo vie
M ijn
ch es
am ent
Ġser Ã¡
Al le
00 0
Ã¤ll t
Ġde ad
Ġihr en
int ed
iel en
Ġcome Ã§
ĠW ahr
ib us
Ġvis ta
Ġdever ia
Ã ¦
Ġh ate
De vo
Ġminut es
Ġam ic
Ġte am
hr t
Ġresp ons
Ġmo ve
ĠÃº n
Ġfac endo
Ġdov uto
Ġno che
pp ing
Ġvo ll
Ġevery body
Ġt ir
Ġes e
Ġsie ht
Ġsec ond
w a
Ġl ernen
i ben
Ten ho
Ġarrab bi
ere i
b s
Ġtak ing
Ġalg un
ĠkÃ¶n nte
Ġread ing
ĠE nt
op f
Ġhal f
Ġpict ure
ou nt
E x
n ing
Ġp ela
Ġl es
Y a
r ing
Ġr om
Ġsucc esso
Ġpal av
Ġdi fer
ach te
B itte
ro p
Ġsta va
Ġpres o
Ġcitt Ãł
Ġthir ty
r um
Ġver w
Ġn or
Ġdo is
Ġstay ed
Ġven ire
Ġvu oi
Ġword s
ĠO K
Ġpens a
Ġb la
ed Ã¬
Ġmom ent
Ġdav on
Ġd ato
on de
is f
ĠT Ã¼r
Ġaiut are
Ġsol a
Ġpa id
ĠNe w
ci amo
g em
ĠS k
Ġam ica
Ġout side
G o
Ġver m
W el
Ġcor r
S h
S p
Ġc ut
Ġmil it
Ġst ation
Ã¶ ÃŁ
ier on
r Ã²
Ġro t
ÃŃ amos
Ġass im
or so
Ġecon om
f all
Ġdi ment
Ġprecis o
Ġl ÃŃn
Ġwor ried
Ġd entro
Ġs now
P e
Ġsu lla
an ia
ll en
ĠmÃ£ e
ĠmÃºs ica
Ġdo l
Ġknow n
Ġhas ta
Ġvost re
Ġcon cer
A c
s st
uf t
rem mo
Ġv end
Ġre co
ern t
Ġdemasi ado
Ġg ern
v amo
y er
Ġv ie
il mente
Ġcas o
Ġca ff
Ġp en
ĠTom s
Ġbe b
ĠestÃ¡ s
Ġwo hl
Ġf ol
ĠFran cia
ĠfÃ¡ cil
ic s
Ġmul her
Ġ ÈĻ
Ġsu gg
Ġj ap
Ġinv it
Ġquestion s
ĠGerman ia
el en
ur s
el f
! "
Ġtra vel
at ro
Ġam o
Ġchi esto
r on
ĠÃł s
Ġprecis a
Ġf ight
ard i
Ġpri mer
Ġc av
Ġmus st
c l
Ñ Ĥ
N ot
ĠSt ra
er c
ar se
Ġhad n
Ġlu ck
ce p
Ġalle in
z ioni
or ia
Ġb ase
Ġan o
N os
Ġg ame
Ell os
y ed
Ġj ullie
Ġfor ma
Ġlo ved
Ġget an
f te
Ġcaff Ã¨
Ġbir th
Ġget s
ost r
Ġgo es
Ġcom es
Ġcom ida
Th ese
V amos
ĠK a
as es
ĠK at
is mo
Ġwa ar
Ġprop rio
z ion
ation al
Ġaman hÃ£
un ge
et h
Ġfr ont
Ġtal ked
in ar
Ġra p
Ġnot te
Ġsc ared
ĠJahr en
Ġsch wer
S er
Ġra gione
Ġstud ents
Ġpr est
Ġabs ol
D it
Ġuns er
Ġc idade
Ġd est
Ġqui ere
G u
auf t
ad i
Ġsp o
Ġcan s
ĠSpra che
ic an
Ġse par
Ġtr as
rei ben
Ġint ell
Ġd et
Ġe qui
ĠO r
Ġst anno
ĠG re
Ġmis mo
ĠWahr heit
ol i
Ġfeel ing
Ġv eder
Ġgl Ã¼cklich
im e
Ġwir st
h am
Ġsa bia
ĠCan ada
en za
Ġu til
Ġf ing
Ġver k
Ġco isas
Ġos ped
iti es
Ġve el
p en
Ġre la
Ġsa fe
Ġac ab
Ġse it
Ġpro c
y e
Ġc la
is en
Ġo d
u es
Ġas col
Ġgen itori
V ou
Ġt all
Ġpar k
Ġab ri
ill a
Ġca be
g ui
Ġs n
Ġab bia
Ġl en
Ġinc ontr
Ġnost re
P are
Ġimp egn
Ġwork s
av ÃŃa
sch ied
r or
ĠB es
es c
un que
Pre cis
em i
Ġdel a
Ġfi x
Ġwor ked
N ie
Ã «
No body
Ġt Ãªm
Ġb all
Ġb orn
f ter
il s
in ta
Ġen g
Ġge ben
Ġser a
Ġques ti
Ġv ino
Ho e
Ġvol t
C Ã³mo
p ra
Ġthink ing
ci uto
y m
Ġh und
Ġcar ri
ĠW ort
ro te
Ġadm itted
d ig
Ġl ic
Ġde j
Ġser ve
Ġproblem s
Ġn atur
Ġwal ked
Ġaff ari
u w
Ġi di
v as
gl ie
f i
Ġbe im
Ġg laub
ti ge
cto ber
et ro
ĠG ed
Ġkid s
un i
ann t
Ġden ke
Ġav uto
ti vo
ri os
hi p
Ġdo t
or re
etz en
id i
Ġpro du
Ġess a
ĠrÃ¡ pido
ff er
Ġnost ro
Ġpiacc iono
Ġ You
ti re
Ġr ather
Ġp osto
u Ã©s
ĠF ahr
Ġcon oc
Ġam iche
Ġal ong
Ġbe gan
Ġp an
Ã© is
ici le
Ġcam p
Y anni
s ter
Ġgo ed
Ġfor te
ar le
Ġmol ti
ĠO ctober
Ġche ck
gent ina
Ġse ver
ic let
ier s
P o
Ġst anza
Ġsent ito
Ġalgum a
uss te
Ġgu te
S ab
Ġcu c
e f
ge hen
Ġdis a
Ġesc ola
Hab en
ant en
Ġcl oth
or k
Ġg ed
ac c
Ġcer te
Ġstud ying
Ġbr ought
and on
Ġfi ve
Ġm ill
ti go
Ġimp orta
po is
Ġpa ar
Ġplan e
O h
um en
Ġwe iter
Ġdein en
r ÃŃa
Ġc um
Ġle ben
Ġver b
Ġent er
Ġap enas
Ġv as
Ġs ell
ĠK le
Ġter ri
ĠProble m
Ġ usted
Ġlingu a
Ġpo int
Ġexpect ed
r Ã¼
Ġmista ke
Cu ando
Ġcin co
Ġex tra
w ay
ĠÃ ľber
G ra
Ġt ur
Ġf Ã¼nf
Ġs and
Ġde al
Ġat tra
ĠprÃ³ x
Ġga an
Ġsh ort
ĠM in
Ġcar ne
Ġs qu
Ġf iz
ĠSt ati
S ar
b ed
Ġas ÃŃ
Ġso z
Ġcom igo
la fen
Ġsta i
Ġsa g
ĠFe hler
w ort
id as
Ġd ÃŃas
am il
Ġag re
Ġle ast
Ġor gan
Ġm id
Ġn Ã¤ch
Ġco che
Ġdiff icile
Ġamic iz
ĠR ussia
Ġsap ere
is co
Ġfab br
Ġh it
ard en
Ġm ur
Ġm Ã©d
ĠAl ger
Ġnew s
Ġste ht
Ġer st
c ent
ĠK l
Ġcomp le
Ġpal ab
Ġa ge
Ġw all
Ġqu asi
Ġra z
Ġsay ing
Ġtrov ato
Ġed uc
ĠM it
u gu
Ġc ach
Ġb ur
ges ch
Ġh izo
ÃŃ an
Ġbel la
Ġa ch
Ġm enti
il ity
ast anza
Ġcare ful
ĠEngl isch
ĠÃ¡ r
Ġaj udar
T ien
Ġpl ans
ĠSch l
ste m
Ġabb astanza
Ġes a
Ġcl ose
d uc
men o
Ġfind en
r Ã¡s
en z
Ġth re
Ġle er
Ġest ado
Ġfin ish
A uf
em p
s et
Ġdisc uss
Ġinterest ing
Ġne igh
f or
Ġoc chi
end i
Ġf our
Ġqu is
im it
Ġsch a
Ġchang ed
Ġdef in
ĠBrie f
Ġm ine
Ġhome work
ĠB el
ĠWe g
Ġme er
Ġposs iamo
Cre o
ĠN at
Ġvide o
ic as
Ġla ugh
Ġbo x
r ar
u ela
Ġhe cho
ct ed
f ica
ie b
Ġci ud
J ust
z er
Ġmo ved
Ġca ught
A v
il en
Ġlo ves
in land
Ġn asc
Ġdi c
il fe
Ġgio v
ĠMus lim
Ġs le
Ġdo po
Ġs itting
Ġw rote
Ġb i
Ġat ta
Ġin j
Ġwill st
ĠÃ¡ gua
Ġingl Ãªs
Ġbic iclet
Ġm ondo
ti gen
Ġac red
Ġb ill
Ġg ato
S a
Ġsu c
Ġtrad u
Ġmonth s
Nie mand
Ġgr Ã¶ÃŁ
bra cht
Ġam a
ic es
B oth
Es pero
Ġnost ra
ĠT od
Ġihr er
al a
O ne
Ġse x
Tut ti
Ġwor ry
Ġmor te
Ġmes a
Ġperf ect
ĠGe b
Ġten ÃŃa
enh um
El as
Ġingl Ã©s
a hn
Ġsho es
ĠAng st
Ġ '
Th ank
ell t
Ġgu erra
ver ed
fic io
ÃŃ t
Ġwill ing
Man y
Ġs an
Ġer g
Tod o
Ġnego zi
s en
Ġ1 0
in to
re b
ie me
Ġs arebbe
Ġfavor ite
ĠFre unde
Ġnue vo
Ġc ult
Ġlar ge
Ġc ug
Ġbu en
ĠUn iti
Ġ 4
imm ing
Ġh ol
Ġstr ade
A cho
an as
Ġb ol
Ġli bri
ind en
Ġtrans l
ĠF rage
ĠWo che
ir s
Ġin izi
j as
ĠÃ ¶
Ġh id
ri es
ul g
Ġwar um
ze ug
Ġb aby
Ġch ia
ĠEl tern
Ġcloth es
Ġon tem
Ġwe it
ge b
Ġma us
Ġdar k
Ġquick ly
Ġarri ved
J Ã¡
Ġc ad
Ġch am
Ġfat tor
Ġpol ic
se hen
Ġas leep
ambi Ã©n
at ura
ĠH o
Ġedi fici
Ġqu it
Ġuns ere
Ġsoll en
Ġwen ig
or ro
Ġstr ong
Ġirm Ã£
er st
Ġp izza
Ġtr at
Ġper Ã²
la gen
i as
Ġa gua
ĠChr ist
Ġc our
i i
Ġsc ar
ra g
ig ar
Ġwe ather
iel or
ig a
Ġdorm ir
Ġdr unk
Ġbla ck
em ente
Ġt ou
um m
Ġ (
Ġsu fici
e z
w ei
Ġden aro
sch uld
E ro
O b
Ġd ese
ell os
Ġsche int
gun ta
x e
Ġw ohn
Ġdi as
Ġhe av
Ġr ice
Ġvez es
Ġcarri era
M it
8 6
om ob
Ġfo ot
tig t
z ig
Ġen s
Ġho y
Ġtrov are
Ġscu ole
Ġvo y
Ġest amos
u a
le g
Ġdov rebbe
ĠDe utsch
Ġconse gu
Ġb ot
Ġst ore
Ġwatch ing
Ġf as
Ġimp oss
Ġmos che
N essuno
Ġso y
Ġh us
Ġc and
Ġc ena
ig ente
ink en
ij d
Ãº mer
Ġlle v
Ġunivers itÃł
Ġwe ar
Ġverl oren
em o
ĠA nt
Qu ero
ĠM a
Ġfl ow
Ġa per
ere mos
Ġpar la
Ġinsegn anti
utt osto
c ke
Ġr ing
es i
uch te
Ġgen ug
ĠBr uder
Ġpu blic
Ġble iben
Ġristor anti
ĠH ilfe
ĠIn tern
ÃŃ r
vi ous
ĠLe hrer
ett ere
Ġlegg ere
v il
v it
Ġtom ar
Ġt Ãº
ag og
a uto
Ġexp l
ors a
Ġgan ze
Ġsp richt
rie ben
Ġsw imming
n os
Ġir gend
Ġsto pped
Ġs ido
Ġne ue
Ġall en
Ġrestaur ant
ir ia
Ġj unt
Ġbast ante
h st
ĠF amil
D Ã³nde
Ġt ree
Ġp ad
Ġihn en
at ore
ĠN or
Ġpi uttosto
Ġs ide
Ġb asi
Ġf ui
Ġw ine
Ġpre gunt
cra ina
Ġapp e
ĠÃ ³
Ġper ro
Es o
nd o
Ġwe et
Ġzw ischen
Ġsu as
Ġamiciz ie
Ġ ore
Ġw usste
Ġter ra
Ġpon ti
N ach
Ġg row
Ġeven ing
b es
Ġcle ar
Ġf is
Ġtr iste
Ġban che
ĠY ork
Ġbamb ini
Ġgost aria
Ġosped ali
ĠI hre
Ġpr en
ĠC ina
Ġdiment ic
Ġcerte za
Ġc imit
ĠÃ Ħ
ĠD as
Ġre den
Ġgirl friend
Ġpoder ia
Ġaut ostr
ĠLie be
Ġciud ad
p as
y cle
Ġt el
Ġd az
Ġat ra
Ġsh all
Ġbir rer
8 4
Ġp ur
ac che
Ġlos e
f Ã¼r
f orm
or me
Ġgr atta
bl ie
ari as
Ġother s
iz io
Ġn Ãºmer
Ġcos as
k te
Ġne gli
Ġlie gt
ĠgroÃŁ e
Ġimm ediat
ĠB ett
Ã¤ us
Ġperson as
Ġmilit ari
and e
Ġrep ort
Ġbibliote che
Ġfabbr iche
ar ono
ve m
oc co
Ġmol te
ĠKaby lie
N a
Ġp ick
Ġsin agog
Ġfranc Ã©s
Ġtri p
Ġgover n
Ġgratta ci
ĠM ein
ter ra
ĠN ord
Ġtemp li
Ġmosche e
A p
ĠK opf
Ġold er
Ġfattor ie
n ung
Ġwar m
Ġreal ized
ĠInd ia
en cia
Ġw omen
Ġca usa
ĠCh ina
Ġgrattaci eli
Ġs la
Ġbe w
ato i
Ġbu ona
Ġmaus ole
Ġdar an
Ġconos ce
Ġstor ia
Ġcimit eri
Ġw Ã¼n
Ġge z
Ġques te
Ġpal estre
vam enti
Ġautostr ade
Ġbirrer ie
L ass
l ing
ĠT o
Ġalle vamenti
ru gu
Ġbar acche
Ġaren e
Qui Ã©n
Ġmatt atoi
Ġverg essen
Ġsinagog he
Ġmausole i
M ir
Ġcerc ando
Ġkle in
ĠMar ÃŃa
Ġsu it
h ai
Ġper gunt
c el
a f
Ġc ru
Ġpra ct
at ic
Ġbra vo
Ġb ald
Ġgu itar
Ġle icht
Ġst ati
im ent
Ġpo or
Ġdiff eren
out h
ec es
Ð¾ Ð
v al
Ġr ub
Ġcam a
ĠPar is
Ġer zÃ¤
Ġandre mo
Ġh ur
Ġk ennen
Ġot ra
ĠGl Ã¼ck
Ġt ardi
Ġpop ular
Ġhus band
is ce
ut s
ib i
ĠZ ug
und er
ull y
al ien
Ġfl u
u tion
Ġm ot
Ġh old
Ġb ij
ĠG all
ĠEn de
Ġmangi ato
Ã³ ria
ma is
l he
Ġ ought
Ġp io
Ġsucc ess
ich en
Ã¤ h
Ġsp ort
Ġhis t
ĠSp agna
Ġ 6
er on
Ġganz en
ĠlÃŃn gua
Ġj eder
g ou
Ã¶ hn
Ġro ad
ens ive
Ġlearn ed
Ġa cha
il ia
Ġfaz endo
Ġragaz za
om er
el ijk
ĠLe bens
Ġt ick
ĠS ta
Ġsal v
o it
Tom s
ak t
Ġl ado
Ġfa ir
Ġten er
Ġinteress ante
Ġs ter
Ġand ata
D en
ru ck
Qual c
Ġext rem
Ġcom inci
Ġkauf en
b el
ti op
ĠJapan ese
Ġbirth day
Ġcar a
Ġgi ven
Ġstre et
Ġo per
Ġde ze
Ġcap ital
S pero
Ã¼ nd
Ġv Ã¡
Ġc up
r itt
Ġl er
Ġis to
Ġsp Ã¤t
we ise
Ġmay or
ĠEuro pa
r oss
os i
Ġen fer
Ġnad ie
Ġd are
Ġsh ot
Ġver itÃł
h ou
he id
il terra
Ġdar Ã¼ber
Ġcolle ge
he m
Ġde mais
Ġit ali
ĠG ro
ĠA nd
ens cha
Ġsc rit
gh ilterra
Ġingl ese
ĠAmer ica
Ġl em
Ġv amos
ĠJ ack
ĠV iet
Ġapp ro
Ġdoll ars
Ġn ing
Ġqui et
ĠSchw ester
O ggi
ÃŃ do
Ġfin o
Ġdom anda
J ohn
Ġwas h
Ġj u
Ġai uto
ĠDe us
Ġprinci p
Ġsever al
d ing
Ġn enhum
ge w
Ġric ord
Ġvole te
Ġimp ro
Ġmor to
Ġv os
Ġnerv ous
Ġman hÃ£
t anto
Ġac cept
H at
Ġs ÃŃ
Ġel ect
Ġfal a
Z ij
Ġe arth
Ġshow ed
ter s
ib o
ĠKa ffee
ot os
N ow
Ġb ank
Ġf ish
ĠM orgen
Ġvi v
Ġtem per
Ġtak en
Ġcat ch
Ġpren otare
ri Ã³
Ġpod emos
oun tain
ere mo
im ar
vo le
Ġletter a
S ou
Ġcuid ado
Ġch oc
Ġdes per
is p
Ġem bar
ĠAr gentina
Ġcomplet amente
Ġl ying
Ġg as
Ġsu on
Ġdu as
Ġt ambiÃ©n
ll ed
Ġbe kommen
Ġcon ven
Ġr um
Ġni Ã±os
ĠViet nam
c as
m et
Ġz we
Ġdisp ia
r Ã¡
at ti
ver t
Ġrad io
Ġbe v
ĠV ers
Ġsoll ten
Ġze hn
Ġdaz u
Ġd achte
Qu er
Ġap ro
Ġup set
Ġfer m
g um
Ġfic ou
ace book
Ġvec es
c ato
Ġn inguÃ©m
ib ile
So y
ac qua
Ġge kommen
Ġprof es
at ica
Ñ ģ
ĠS te
iam ente
Ġmu jer
fahr en
Ġh inter
Ġfin ito
Ġre ach
loss en
as era
Ġin no
Mar ie
Est amos
Ġpesso a
fol g
Ġfam iglia
Ġg arden
Ġfa hren
Ġsto l
Ġfoto graf
For se
Ġfrat ello
Pens avo
Ġnorm al
Ġa st
Ġa Ã±o
in ato
Ġp unto
ri as
ĠA ra
Ġcl im
Ġapp re
ate ver
Ġpross ima
Ġc res
Ġi dio
Ġpri mo
ĠF inland
Ġpa in
Ġtre m
Ġb ody
Ġcont r
Ġcol or
V e
Ġno ti
Ġand rai
Ġper der
ĠB aya
Ġdur ing
N icht
Ġh Ã¶
Ġweek s
Ġconv inc
Ġgiorn i
Ġv riend
un nen
Ġdanger ous
f ully
ra ch
Ġno vel
ig in
Ġalt ri
ĠmÃ©d ico
ĠM ess
d s
a h
ĠF uÃŁ
Ġgek auft
Ð ¸
Ġver lie
Ġfin ally
Ġspeak s
Ġfig lio
Ġsb agli
ag em
ens ter
f ast
ar ci
ur z
Every body
Ġon s
ist an
Ġproblem as
ĠGre cia
Ġe ing
Ġvi vere
Ġesper ar
in ese
Ġpu oi
br es
Ġcomplet ely
Ġt ijd
Ġal i
Ġfor e
Ġtell ing
Ġen erg
Ġopen ed
B ist
n y
Ġsor ella
Ġandre te
f on
u he
Ġse mp
ag ed
Ġbu on
n ten
ne hmen
und a
Ġandr anno
ĠGr und
Ġh Ã¶ren
Es to
Ġgr ado
uÃŁ er
Ġf le
ĠB ulg
Ġg un
Ġ Do
er to
Ġst esso
ac iones
i ere
Ġsp ielen
Ġspeak ing
C ont
ĠA p
Ġve get
Ġfac t
Ġa z
Ġdar auf
j d
Ġbic ycle
Ġsitu ation
Ġpr ison
ha upt
Ġs ve
Precis o
Ġd ed
Ġm ater
ĠS atz
Ġr ou
ĠA m
iz ia
Ġgr ad
Ġcach orro
Ġri gu
Ġp ower
Ġv ent
Ġdo cum
S c
Ġde u
omob ile
u omo
ÃŃ c
Ġge gangen
Ġesc uela
M io
Ġnuo va
ier to
Ġconst ru
ĠZ el
T ra
re mo
Ġb ott
Ġto p
ĠSa ud
l le
Ġu omo
ĠGesch ichte
Ġc ibo
ol le
Ġparl ato
Ġfut ure
Ġpa int
Ġsen hora
ĠBÃ¼ cher
e ch
Ġb ent
Ġlearn ing
Ġc ard
Ġfr Ã¼h
Ġstud enti
Ġbra ucht
Ġb al
os te
ĠAustr ia
ati ent
Ġquer ÃŃa
ul o
Ġprom ise
ĠPar k
c ado
ĠF acebook
ĠK o
Ġrec ord
A fter
Ġs otto
Ġb and
Ġg enti
un ter
Ġno dig
Ġer inn
ab en
ĠP orto
Ġot ro
ĠAlger ian
Ġdi vor
Ġluck y
Ġtr eno
Ġwish ed
ti r
Ġmus ica
Ġsa i
Ġte xt
ĠnÃºmer o
Ġwh ite
pro chen
Ã¤ f
He ute
Ġatten tion
Ġfil ho
Ġpas ado
An che
Ġrit ardo
Ġwer d
Ġascol t
ar f
mal s
st Ã¤nd
Ġlu z
l as
Ġirm Ã£o
Ġleav ing
m it
Ġden k
Ġtut ta
Ġa os
ĠMess ico
Es se
we g
ĠBras ile
ban ia
M inha
ec a
Ġpic c
Ġw ann
el ess
ĠD u
Ġsome body
Ġbreak fast
Ġbase ball
w ich
Ġl ad
Ġin de
pp en
ier o
Ġcry ing
Ġe ither
Ã¤n ger
en ne
it ter
Ġsu d
Ġte u
Ġsoll test
ĠAra bia
Ġd all
ing t
ĠS ve
Ġpr ess
Ġestud ar
ad ores
Ġk it
ĠMal ta
ĠRoman ia
Pe ople
Ġexp lain
ĠIn ghilterra
or y
Ġche gar
Ġtr Ã¤
Ġsol amente
G ive
Ġsomet imes
Ġhu is
Ġf oss
Tien es
ĠSve zia
N inguÃ©m
Ġn un
ĠK on
un ci
Ġesp osa
Ġsl ow
Ġtien en
r ouw
ar li
Ġfo ol
alt ra
Ġpross imo
ĠBulg aria
Ġinc l
ĠIntern et
f o
g allo
ap s
ist ic
Ġsent ence
ĠGe f
ĠChrist mas
ĠPorto gallo
Ġfor am
Ġco le
Ġconos co
Ġte a
ĠT urch
Ġglau ben
Ġanim al
ĠTurch ia
r om
Ġal guÃ©m
ĠSp iel
Ġh ang
Ġqu arto
Ġz ich
H ier
Ġh Ã¶r
ĠS iria
Ġtr en
E cco
he im
ĠG ott
Ġries ce
8 7
Ġg am
Ġem b
Ġlie ber
Ġmatt ina
Ġstran ge
Ġc rit
idad es
sche in
ĠFinland ia
ar ch
Ġg ele
ĠB ielor
Ġdesp uÃ©s
Ġ Â¡
er k
Ġv ill
Ġnot ic
De ve
in as
Ġn ar
end s
li k
Ġbibliote ca
ĠheiÃŁ t
ĠB an
Ġta xi
Ġins ide
Ġst essa
uo va
Ġand ando
ĠB ild
Ġen em
Ġon es
Ġdis so
Ġqui Ã©n
ĠMein ung
ĠZel anda
ĠSaud ita
Ġt us
Ġpa is
Ġac ross
Ġabsol ut
Ġm ese
st ell
Ġsen se
Waar om
Ġdein er
ĠTok yo
ĠKat ze
Ġs ad
A b
Ġl esen
de u
O ra
ir at
Ġmi hi
Ġca us
Ġfal ta
gg ia
Ġdecis ion
ĠS ohn
ant os
ĠT age
Ġfin al
Ġdar f
Ġadv ice
Ġre ma
Ġgu ys
Ġverste hen
Ġbuild ing
Ġri ver
Ġbeg in
Ġlangu ages
te en
Qualc uno
8 0
a pp
m lich
Ġfer tig
ĠLib ia
Kann st
ĠBielor ussia
on os
ĠS co
ĠF ar
Ã¶ glich
Ġgust arÃŃa
Ġflow ers
C os
ĠD inge
ĠMar occo
Ġp Ã¡
it Ã¤t
ĠN uova
Ġgu id
re u
Ġha bt
Ġge g
Ġvi vo
ĠFamil ie
a Ã§Ã£o
ag gi
Ġplay ed
ĠLib ano
z lich
Ġcom b
ĠP ak
Ġbu ena
Ġme ans
Ġsol tanto
Ġinten zione
Ġri p
ho f
Ġcl osed
Ġgew orden
ĠSco zia
Ġth ough
un ft
ir m
ĠmÃ¶ glich
Ġdrink ing
ĠK Ã¼
Ġup on
Ġpe que
Ġbe er
ĠL itu
ec er
Se ine
ĠPar agu
g ado
ĠS uda
Ġgol f
ĠSuda frica
Ġm ountain
ĠÃ¼ber haupt
Ġih rem
Ġwi ld
Ġtien es
ĠEg itto
rugu ay
ff t
Ġcer to
ĠI de
Ġsta ying
Ġke y
Ġgew esen
ip ro
Ġhund red
Ġgioc are
on y
Ġfi red
Ġide ia
a hl
Ġwar ten
Ġminut os
ĠNiger ia
Ġc Ã³mo
as che
Ġni Ã±o
ĠAl bania
pl es
Ġave vo
E ven
Ġne uen
ach ten
Ġdri ver
Ġe cht
ti me
ĠF il
Ġlie be
Ġsic ura
w el
er op
Ġcon ten
Ġli ed
ci re
ci endo
Wh ich
Ġfin estra
ĠgroÃŁ en
Ġgu ess
Ġfre qu
Ġsch re
Ġcra zy
Ġm edo
He b
Ġfr es
ĠC ipro
Ġapart ment
r Ã¼ck
Ġdi vers
ce ed
Ġcer ca
Ġro b
Ġexp ensive
Ġcons igo
Ġagre ed
ĠParagu ay
ers on
Ġchoc ol
Ġde pois
Ġpass iert
Ġandr Ã²
Ġt we
ĠGe w
Ġprogr am
c ch
c ido
Ġ âĢľ
el te
Ġcon tigo
ĠL ett
Ġprefer ito
ĠLitu ania
Ġm Ã¡
Ġcom un
ac o
ĠU craina
Ġsent en
r t
Ġi ce
od en
ĠPol iz
S Ã³
Ġes pe
ĠU m
Ġcou ple
Ġarr ested
Ġap olog
ĠNat ale
r us
Ġbo a
Ġc ort
Ġcomp ut
Ġpu edes
Ġag rad
Ġlle gar
ve gia
Ġre ci
Ġsegu ro
ĠNor vegia
ĠLett onia
Ġter m
ĠBel gio
Ġc el
et i
Ġtelef ono
Ġfut uro
Ġcrian Ã§as
4 2
Ã¡ lia
Ġden ken
Ġgirl s
Ġa ce
Ġse ja
Ġher aus
ele fon
d em
ti jd
Ġal ta
Ġne hmen
Ġmu itas
Ġconc ern
Ġpap er
un st
imar ca
Ġl ist
Ġdi o
pp y
Ġvu el
Ġdog s
ĠDan imarca
Ġ Qu
Ġm ass
Ġpr oud
Ġdon na
Ġstud io
Ġreal ize
N eces
Ġe mo
Ġsal a
Ġ ut
Ġc ele
ĠM il
Ġfor a
ĠP h
Ġmo glie
acc ordo
en g
Ġh an
Ġso le
Ġenc ont
i ver
es tern
Ġmil k
ĠHer z
i ar
Ġb oss
ĠT isch
M u
Ġb ede
Ã¶ t
Ġpens ar
Vu oi
Ġdot t
Ġc oc
ic ol
az ioni
ne e
Ġcl os
Ġpa ese
Ġpas se
ĠGall es
ent ed
Ġsch l
Ġra cc
Ġpass ed
Ġtak es
Ġscrit to
Ġan n
Ġle id
Ġcar t
ha us
Ġhabit aciÃ³n
Ġna hm
ĠEuro pe
Ġf igli
ĠU ruguay
Ġer sten
ier te
Ġout ro
ĠEst onia
Ġspo ke
b ere
id amente
he ad
Ġesc uch
ind i
Ġgr ou
Ġesta vam
Ġesper ando
Ã¼h le
Ġlev ant
Ġm ente
re to
Ġqu ase
Ġum bre
Ġf ica
ĠN amen
en er
Ġw orth
Ġsa ir
Ġgi ft
Ġinter n
Ġfac cia
vel op
Ġgiov ane
hr end
ĠF enster
Ġconvinc ed
or ar
Ġcap it
Ġrius c
tiop ia
g iers
Ġhe el
ot en
Ġest re
Ġexp lic
Ġaj ud
Pare ce
Ġam er
Ġmuch os
Ġsch lie
Ġcla im
Ġterri ble
Ġd eter
Ġb orrow
Ġg lo
Ġan ti
ĠÃ© s
ma il
Ho y
h ÃŃ
ill o
ĠL a
Ġreg ret
S olo
Ġs alt
Ġc ast
Ġmen o
Ġmat em
Ġdisa ppo
Ġsufici ente
v amente
ent y
Ġdis co
Ġon t
Ġout ra
Ġfu era
Ġsho pping
Ġhon est
Ġletz ten
Ġd ance
Ġgen au
Ġgef unden
Ġnom bre
ĠÃ¶ ff
or ge
Ġpar ole
ĠP a
Ġob s
ĠFl ug
Ġocup ado
Ġauf ge
Ġhab la
Ġe vent
g ger
Ġjunt os
Ġde z
Ġst adi
Ġest ran
Es sa
ĠIs landa
Ġnad ar
ĠW ir
Ġflo or
Ġho ffe
Ġmu itos
Ġspe cial
Ġadm it
l ine
n ger
Ġex press
Ġgi usto
Ġhop es
ĠBras il
Ġbl ue
Ġnos otros
Ġa ten
Ġyou nger
ur y
ist as
Ġob j
Did n
Ġwur den
t on
ĠU r
ĠAl ice
h alt
Ġs ento
Ġn ell
Ġbe ach
lich er
Ġsal ute
Ġcorre ct
ried en
Ġfun cion
v oc
Ġeat en
Ġol vid
Ġd ate
Ġven uto
n ibus
Ġ 9
ec to
ĠGro ÃŁ
ar vi
at ure
Ġb ello
ĠO landa
Ġenjoy ed
S omet
Ġsim ple
ĠwÃ¤ hrend
Ġarbeit en
Ġgovern ment
Ġa ud
Ġp int
ĠSt ud
g no
y a
Ġb ath
el es
Ġcar ry
Ġent ender
Ġtou ch
ut z
Ġhat ten
s y
Ġragaz zo
Ġcho ice
ĠMus ik
Ġmur der
s h
at ely
Ġaconte ceu
ĠÃºl tima
Ġm are
ak a
Ġsleep ing
Ġab andon
ass o
Ġesc rit
Ġtr an
à ¥
ĠE tiopia
Ġus ar
Se in
Ġcomm un
Ġcontro l
ĠSk ura
j es
Ġm am
Ġl ine
Ġin ves
ĠD ie
Ã¤t ze
Ġletz te
ien ti
in are
Ġp ena
ent r
ati vo
Ġwrit ten
ĠÈĻ i
Ġ 7
ĠB us
Ġpot rebbe
Ġj ard
Ġbra uchen
Ġscri vere
Ġde vi
Ġer f
Ġcans ado
p end
ro g
Ġk Ã¼
um mer
Ġne i
Ġpens ando
E en
ĠC ile
Ġfil hos
Ġresp ect
in ation
Ġp ec
Ġperson al
Ġpict ures
Ġschle cht
enscha ft
Ġal un
Ġst are
Ġsti m
Ġherm ano
Ġdri ving
Ġn osso
Ġn ossa
Ġes qu
Ġmost r
Do bbiamo
Ġpu erta
Ġfac ile
Ġmach te
Ġdorm ire
J a
Ġ ellos
od e
ab ile
Ġfl ores
Ġbre ad
uer do
Ġob vious
h me
Ġv em
ĠR uss
Ġhappen ing
Pu oi
z io
ci ate
Ġsoz inho
Ġwe ight
Ġquier es
Ġrigu ardo
A ustr
er ca
Ġd Ã³nde
ĠW as
Ġpo te
ĠAr zt
Ġaj uda
ĠPl an
Ġi ets
Ġde ep
Ġvo ice
ĠKaby le
Ġda fÃ¼r
Ġpi ens
Ġsing le
Ġtem os
ici ous
Ġfr Ã¼
ele gen
Ġpe qu
Ġ2 00
Ġopin ion
ĠPak istan
or r
lich keit
Ġbe za
Ġbra uche
Ġstr ada
Ġinv ited
Ġwh atever
CuÃ¡ l
us st
ir os
isch er
Est Ã¡s
Ã¤n de
Ġsor r
tim mt
Vu ole
f ten
Ġb iss
Ġmo eten
Ġv ed
ck ed
Ġcomp ort
A ve
Ġsc orsa
anc es
Ġreg alo
Ġs end
Ġw ichtig
Ġre qu
Ã¤ ter
Ġpu b
ĠStra ÃŁe
Ġsand wich
ĠSom alia
rie g
Ġs ang
Ġc Ã¢
icht en
ens ch
Ġsp i
Ġhor se
cul o
ĠlÃ¤ sst
Ġin g
bor en
Ġsy stem
Ġe qu
Ġsc op
Ġca ke
ar beit
ic ken
ui en
Ġlasci ato
E se
p or
ĠM o
Ġwe gen
Ġhacer lo
Ã¡n to
Ġrece i
F in
ĠP ap
Ġfig ure
M ost
Ġf ri
Ġme isten
Ġsp ieg
De ber
Ġta ught
Ġgef Ã¤llt
Ġsom os
Ġ201 3
Ġumbre lla
Ġf red
il ar
ot s
Ġpens i
Ġsm art
Ġfort un
Ġv oc
Ġsc re
Vo y
Ġay udar
z us
an ken
Ġf est
Ġj ue
Ġge be
Ġconcer t
A pp
M Ã¶
ÃŃ lia
Ġall ÃŃ
Ġint ro
S ind
Ġk unnen
ĠReg no
Ġand ers
Ġvi u
Ġwal king
Ġt at
Tom Ã¡s
Ġj ung
Ġj aar
ĠUn ito
Ġbro ken
Ġt esta
Ġs f
Pu edes
Ġsoc ial
Å Ł
ic ul
Ġbe vor
Ġal te
Ġsp ar
Ġdes k
Ġb att
ast ic
Ġga at
k o
ost en
ho od
Ġwin ter
A ren
g re
Ġw ed
Ġay er
Sto p
Ġexper ience
igkeit en
Ġd Ã³
Ġst asera
Ġda bei
Ġcost um
Ġalg uien
All es
Ġgesch rieben
u ge
ĠK Ã¶n
Ġav rebbe
Ġvogl iono
Ġproble mi
Ġey e
Ġb urn
Ġqu est
Ġal z
Ġr ul
Ġam ore
Ġpr anz
and en
Ġhop ing
Ġaspett are
Ġsigni fic
Gu ard
Ġt end
Ġm use
Ġjap on
Ð ½
Ġpar ola
Ġcont ar
Ġfam ous
Ġsupp ort
Ġkit chen
Ġn ac
Ġf ur
ci p
Ġliv ros
Ġwrit ing
J eder
Ġesper anto
Ġtelef on
ĠÃºn ico
Ġco ll
Ġhelp ing
Ġu w
F oi
Ġk enne
Ġgu ter
itt el
Ġsm ell
Ġfra gte
Ġf ly
Ġo di
Ġcr oss
Ġm ult
Ġh ic
ĠS al
Ġbesch Ã¤f
Ġlibr os
in te
Ġest u
ĠS ache
Pu edo
Ġpalav ras
d le
ut to
Ġtod avÃŃa
ĠHer r
Ġm ud
Ġb other
Ġk ennt
Ġla at
Ã¶ l
ch ia
Ã¼ gen
Ġnu otare
Ġsel f
Ġmista kes
Gra zie
F a
M ag
l ijk
Ġhe bt
Ġcomp et
Ġspe ech
Ġsm oking
Ġmuss te
Ġtrabal har
Ġcan z
Ġri man
Ġhel d
Ġhur ry
ous and
land ese
Ġref used
T ake
Ġv ale
Ġres ol
ĠSt unden
Ġped ir
Ġa vi
ak es
Ġandr Ãł
Ġor igin
Ġmai or
Ġrun ning
Ġinform ation
Ġse is
Ġinsegn ante
Ġ 30
Ġc ora
ci Ã³
ch mal
Ġst uff
ĠUn ited
Ne ither
Ġbiciclet a
N ad
O dio
on ese
Ġk rank
Qu ello
Ġrel ations
Ġrich tig
blie ft
Ġst at
ĠSon ne
Ġrisp osta
ute t
Ġreco gn
Ġc ust
Ġr ar
om os
ne te
Ġvol ver
Ã¶r ter
Ġol hos
Ġno oit
Ġch air
ier ra
Er es
Ġpiacere bbe
Ġboy friend
Ġf ost
gu as
Ġro ck
De ze
Ġbr ingen
Ġkiss ed
Ġescre ver
g anda
ok en
ĠH imm
Ġgef allen
ĠE ssen
gl ades
Ġmin has
Ġpri v
Ġemp ez
ĠCan ad
at ten
Ġint el
Ġfun ny
B ut
c u
l ese
id es
Ġinc re
ig r
ers to
S ape
Ġbe iden
Ġinj ured
Ġbiss chen
Ġfor gi
Ġcl ub
Ġkle ine
Ġbere its
Ñ Ģ
ĠS o
Ġein ige
Ġvisit ed
Ã¤hr t
ush ed
Ġes que
ĠA t
ho to
Ġcam po
ĠmÃ¼ de
ĠAmer ican
Ġv ari
iti ve
Ġnuo ve
g ens
Å £
Ġa uÃŁer
Ġer n
Ġstan co
ĠBan glades
Ġp ud
Ġv Ã£o
am er
Ġpi edi
Ġstud ied
Ġcap elli
ar r
Ġf amos
ĠSt re
Ġwait ed
rau en
u h
un ken
Ġgre w
T Ãº
Ġle ad
il ing
Lo ok
T al
Ġsleep y
Ġp ac
Ġf ill
Ġsch reiben
Ġpre f
Ho je
Ġprov ato
Ġk ni
Ġr ide
Ġer av
Ġc Ã¡
Ġsk i
Ġgrad u
ing lese
Ġspe ci
Ġhal ten
Ġvic ino
K e
Ġp ien
Ġinv ol
Ġd or
Ġs mo
Ġbel ong
alt ro
Ġsigni fica
ĠBanglades h
Ġto c
Ġdi ca
ur en
hl te
reb bero
P ar
us i
Ã¼ ÃŁ
Ġda ar
Ġsat isf
p f
it ely
ĠF ern
ĠU ganda
Ġca pp
ĠSp an
F Ã¼r
U ma
i ente
pr es
Ġnecess ary
b it
Ġale m
c ut
Ġdon de
Ġfe ce
Ġsto od
ĠCh inese
Ġzie mlich
iapp onese
Ġbas ta
Ġchocol ate
U nd
d est
Ġaus ge
ĠS h
ĠT elefon
Ġvor rei
ĠWo chen
b uch
ĠA d
Ġanim als
Ġmiss ed
Ġgeg essen
B en
Ġp ier
qu ier
Ġen tire
ond ere
Ġposs ono
Ġcour se
Ġf ame
Ġus c
Ġcar o
Ad esso
ti amo
ĠÃ ´
ĠSch la
Ġdeix ar
Ġpossib ile
Ġin te
ĠM r
ĠA s
ff ic
ĠfrÃ¼ her
ers te
Ġind oss
Ġnatur al
elegen heit
Ġc en
ĠA rab
od o
ĠO s
Ġimpress ion
ph one
Ġsof ort
id ung
ĠE x
5 2
Ġfrat elli
Ġneigh bor
Ġcon m
Ġfr ente
Ã§ ar
hal b
Ġglass es
Ġqual quer
m ed
u is
ment s
stand en
Ġcomm on
n ia
Ġf ug
Ġo ok
Ġsu ic
Ġour selves
Ġt av
Ġdo bbiamo
Ġge boren
Ġco ol
Ġhop ed
ĠÃ´ nibus
Ġp oi
Ġe gg
Ġver de
Ġri mas
Ġcu ri
Ġpass ato
Ġmot or
S al
Ġcon du
Ġfor ward
Ġdein em
Ġbe ide
in os
ent ras
st ellen
iss ion
Ġask ing
Pu Ã²
S Ã©
Ġh ar
Ġre ich
Ġdie z
Ġzu f
Ġentr ar
Ġprim eiro
A hora
te mp
Ġde jar
Ġle bt
Ġdie ci
Ġpe ace
imm t
Ġcin ema
Ġvogl ia
Ġal tijd
Ġer ste
ĠGes icht
Ġp hoto
Ġg atto
ra el
Ã¼ ch
ĠT r
Ġaqu ilo
Ġsape vo
irat et
U st
V iel
Ġl ig
ier ig
ĠW etter
men to
it et
qu ei
ĠP r
De vi
Ġesc ol
Ġcap az
Ã¤n gt
M ia
Ð »
Ġc edo
Ġk w
la ined
Ġcas i
c are
ak ed
Ġfar Ãł
Ġass ist
ĠI hr
Ġcu enta
Ġmuch as
b ile
c os
f angen
Qu ella
ak ing
Ġfe ito
Ġmo tiv
Ġloc al
Ã¼s sel
Ġhist Ã³ria
Ġcele br
T em
Ġv ot
Ġsp ace
Ġcu al
Ġsto le
C red
Ġk aum
Ġme a
ĠG arten
il os
Ġel as
sch te
Ġmar ry
Ġbl ind
Ġdeter min
Ġy ell
Ġbe ber
Vi ele
Ġtraba j
H ere
Ġ ul
qu anto
ent en
iz ione
ĠNach richt
Ġse at
im men
ĠH ol
Ġapr end
ĠSom mer
Ġa cht
Ġhapp ens
Ġnu estra
Ġpers u
Ġsenti r
ĠAmer ik
ĠsÃ³ lo
id ge
Ġco at
zo gen
Ġwonder ed
Ġvole vo
f orta
Ġam ar
wo hl
Ġarr est
K en
l in
st Ã¼ck
Ġat rÃ¡s
ĠJ unge
Ġviel leicht
Ġperm it
Ġalgun s
Ġs ale
Ġl ista
Ġgra ag
Ġbamb ino
Ġprim eira
Ã© u
Ġpod em
ĠUn ivers
Ġnie mals
Ġconv ince
Z ijn
Ġpr ender
Ġac ord
Ġfam ÃŃlia
ĠFreund in
a is
Ġg elo
Ġhard ly
ĠJack son
ra um
Ġme at
Ġman i
etz te
Ġdefin itely
ĠbeschÃ¤f tigt
Ġh Ã¤lt
ÃŁ ig
Ġb aci
Ġpare c
Ġhij o
s tag
Ġt or
en en
Ġb ran
ĠTom Ã¡s
ĠP re
Ġsee ing
ĠÃ¼ber s
G et
W ith
et as
Ġfr asi
cc ia
Ġcl ase
1 0
ch s
it ud
Ġse id
Ġsh irt
Ġare a
Ġar re
Ġbu eno
ĠSt ates
Tod ay
Ġblo od
Ġoccup ato
Ġprofes or
Ġfore ign
g ang
it ten
Ġde press
ap er
Ġconos cen
pre chen
Ġunser er
Ġdispia ce
on nen
it or
Ġal ive
Ġparl ando
Ġmes ma
Ġprepar ed
r ass
ĠB aum
Ġsti amo
h ando
w end
Ġfl ie
Ġsuc ceed
Ġg esto
ed s
vi Ã³
Ġdeber ÃŃa
ĠLond on
igent lich
r ich
Ġno te
Ġsp av
Ġsh ip
arl ier
Nad ie
Ġconm igo
en zi
oc i
cht est
Ġd ent
up er
ĠAustr Ã¡lia
Ġlie bt
Ġpad res
Ġtwe e
Ġesc rib
ĠRe cht
l Ã¤r
Ġgr at
br ia
ĠMin uten
Ġpalab ras
Ġs iste
ri ft
Ġer sch
Ġfun zion
ĠAnt wort
an cia
Ġp edi
Ġcomp lic
Ã¡t ica
Ġod ia
Ġl ing
Ġdi m
Ġsu p
Ġus cire
Ġste hen
Ġdom ing
Ġay ud
o ve
ien za
Ġd ag
Ġen se
Ã¶ ne
Ġfi esta
Ġfam ilia
g Ã³
an ze
Ġth ousand
Ġsome where
Ġresp ond
Ġpes o
Ġe arlier
ĠM an
ĠA ut
m mer
Ġand ar
Ġcap ire
Ġposs a
D ei
Ġf ro
ur an
oc ked
Ġsc el
Ġsc orso
Ġsi ano
Ġres pe
Ġfar m
Ġre gn
Ġnu estro
Ġfa ult
CuÃ¡ ndo
T r
id ay
Ġmin uto
Ġlen gua
i ff
v io
as h
Ġz ien
ĠE ng
Ġdu ro
Ġalg una
ek t
b te
Ġun f
ĠFrau en
nam or
ĠFil m
Ġer es
Ġma in
ne y
Ġdist ur
B ei
n ed
z immer
Ġm ora
at te
Ġf em
Ġqu ar
ĠP erson
Ġyour s
Ġgew Ã¶hn
ĠFe uer
Ġbas ket
on na
Ġsa ve
Ġdov rei
M ach
Ġde be
ĠL inda
Sie mpre
Ġherm ana
Ġimmediat ely
87 9
is i
op er
Ġnotic ed
Ġamer ic
F e
Ġl ont
ab les
Con os
Ġchiam ato
ĠdÃ³ lar
f ied
Ġl ent
Ġqu am
Ġpro duc
ci os
Ġtr inken
ĠEr de
Ġha via
Ġmach e
Ġmess age
Ġkom me
v ido
Vo gl
Ġcertain ly
A cc
Ġse Ã±
Ġri par
Ġwed ding
ar tet
Ġcon fer
Ġso pra
ĠL icht
Ġ1 00
Ġam m
ĠUn idos
Ġword t
Ġchia ve
ĠTo chter
b io
h Ã¶ren
n es
Ġa u
us ti
ĠF ragen
Ġay uda
Ġheav y
ĠhÃ¶r te
el bst
il itÃł
ĠA le
Ġve io
ĠSp a
Vole te
Ġinves tig
Ġf anno
Ġk omm
Ġsu ffer
Ġinter es
Ġverl assen
Ġgust an
Ser Ã¡
Ġm ort
al le
ici p
Ġbet ra
Every thing
Ġin namor
Ġe ten
ick s
ĠAl giers
Ġplay er
Ġcre de
Ġproc ur
Ġextrem ely
Ġsud den
ig lio
Ġte ve
ori es
Ġsor elle
Ġpres ente
Ġinf lu
Ġmed ia
Sta i
Ġsape va
ĠHimm el
te il
Ã© t
Ġcan ad
ĠSch Ã¼
Ġniet s
3 879
D isse
Ġp ack
ink t
Ġtr asc
ĠW Ã¶rter
vi es
br ingen
Ġcol ore
Ġacc ount
Ġsal ir
Ġint ent
ro ffen
Ġch urch
ur re
Ã¤n ner
G ost
g ere
it ur
op h
Ġmin ute
Ġarriv ato
Ġhistor ia
Ġs v
ot el
Ġsh op
Ġben ut
Ġcal or
Ġcri me
Ġdisappo inted
" ,
c ome
g ende
at emi
Ġto ward
sch t
Ġgut en
Ġmem ber
P l
r ada
v endo
Ġall er
Ġfac ciamo
ende u
c om
h and
an co
Ġf im
Ġg eld
Ġfin de
ve u
ĠÃ® nt
Ġsim p
Ġidi oma
Ġwo od
Ġaspett ando
Ġhistor y
Ġdifferen ce
er ve
Ġv edo
Ġo dio
ÃŃ m
Ġprote ct
Ġsound s
in ner
Ġto car
Ġo jos
Ġalle en
Ġide as
Ġsegu ir
Ġpop ul
Ġpalav ra
ĠnÃ¤ch sten
ic olo
Ġout ros
Ġesc ap
Ġci elo
Ġarri ve
Ġc ell
Ġlie ÃŁ
Ġerr ore
Ġvic ini
at ori
Ġsch lafen
Ġmens en
Ġeinz ige
Ġscar pe
Ġ 8
Ġ à¤
al ous
ig ung
Ġre un
vo id
Ġsol u
Ġpo tete
Ġcer ve
Ġsab ÃŃa
A inda
ĠM en
ĠM Ã¼
Ġpr ice
Ġfe et
Ġjo ven
Su a
A g
B iso
h ung
v ier
Ã İ
Ġpl ant
Ġcl asse
iÃŁ t
Ġlibr ary
Ġbeste ht
f le
Ġl iter
Ġr ico
Ġser io
Ġvac ation
ti va
ec tion
Ġtre ffen
Ġan ger
ĠR o
Ġgr ound
Ġpres idente
inn ing
ĠEst ados
ĠprÃ³x imo
x it
Ġj an
Ġpag ar
os en
ra ft
Ġno body
Ġle ven
Ġmedic ine
Ġlaw yer
G ib
uch st
ran ken
b as
Ġ x
Ġd rank
ach sen
ai ro
Ġpi ang
au en
86 42
ĠB ahn
ell er
Ġpro ject
nt est
Ġsem br
Ġbl ame
Ġplann ed
Ġstand ing
Ġmon ta
F ar
l assen
Ġde velop
Ġac ost
Ġdecis o
Ġsag ten
Ġgrou p
Ġm esso
ent ru
ind er
Ġag gi
Ġcri min
forta ble
m ann
Ġv id
Ġe g
Ġsp Ã¤ter
Not hing
ersto od
Ġa hÃŃ
gl ia
Ġex ist
Ġlun go
M r
Ġc row
und ert
Ġ1 8
Ġbir ra
ĠS und
Ġj ud
Ġaw are
Y es
l ung
vo ll
Ġad or
ĠAr t
Ġbest en
bb ed
y pe
Ġge geben
Ġcin que
Ġl ung
Ġwatch ed
Ġarrabbi ato
Ġe vid
ion ario
is es
ac ter
all ow
Ġutil izz
Ġfred do
S ol
ar es
ĠW agen
Ġson st
ĠcomeÃ§ ou
Ġimpegn ato
ti ger
Ġor go
Ã¤nd er
b y
e er
Ġse he
Ġvi vir
Ġ1 5
Ġbeh av
h aps
i um
ad amente
ic io
ÃŃ cia
ĠD i
Ġmu ita
Ġbl ij
Ġ uf
Ġno ise
Ġre par
Ġon der
Ġsp er
Ġany where
Ġke ys
anda ag
Ġvel ho
Will st
Ġvie w
Ġrice v
g ing
ve z
ĠS tim
Ġma jor
Ġvel oc
Ġm outh
Ġf an
Th ose
Ġembar rass
ĠPoliz ei
Ġp et
ĠM as
Ġperm itted
KÃ¶n nen
Ġimposs ible
l ang
at Äĥ
Ġp omer
ĠP fer
ĠRe gen
Ġmill ion
y pt
Ġfr ut
ĠR at
Ġconf used
Pu ede
rig ado
Ġple as
D ur
N ein
z ug
Ġs od
Ġe go
Ġle y
ĠB rot
Ġarbeit et
Ġvolt ar
ĠGeb urt
Ġrecei ved
Ġc entro
Ġme io
Ġpu eden
Ġmod ern
Ġdro ve
Ġatt end
ar en
an os
ver a
Ġper fe
ĠE arth
ĠW orte
Ġbo ys
Ġvisit ar
Ġris k
Ġopp ortun
ir d
ot te
Ġvo z
Ġgen ere
ĠweiÃŁ t
Ġsar Ã²
Ġitali ano
I r
Ġt edes
Ġhe ir
Ġfa il
Ġfam ili
Ġmes es
ĠEr folg
Ġsve gli
I hre
z co
is k
Ġl it
Ġent Ã£o
Ġpol ÃŃt
Ġfel ic
Viel leicht
J etzt
Ġc li
Ġv re
Ġtr uck
ĠW ind
Ġmi edo
Ġdich o
Ġcal m
Ġserious ly
f ono
Ġd eta
Ġs ight
ch n
ic t
op en
ĠCh ic
Ġsbagli ato
Ġser ia
Ġtre es
x im
Ġc it
Ġn av
Ġesc ri
Ġcons ci
Ġfac cio
S on
ich er
ur as
ge f
Ġmo e
bi Ã³
Ġass um
Ġjo in
Ġeigen en
Ġg h
Ġy en
ke y
gen ommen
Es a
ĠSt unde
bl ico
wor ten
Ġt ibi
Ġc orn
Ġk urz
Ġj ug
ind et
Ġven ir
Ġexc ited
Ġcora Ã§Ã£o
S ai
t he
Ġis st
Ã¶ ll
ĠN atur
Ġsk y
K omm
f ico
es ia
Ġf und
Ġsa pp
Ġne ve
ĠL o
Ġte gen
ĠP art
iz ar
Ġass ieme
ein ander
re te
Ġi gu
ic ally
Ġwor se
Ġjo go
Ġcomput ador
Ġper io
ĠE le
Ġpens ate
Ġconhe c
ĠÃ¤ l
Ġ Non
ĠG em
ati va
Ġje alous
bi ld
Ġacc omp
qui red
Ġgiorn ata
P oss
i endo
Ġfl or
ĠdÃ³lar es
ĠChic ago
Ġh ub
Ġlo g
Ġget roffen
Ġcar s
Ġgi ra
Ġlun edÃ¬
ĠF adil
Ġfe ar
ĠHa upt
Ġexper ien
Ġesc r
cul os
Ġhu ge
Ġmo ving
Ġverste he
Ġidi omas
' .
g ri
Qu anti
we gen
Ġadd ress
ĠC airo
Ġtraba jar
Ġble ibt
Ġalgum as
Ġrul es
Ġpomer ig
Ġa void
Ġv ro
ĠS u
Ġpap el
Ġt Ã¨
an che
Ġcre o
Ġvec chio
Ġprimer a
Ġnot ice
Ġsembra va
Ġwen iger
Ġlisten ing
Ġcrian Ã§a
Ġm ere
ra z
ir as
Ġno va
ĠH ar
Ġho e
Ġcam in
Ġfir m
Ġreturn ed
is st
ck s
ĠW ohn
Ġcomp iti
Ġfi el
c tive
f ri
Ġpar que
ĠAr m
Un s
Ġconse gui
F ac
P i
j i
Â »
Ġf allen
Ġcon o
ann te
ord er
Ġbu ono
Ġeas ily
Ġdivert ente
emp lo
Ġwohn t
Ġfis hing
Ġpomerig gio
S ag
e x
Ġb ell
Ġpar ar
ĠH ung
Hab t
Ġair port
Ġstra ight
ĠÃ¡r v
Â «
Ġe igentlich
ere in
anz en
Ġfal ando
pl ic
sta irs
Ġt orta
Ġdi ction
ere te
ĠZ uk
Ġnum ero
Ġlang sam
Ġt as
Ġsta vo
Ġpol izia
Ġaff ord
Ã¢n cia
Ġristor ante
Ġpie ce
bl ig
Ġcam ino
Al gun
at ter
ol f
ond en
ct s
Ġaqu ele
Ġgrand es
k tion
it es
Ġha ciendo
Ġsh ut
Ġdis s
Ġho ch
Ġcont rib
Ġfil me
auf en
Ġsenti re
Ġkle inen
Ġsugg est
D ice
us so
Ġco z
Ġnem meno
Ġspav ent
Ġd um
Ġv Ã¶ll
ĠM und
Ġz ei
ze ich
alt Ãł
Ġbor ed
ĠZuk unft
Ñ ĥ
Ġt Ã©
ve el
rau ÃŁen
Cont in
Ġ What
Ġp entru
Ġg aro
Ġdr ug
Ġorgo gli
M uch
P ass
Ġl ock
men ti
Ġlet t
Ġsenten ces
t re
v ely
Ġl Ãł
Ġst ren
Ġra pp
âĢľ ,
Ġpron ta
Thank s
Ġemb ora
Ġspi elt
Ã¤ uf
ĠF Ã¼
ĠR oma
Ġir rit
Ġsurpr ise
Ġlon ely
f a
g ono
Ġun cle
Ġbe at
Ġsch ien
Ġsch uld
Es c
Ġbo ek
Ġmed io
Ġzo o
bl ick
Ġnat ure
Ġling ue
z ent
ro ad
Ġfin almente
Ġsens o
ĠIde e
b u
Ġh ide
ie go
ro wn
ich ter
cer Ãł
Ġtermin ar
Ġbon ita
al la
Ġex iste
Ġbu ilt
Ġgot ten
Ġhard er
ĠBl umen
Ġment re
Ġsle pt
T iene
Ġn ative
ell te
ĠAustr alien
Ġrec on
Ġcount ries
Sh ould
c ase
Ġf ai
Ġun lik
Ã¶ ff
Ġpr omet
Ġfat ta
Ġdec ide
Ġsm ile
Ã¶r per
Ġcabe Ã§a
en ed
at amente
ĠR a
Äĥ r
Ġsein es
Ġter ror
Ġcompr ou
of d
Ġtel Ã©
m es
t ur
Ġm Ã£o
Ġh arm
Ġf ate
av am
Ġall erg
Ġpres ident
Ġimpar ato
Tut to
Ġunlik ely
V ol
Ġv ede
Ã³ rio
av ano
Ġchi edere
ig es
ĠA ll
au er
ense i
Sab es
s chen
Ġd ad
Ġpu lled
ste ad
Ġap ri
Ġze g
ĠhÃ¤t ten
Ġerr or
ll ar
ĠS orgen
Ġam ong
pr ia
Ġcu te
Ġou vi
Ġpic ked
Ġgra ve
ĠÃºn ica
Ġque br
il le
Ġda i
ggi are
Ġbelie ved
Ġseg unda
ĠMit tag
Ġcanz one
Ġa um
Ġf rei
Ġre altÃł
ĠB Ã¤
Ġthan k
Ġfi eld
Ġpod rÃŃa
ÃŃc ula
ĠSchÃ¼ ler
r unken
Ġd Ã¡
Ġal co
Ġav rei
Ġlie ben
f ang
Ġn ess
Ġis s
ve is
ĠDeutsch land
Ġu bria
Ġsur vi
Com pr
ĠSpa ÃŁ
iss enschaft
Ġbel le
Ġgel esen
ĠFl uss
Ġsoc iet
ĠÃºl timo
C e
o to
Ġf and
Ġri fi
Ġap ar
Ġfeel s
Ġou d
Ġgenti le
i va
er de
Ġm ic
Ġm anten
Ġqu ale
la ce
ici an
Ġaut hor
ĠSe ite
Ġh am
Ġal ten
Ã¤ ft
Ġdov remmo
Ġric onos
Mar ÃŃa
ĠPl atz
Ġkni fe
ĠM arias
ĠT a
ĠK ranken
Ġhat es
Ġimpress ed
Ġsuon are
Ġdott ore
Ġa gu
or um
Ġin do
Ġj ij
Ġsp az
ĠC he
Ġwer k
Ġconf ess
Ġinv ent
Ġatten zione
A mo
Ġd anc
Ġpass ar
Ġsing ing
Ġfra gen
at r
ahr en
Ġrelations hip
Gost aria
ad ra
st r
ĠB ier
Ġat ras
Ġda qui
ĠP er
ĠC ol
Biso gna
C ada
Ġ $
Ġn oss
Ġad op
Cu Ã¡nto
L av
c ando
Ġst ri
Ġsp rach
ĠÃ¼ber ras
J ap
el ho
Ġgu il
Ġcol oc
ret ta
Ġple ased
A i
S us
Ġv Ãª
ig i
Ġwas te
Ġre ti
ĠB ank
Ġpre gunta
Ġmo vies
Ġhou d
Ġsent ido
Ġstudent esse
ĠSon n
Ġtran qu
D omani
h Ã¶r
r est
Ġter ug
Ġdom ande
Ġcabe za
Ġfas ter
schein lich
Ġs ett
Ġc ried
Ġin se
Ġes ti
ic ked
Ġk alt
Ġbre ve
Some one
Ġbott le
al en
Ġpre d
Ġjo vem
ĠÃ¤ nd
ĠGed anken
Po tete
Neces ito
V on
te i
ĠS m
Ġper gunta
Ġus a
Ġcontro ll
Ġtav olo
lich es
Ġnew sp
Ġc ow
Ġg iapponese
ad ora
ier no
Ġges cha
res p
cl ock
Ġconcern ed
g unto
or f
im p
ant ar
ber t
ĠJ e
Ġrest are
Ġthre w
ĠT rÃ¤
ann e
Ġhand le
erop orto
u esta
Ġk n
Ġso ft
ow n
Ġden kt
Ġrap idamente
ĠFahr rad
Ġtick et
ĠMil ch
Ġguil ty
4 5
os as
ĠD ios
ĠU S
Ġfa iled
Ġcor po
Ã¼ck en
Ġfamos o
Ġt az
Ġb os
Ġper di
Ġen ti
Ġfr uit
Ġyour selves
ici Ã³n
Ġta x
Ġnam or
Ġh il
Ġf ant
un kt
Ġand ati
ig te
Ġper se
Ġlo go
Ġpro per
ĠK rieg
Ġapp le
Ġban co
Ġerr ado
Ġschw immen
Ġtot al
ĠÃ¡r bol
K ein
Ġf antas
ĠM ill
Ã¢ nd
Ġsepar at
Ġpalab ra
ĠJap Ã³n
Ġaut or
Ġleg ge
isti r
Ġst orm
He y
ate vi
Ġter rib
Ġmein es
Ġlie f
Ġou vir
Ġhij os
Ġport ugu
ĠMen ge
ĠtelÃ© fono
b il
i fic
Ġs ort
om ini
Ġre mo
Ġwe ak
Ġcam min
Ġvic ine
Ġcond ition
R ies
as o
Ġme ant
Ġsta zione
En c
ister en
Ġsettim ane
ĠCanad ian
s etz
Å į
on io
ad ed
Ġmor reu
Ġris ol
Pre fer
Ġ Thomas
Ġla go
Ġaw ake
Ġwonder ful
Tod avÃŃa
f ather
g aben
j am
Ġm Äĥ
it ate
ing er
Ġdol or
Ġraz Ã³n
ĠSch uld
Com p
Ġaz ul
Ġguid are
v ista
ch ine
Ġen quanto
Ġam az
Ġund erstood
Ġtra ffic
cc io
Ġhom bres
Ġfig lia
Ġpaz ienti
ĠprÃ³x ima
ĠvÃ¶ll ig
ed em
Ġbe e
ĠP al
Ġac uerdo
Ġap are
Ġeat s
yo to
F ue
Ġp atient
Ġk omen
im i
ĠL uft
Ten emos
cion es
ĠEl ke
l ass
Ġqu ien
Ġche gou
ab o
Ġmi entras
Ġsol ito
Ġfar Ã²
Ã¶s en
Ġind ic
W ere
Ġge we
ĠP ort
Ġvers ucht
Ġexpect ing
ĠTe e
Ġdiction ary
F ui
Ġal ber
Ġal mo
ci ato
Ġposs ÃŃvel
Ġlaugh ed
8 2
Ã ľber
Ġs ino
Ġb ug
Ã¤ ng
Ġus ing
Ġges che
Ġide e
Ġsmo ke
c n
om in
el de
Ġun os
Ġri un
Ġent end
CuÃ¡ nt
Ġleav es
Ġglaub t
P ol
or ben
Ġj am
ĠG o
Ġcar te
Ġpass ado
Ġacc idente
Ġint end
reich en
ĠwÃ¼n schte
c ciÃ³n
Ġdo vete
im us
Ġst ia
Ġsp ring
Ġsch Ã¶ne
va i
Ġmor ire
Ġcant are
Ġeff ort
Ġoffer ed
P ut
b ado
Ġv ader
Ġse ven
Ġest as
Ġpod ÃŃa
Ġcap ito
Ġmis er
ĠGe heim
Ġmag gi
Ġsub ject
Ġmos que
Ġfum ar
Ġlat te
Ġmid dle
b ur
u va
es ame
Ġp aci
Ġc aix
Ġv it
em d
ĠB et
Ġj ugar
Ġcomp lain
Ġdes co
Ġmen ino
al y
Ġse te
Ġver z
Ġca use
Ġvers uchte
S im
s icht
w ill
Ġl ament
Ġguard a
Ġguard are
Ġhi elt
Ġa Ãºn
ch sel
Ġl uc
Ġb ru
os es
ur d
ĠF le
Ġher um
ier ung
Ġpens are
Ġsugg ested
Ġconsegu ir
b lo
d ad
Ġqu ad
Ġab itu
Ġu ur
Ġperd ido
Ġconta ct
ĠTok io
Ġintell igent
Ġf it
Ġis land
ere o
Ġper to
Ġer am
Ġfa Ã§a
Al guÃ©m
Ġdat ing
Ġdom en
Ġnum a
ĠSpra chen
r is
Ġh un
Ġqu att
Ġti ve
Ġrec ently
Ġbere it
R ec
Ġs Ã¡
es ch
et ic
Ġman eira
Ġden en
Ġchi edo
Ġop ortun
Ġten ha
Ġend ed
olog y
M is
Ġs ente
Ġv elo
Ġe mpre
Ġi do
Ġr as
Ġpo bre
Ġdr ie
ĠWe in
Ġsel ten
Ġord en
Ġsorpr esa
Ġfid anz
Ġvill age
Ġd ere
Ġd rauÃŁen
Ġo ce
Ġabsolut ely
D ic
d isf
v amos
ĠM i
ĠM Ã¤nner
Ġr ent
Ġnon ni
ĠF all
Ġma ken
ond ers
Ġcu ore
ende te
Ġfel ici
Ġgel ernt
nis se
ĠMon at
Ġcuc ina
h Ã¤lt
Ġt are
Ġt our
on ces
ur os
Ġfr ases
Ġvia jar
gel n
Ġtw ice
Ġrius ci
Wel che
Ġp ane
Ġre quired
Ġcu Ã¡
Ġins ieme
aut omobile
D arf
T udo
Ġp ill
Ġf Ã¤hrt
el as
Ġe i
Ġe mer
Ã³ m
Ġac qu
Ġport ato
Ġan ci
ia c
hr te
Ã§ os
De ine
bl es
Ġfeel ings
Ġtelef one
Ġvest ido
Ġsan gue
Ġstol en
e en
v an
Ġt yp
Ġl ou
Ġsp oken
Ġar gum
Ġlasci are
aix o
ym us
Ġb igli
ra ag
Las ci
zie hen
Ġdeix ou
Ġcrow d
N i
w are
Ġp Ã´
Ġcon to
Ġsol ve
Ġmar ido
uc ir
ÈĻ te
Ġnego zio
Ġnam ed
ĠEg ypt
Ġswe et
F i
i ans
ti es
Ġal ter
la ge
ug end
pa Ã±
ĠTe il
Ġconhe ce
Ġfort una
ĠMe er
Ġpu re
ĠAl ter
Ġfal sch
ĠUn fall
ĠEr k
Ġgio co
ĠBahn hof
Ġ Q
el os
ĠM om
Ġcan cel
Ġgi ard
pr ano
Ġresp onder
Ġprofess ori
olog ia
sp ra
Ġvin to
bb y
A uch
e ken
h undert
ĠP fl
bro chen
led ge
o Ã£o
Ġver di
Ġsp ir
Ġdel es
Ġsc ord
rem os
Ġamig a
s k
u ct
Ġe ens
Ġand eres
Ġar ran
Ġmu erte
Se u
isch es
Ġmar ket
att amente
Ġinvol ved
M as
P ri
Ġb ele
ĠS inn
ord ing
ĠSch uhe
Ġwel che
Ġ X
Ġs iento
Ġn et
Ġb ian
pp er
ĠW or
Ġgi ving
Ġot ros
ĠBr Ã¼
Ġdro pped
Ġjog ar
Ġd ata
Ġpro g
ger s
Ġloc ked
Ġcir c
B u
S m
T atoeba
Ġd estro
es per
Ġb oca
Ġg ri
Ġo v
ĠT ur
Ġex amen
Ġbeg inning
Ġcug ini
ĠtrÃ¤ gt
Ġo il
ĠH Ã¶
Ġvi ver
anc y
Ġvir t
Ġkom t
Ġcrit ic
O gni
Ġlo w
Ġsh y
Ġman gia
und heit
Ġmor rer
ĠSchla f
Ġescrib ir
es p
Ġan z
Ġex cept
ha ft
Ġpi an
Ġparti re
Ġrestaur ante
Ġw et
it ze
ĠB o
Ġall o
Ġbr inc
Ġdep art
Ġadv ised
Ġsqu adra
Ġa head
as ta
re l
Ġg all
ĠM ed
st ra
Ġst ellen
Ġpro ve
ĠW inter
Ġmin uti
Ġacc ett
Ġdomen ica
A us
Ġp uso
Ġbe mer
ur r
Ġpro d
ĠSch re
Ġmach ine
Ġpur p
Ġc igar
ou se
ĠS en
Ġins ult
wer k
Ġgre en
G io
g os
Ġk no
ĠP f
Ġus are
ien en
Ġwer t
Ġbes uchen
Ġgro ot
Ag ora
Ġdi ga
im al
ur al
ck te
bre llo
Ġpas a
Ġsim ples
Ġfollow ed
ĠUnter schied
A ss
r and
Ġa ula
Ġqu ell
Qu ale
Ġpl ays
Ġeu re
Pod e
Ġhoud t
M ol
Ġd Ã¼r
re cht
Ġne ues
Ġfr ÃŃo
uss a
Ġcons igli
Ġbeg ann
Ġerr ori
Ġtorn are
Ġforgot ten
Ġv rouw
Ġman ager
ĠN Ã¤
Ġdes ap
ree k
Ġrela x
Ġneigh b
N ur
Ġes attamente
Ġab it
ria ge
Ġw ore
ĠH otel
Ġres erv
res a
Ġpas ar
Ġschw ar
Ġcap isco
in er
Ġh ell
Ġg ere
qu es
st u
ard s
Ġdem and
Ġ1 2
pl om
Des p
j en
in hos
Ġl oud
Ġdi v
le v
Ġun ha
Ġpro va
ĠK ir
Ġsc us
Ġop tim
Ġcap ac
Ġdrink s
gra ph
Ġdress ed
Ġestudi ar
Ġpolic ÃŃa
ĠSund ay
Ġg al
Ġnon ne
Ġtem prano
ĠSch ul
ĠO n
Ġprop os
Ġcant ar
ĠProble me
Ġdimentic ato
ĠSm ith
P ort
il omet
ĠK unst
Ġar te
ici al
ĠWe i
Ġgef Ã¤hr
Ġpret end
ĠSchl Ã¼ssel
Ġconoscen ze
Ġl end
Ġex erc
Ġfu eron
rie b
Ġstudi ando
b at
est en
ck er
sch lag
Ġmen udo
ĠFran k
Ġbring t
Ġcug ine
ĠK en
Ġdem oc
ze hn
Ġbu ll
Ġviel en
Ġarm s
Ġabri r
A mer
D am
I mp
Ġan ima
le i
Ġen vi
ĠT re
ĠC omp
Ġho ofd
Ġmo on
att ina
Ġmach st
Ġfil ha
Ġcred o
Ġja il
er weise
le gen
Ġse chs
Ġne anche
ag h
Ġgi ro
Ġpe gar
Ġfu erte
Ã¤nd ig
Ġcul pa
Ġinizi ato
Ġricev uto
e te
Ġdi rig
Ġan zi
av it
up o
ari ka
Ġjob s
Ġrain ing
L ib
m other
an Ã§a
Ġmiss ing
Ġkl ar
Ġpel ÃŃcula
Sar Ãł
S k
Ġh Ã¼
Ġc ro
Ġf asc
ass i
li es
ord a
ĠIs rael
ĠKÃ¶n ig
w s
Ġe ch
We iÃŁt
gt h
ga be
Ġph ys
Pro b
Ġparti r
Ġning Ãºn
5 0
Ġp ig
re g
Ġbe ij
av es
ij f
Ġmen tion
Ġsab em
Ġsiste ma
Ġsch lÃ¤
ĠK an
Ġcomp re
ĠV ol
Esta ba
Ġsape te
Ġevent ually
H av
Ġp ock
Ġl la
Ġv andaag
ont ro
Ġcall ing
Ġcal do
Ġvest iti
Ġp ue
is ci
Ġe inge
ick t
Ġgrand father
Ġconsider ed
Ġrid ere
Ġatra v
Ġpicc olo
il ig
ab an
Ġapp o
Ġpas Ã³
Ġcare fully
c endo
Ġp Ãº
ou ra
Ġas ta
Ġpar co
est s
Qu el
li ed
ug hing
Ġmo tivo
Ġges prochen
Ġcre am
ĠhÃ¤t test
Ġcook ing
Ġber bero
rÃ¼ck t
Ġegg s
A ber
h Ã¶
ĠS to
ant ly
Ġversch w
Ġdivent are
Ġriman ere
G ibt
G estern
Ġw it
Ġc ree
Ġan te
Ġper man
be ite
ĠF ir
ĠL i
Ġven uta
Ġfl ight
chte t
is ing
Ġv inho
am ore
Ġz ii
ver Ãł
st y
Ġr omp
ĠK yoto
Ġac erca
Ġste p
Ġsing er
Ġ19 9
Ġconcer to
Ġt ort
an ha
Ġe arn
ic ia
Ġsu ll
Ġst om
Ġen f
Qu id
Ġpre m
Ġid ade
l us
Ġbe ge
ci uta
Ġenc u
Dan ke
Ġrit orn
ĠDo llar
Ġalco hol
c et
en Ã§a
qu iera
ĠS che
Ã³ g
Ġfe ch
Ġgen o
Ġreach ed
Ġacost um
Ġp isc
Ġun iver
Ġbe ar
Ġla bor
chen k
Ġri m
Ġdar in
Ġprofessor esse
Ġorder ed
b is
Ġh ug
Ġto e
Ġdi ret
Ġla ughing
Ġsu ff
Ġver te
Ġj ack
ens o
Ġesta ciÃ³n
Ġten emos
enti al
Ġbr ut
Ġpranz o
r Ã³
Ġbe ant
Ġne ben
Ġab road
ul tima
az Ã³n
Ġmor ir
Ġcal le
Ġsab es
Ġchiam a
Ġw id
ĠT an
ĠD er
Ġsal ud
Ġfoot ball
Ġunha ppy
Ġg onna
Ġab ove
Ġte eth
si asi
Ġforgi ve
Ġpedi u
Ġsod disf
a Ã±
Ġb ac
Ġcon ver
ĠL ust
Ġvo ce
Ġbra va
Ġbec om
u we
ri l
ĠR aum
Ġhom ens
St ate
Ġvin cere
Ġrot to
ar k
an ese
ti le
Ġsch er
Ġnu est
Ġinst ru
Ġhealth y
Ġidio ta
Ġs ir
Ġth row
Ġe ight
Ġsch m
Ġdu ra
Ġwill en
ĠLie bl
G osto
Ġt ype
Ġdon ne
Ġmol ta
Ġcam inho
Ġsport s
Ġense Ã±
f ore
r al
ta ble
Ġbe ha
Ġver he
Ġus o
Ġri o
ĠR ad
Ġpart ic
Ġvia gem
Ġdoll ari
Ġged acht
S or
o ll
z te
Ġt es
Ġa de
av el
De in
Ġaff air
St ud
Ġlon ge
w ed
Ġqu atro
ver no
ier i
Ġbes timmt
Ġai uter
ĠIn gl
edere en
Ġfri ght
W ell
Ñ Į
Ġv ind
Ġman c
Ġbed room
L ie
Ġl ÃŃ
Ġsa c
Ġsp l
ĠP or
Ġgener al
Ġbede utet
h le
un te
ere bbe
Ġra ce
Ġcam isa
ĠHa are
Ġconse gue
Ġext ran
Ġmedic ina
Ġt ill
ed or
Ġu omini
ĠmÃ¶ gen
Ġprima vera
Ġanswer ed
Ġcur r
Ġcambi are
ĠBÃ¼ ro
A yer
m Ã¶glich
Ġd ess
Ġcon di
Ġcan i
Ġesta ban
ĠRe ise
Ġjo ke
ĠPol iti
A nt
Ġp isto
Ġha br
pp i
ĠW ald
iss imo
Ġcol azione
anz ig
Ġemp ty
ock s
Ġart ic
Ġconhe Ã§o
Ġtw enty
w ing
on to
ĠS y
ĠK uchen
ĠP rÃ¼
Ġdes te
Ġlot s
ĠwÃ¼r den
Ġhum or
Ġsub ito
S ince
b um
us end
id iÃ³
Ġha cia
ij ke
Ġar ro
ĠP ri
Ġbu ying
Ġcol pa
Ġimm ag
Ġbri ght
Ke ep
Ġt ar
Ġc ous
Ġb ras
Ġqu erem
Ġne v
ĠL age
Ġte il
ĠR ep
Ġgr amm
Ġkein er
Ġhor ri
ÈĻ ti
Ġsenhor es
Ġnue va
Ġintell igente
S tiamo
f ung
Ġl Ã¤ch
enn st
ĠFran ce
Ġpot uto
E t
Ġ They
Ġt ough
Ġp ess
Ġk ap
Qu ante
Ġvers uchen
ism us
k ken
om b
am ed
ic amente
Ġaiut ato
Ġschw ierig
Ġinno cent
Ġth y
Ġun be
ter o
Ġil leg
Ġvor bei
Ġalle m
Ġperd ere
Ġsy mp
B ill
Ġb lau
Ġex ha
ect ed
Ġass ol
Ġend lich
Ġobs erv
F ran
Ġt in
Ġd esse
Ġn ut
ami ento
Ġdis e
Ġtu vo
Ġmal a
F u
Ġdi p
Ġthe e
Ġqu eda
Ġen orme
ĠSch nee
Ġchi eder
Ġalt re
Ġasp etta
Ġaconte cer
Ġerinn ern
d om
t amente
Ġh inge
ĠEr d
ĠmÃ£ os
Z u
Ġl ay
Ġre lo
gu ei
Ã± as
Ġmuch a
ĠSt elle
Ġster ben
f ia
g ul
Qu is
Ġden ied
Ġbr ief
Ġdesc ri
ĠGeburt stag
Ġt Ã¤
re a
Ġch ess
Ġco oper
ran g
ĠpaÃŃs es
fÃ¼ hl
ã ģ
Ġh oc
Ġf rio
ĠH Ã¤nde
ĠJ ungen
ound ed
Un ser
Ġru de
Ġsenhor as
Ġintel igente
Ġsv ago
en ken
Ġal m
Ġsu gar
Ġli j
Ġsie ben
sch l
Ġpu de
Ġcl aro
bl ed
Ġlav ora
Ġru h
Ġgar age
ĠFr Ã¼
O m
Ġh ous
or ando
Ġsa ge
Ġchi ese
Did ymus
Ġentr are
Ġspos ato
Ġsemp lic
Ġvelo ce
er m
Ġe ius
Ġge v
Es per
Ġhat ed
Ã¡s s
Ġti p
Ġcons erv
Ġpart ita
ĠJap Ã£o
Ġgem ein
Ġk ing
Ġbra uchst
Ġjemand en
Ġded ic
Ġb oc
Ġman era
Ã¶t zlich
ĠOs aka
Ġh es
ic ina
Ġhelp en
Ġmo eder
Ġeu ro
Ġmat rim
ĠIn ter
ĠEngl and
n ight
er am
um ped
ĠF isch
Ġdes ta
Ġca used
Ġcor azÃ³n
Ġwa ke
Qui eres
Ġleg al
Ġletter s
Ġincontr ato
ĠKle id
Ġtedes co
Ġg ingen
Ġin m
ĠAustr ali
acht s
Ġexp lained
Ġteach ing
à¤ ¾
Ġslow ly
Ġapolog ize
Ġzeg gen
at us
Ġin stead
Ġst am
Ġj edem
ĠL ord
Ġsch ed
Ġsh are
Ġcu atro
Ġele v
Ġinc red
Ġze igen
Ġemp lo
Ġestar Ã¡
Ġp sy
Ġb ab
am or
et y
to p
Ġso ff
Ġge wo
Ã¶ se
Ġcan c
Ġar beite
k k
o cht
Ġfr ustr
Ġgr u
Ġtra gen
ĠFre ude
ĠgroÃŁ er
Ġpiang ere
ĠWei hn
N ada
ĠS Ã¤tze
Ġver so
Qu antos
Ġman os
ĠK om
Per d
Ġpo em
gr ess
Ġprobab ilmente
ĠEnt sche
Ġdoming o
or de
os os
Ġv ento
Ġche g
Ġcomp ras
Ġrec omm
As p
Ġthir d
ĠprÃ³ p
Ġliber t
z zi
Ġl lo
em en
Ġon line
iz a
Ġpes ce
Ġocchi ali
Ġenerg y
Ġsudden ly
Ġgiard ino
Ġg atos
ll t
Ġz og
Ġna ve
Ġdir ty
Ġdire ct
Ġern st
Ġquatt ro
Ġqu eremos
Ġk la
Ġch ica
Ġre in
end et
Ġj ouw
ab il
Ġcu ra
Ġcat s
Uns ere
avel mente
on n
Ġh ina
Ġand er
Ġop ini
Ġfind et
Ġlavor ando
Ġbrother s
ĠGesch Ã¤ft
ĠArab ic
C ol
Ġc ima
Ġdi g
ur so
ĠK Ã¶rper
Ġfi ume
Ġtalk s
tor y
Ust ed
k an
ac ca
Ġman z
Do vete
Ġmis ma
Ġba jo
Ġbri ll
J ane
Ġm Ãªs
is so
Ġn Ã©
Ġprov are
Ġheir aten
V ers
n ic
Ġm udar
Ġan al
ĠA frica
Ġest Ãº
Ġlu ce
Ġbir d
Ġsim ilar
Ġperm ission
Ġobvious ly
Ġp is
Ġst att
Ġr ie
ill as
ĠW ar
Ġesc ond
Ġet wa
Ġtre at
Ġstan ca
Ġzuf rieden
ĠPfer d
E a
w Ã¼r
es us
Ġus ando
ÃŁ t
Ġcomp aÃ±
Ġti v
Ġcin ese
Ġneces it
Ġ5 0
Ã©r ica
Ġrom ant
Ġbi ke
ĠLiebl ings
Ġg old
Ġsu bst
Ġj our
ke hr
Per haps
c at
ĠS he
Qu esti
ĠK la
ien i
Ġpens ava
Ġele g
Ġric co
ĠAmerik a
ĠComp uter
M en
al ten
Ġk Ã¤
Ġsa ÃŁ
Ġr osa
Ġj antar
ĠSch iff
Ġco vered
Ġcor rer
eld om
Ġn immt
os tet
Ġto wel
ul ta
ier ta
Pens a
Ġgrand i
Ġbir ds
Ġlar go
Ġragaz zi
Ġnenhum a
ĠStim me
P arl
w ick
Ġme zzo
Ġst ellte
ist r
Ġport are
e a
ll er
Ġsa u
Ġwe ird
Ġcas ar
Ġsc at
Ġpo is
Ġfi ori
itu de
Ġnel le
Ġcontin ue
ĠKranken haus
Ġz er
Ã¶ p
Ġsch me
ers i
sche iden
Ġga f
Ġchiam are
Ġsitu azione
Ġneces ita
Ġhid ing
Ġcominci ato
Ġpaint ing
T ry
p iel
Ġl Ã¤nger
id io
ur amente
Ġso b
ij t
ep h
Ġdir lo
ĠFran s
Ġaut omobile
Ġcred ere
eda an
Ġvest ito
ĠerzÃ¤ hlt
ĠFar id
Ġfres h
Ġcual quier
Ġs eldom
Ġp ei
Ġf Ã¤llt
The ir
pp a
Ġmi ra
Ġinter r
Ġcons iglio
tim os
Ġnie uwe
Ġkeep s
B er
v in
Ġ oss
Ġr ose
ul as
Ġher r
Ġcons id
Ġplan et
ĠwÃ¼r dest
Ġsci ence
Ġfollow ing
Ġtall er
Ġappe ar
Ġpurp ose
D em
h ib
ĠB ar
Ġer fahren
ĠN ot
Ġsign or
Vole vo
Ġimmediat amente
Ġsatisf ied
Ġigu al
j Ã³
Ġ That
Ġh ue
Ġn este
Ġknow ledge
ĠE u
Ġbel o
ĠTag es
Ġindi vid
mit tag
Ġcapp ello
Ġcaix a
U no
l en
z w
Ġh art
Ġn ose
Ġb un
Ġf ond
am mo
st adt
Ġwith in
av i
ĠK rank
Ġri j
ĠD orf
Ġpo ter
Ġalg Ãºn
ĠStre et
Ġrifi ut
Ġnewsp aper
Ġsemplic emente
el ig
id et
Ġne ck
Ġsp ia
Ġac tiv
ĠZ iel
Ġent f
ĠGe ist
Ġpret ended
Ġconos ciuto
olog io
ĠGerman y
ĠQ uran
f ortun
g ro
r Ã©
ir us
Ġper icol
Ġel k
Ġpo ol
Ġstud ia
Pens i
Ġsur f
ĠGes undheit
Ġinteress ant
Ġlont ano
Ġriun ione
Ġesc ape
Ġpens avo
Ġguard ando
Ġabs ent
Ġgegen Ã¼ber
Ġrespons ible
Ġdej Ã³
Ġenter ed
Ġpract ice
Ġpue blo
j eres
r Ã¤n
v ard
it amente
Ġv ont
Ġan x
Ġcom enz
Ġj orn
Ġwor st
Ġcons um
Ġins ist
Ġhand ed
Ġbit ten
Ġinteress iert
B ob
Ġc att
Ġwe alth
gen e
Ġte ars
Ġpre zzo
Ġsta at
Ġapp ar
auto bus
Ġdesper ate
ĠÃ¤l ter
u an
Ġli ft
Ġpos ible
Ġfum are
Ġatta ck
Somet hing
I eri
v ida
on ed
et ten
Ġha c
ell schaft
Ġon ze
ens es
Ġrelig i
Ġfamili ar
ch st
Ġl ady
qu am
Ġwe b
Ġcol t
Ġthir teen
Ġtot almente
Li fe
Ġgeb rui
Ġning una
ĠPre is
j ero
Ġf la
ĠI hren
Ã¼ ge
Ġmu jeres
Ġvis te
Ġacc us
Ġstar k
Ġpun ished
Ġquis er
Ġkw am
ĠgewÃ¶hn lich
Ġvont ade
N em
Ġn Ã¤
Ġl ink
Ġe cc
ĠM ad
ÃŃ cio
ĠF or
Ġra ggi
Ġris o
Ġbat ter
ĠkÃ¼ mmer
Ġs arei
ĠÃ Ī
Ġz ap
ĠR om
Ġdep end
ĠMom ent
as ter
Ġun ver
Ġli bero
Ġma Ã§
Ġall ora
ap t
Ġmu riÃ³
Ġstr ano
Ġsig ui
Ġentr ambi
Ġlic enzi
ĠPart y
W ij
Ġf otos
ens a
Ġass unto
Ġdic endo
Deber ÃŃas
Ġembarrass ed
O hne
r m
Ġa ta
Ġv ada
im iento
ĠA ber
ĠT raum
ree kt
Ġoff en
Ġzw ar
Las st
Ġucc iso
Ġvro eg
Ġth ou
Ġan ivers
Ġsie hst
oss en
Ġos c
int ment
Ġspeak er
Ġfriend ly
Ġdal le
Ġunivers ity
Ġstar b
Ġtent ando
Ġrelo j
n al
Ġa mp
Ġe p
ac ci
den ti
Ġinf el
Ġteach ers
ĠWe ise
Ġmem oria
Ġmess aggio
Ġchar ge
Ġvoll er
Go od
Ġsu chen
Ġle uk
ess ere
Ġra ised
Ġdifer ente
Ġeng ine
Ġnoti zia
Ġbath room
Cred o
Ġanima is
f in
Ġsa f
Ġr esto
Ġsp or
Ġsp ec
Ã¶ st
Ġpreoccup ato
ĠFr Ã¼h
Ġbon ito
Pot rebbe
Ġt ast
Ġh all
Ġp enn
Ġg edaan
Ġqu od
ge bracht
ĠW er
Ġesper a
Ġcerc ato
Ġtan ta
Ġnerv oso
Ġfoss i
Ġescr ito
Ġ Ñ
Ġdi vid
Ġo k
Ġver rÃł
ĠB oden
ion en
Ġac idente
Ġra c
Ġesta Ã§Ã£o
Ġbo at
ave te
Ġfu ri
Ġrel uct
Ġpag are
Ġpag ato
Ġpos ition
Ġgesche hen
A pr
Ġp onte
Ġdi etro
Ġpare cia
Ġcand id
H Ã¶r
Ġa gli
at ie
Ġtr u
Ġsc io
orm ent
Ġeste ja
Ġtorn ato
Ġhi red
uts chen
Ġfair ly
Ġuf ficio
A h
d y
f re
g ente
Ġf ern
Ġf Ã¼hle
ĠJ ane
tig keit
Pens Ã©
Ġshow er
Ġrisp ondere
Ġabb andon
D ec
Ġl ed
Ġqu elle
ie ht
ĠÃ ī
ĠÃ ĸ
ir am
Ġcan ta
Ġrel ati
Ġlun a
Ġperd on
Ġvent ana
c Äĥ
Ġj ede
mer zen
rei heit
Ġed ad
Ġtelevis iÃ³n
Ġequi voc
eca use
T emos
r ado
Ġver ano
Ġfor est
Ġman e
Ġad mi
Ġinc om
Ġreg al
Ġfig ured
Ġsue Ã±o
Ġpon er
Ġresult s
Ġalgun os
Ġmater ial
Ġinde pend
Ġfill ed
O l
Ġt agli
Ġh ond
Ġdi je
uf e
Ġmar riage
Ġkind eren
Ġhal b
Ġvogl iamo
Ġerk lÃ¤
Ġappre ciate
W Ã¼r
Ġde te
il and
ĠN Ã£o
ound s
Ġven ga
ĠcomeÃ§ ar
Ġraz Ã£o
Ġespe cial
h Ã¶rt
u vi
Ġdi am
Ġun less
um s
ent lich
Ġab ita
Ġman aged
ĠW ahl
ĠN ame
bl ica
Ġbes onders
Ġste al
Ġtele phone
Ġd ut
om s
Ġgr ass
Ġaut om
ediat amente
Ð° Ð
Ġeconom y
ĠHo ff
Poss iamo
Ġdesco bri
D iga
r ate
us es
Ġr ÃŃo
Ã¼r lich
Ã¢ t
On ly
Ã´ n
Ġqued Ã³
Ġb ici
op e
Ġcl oud
Ġci vil
An y
Ġleg s
on av
Ġv io
ent ar
Ġre uni
Ã¡ is
Ġj ou
ĠT erra
Ġfu er
Ġmas ter
ĠMar ie
C ons
b are
Ġt ale
Ġp Ã©
Ġand Ã²
Qu este
Ġsuper mer
ĠÃ¼berras cht
d as
m Ã¤
t Ã¤us
re ten
ic ion
Is n
Ġemp resa
ĠIt ali
Ġlle va
ĠGl as
Ġgez ien
D ite
h ed
u ur
z elf
Ġd ying
Ġg ent
Ġdo ente
ver dad
Ġpr ud
Ġcar p
Ġpri vate
Ġcab elo
Ġimag ine
Ġprest ito
C ur
G laub
c an
h ado
Ġp udo
un is
ri ger
Ġch ap
ĠB ri
Ġpr end
Ġsh ar
Ġdis hes
Ġfin ire
Ġbra chte
Ġdist ingu
Ġdifer entes
Ġlent amente
Ġver a
Ġper ten
Ġcar ried
ide a
Ġ1 6
Ġbar ely
Ġcal cio
Ġcre er
Ġstart ing
Ġtent ar
Ġtransl ate
ĠmaÃ§ Ã£
Ġn er
Ġl us
ter Ãł
Ġst ad
ĠW a
Est as
gg ed
wo ord
Ġgut es
As k
Ġimag in
S te
en k
ut amente
Ġli es
ord in
Ġsec ondo
Ġsuit case
Somet imes
agh etti
Ġs osp
Ġp unt
Ġdi plom
Ġo blig
Ġz a
Ġcon tain
end es
est ate
op o
ma al
ĠSch Ã¶n
Ġris ult
bar azz
Ġcomple te
allow een
d ia
r ÃŃas
z ar
Ġre fer
Ġsa cco
Ġper ce
Ġprop ri
Ġvec chia
Ġtras fer
ĠEng els
Ġa k
Ġa ÃŃ
Ġg ain
qu ela
Ġof icina
Ġz it
ul gar
ĠT er
Ġwo ke
Ġpot rei
Ġsusp icious
ction s
Ġwahr scheinlich
Ġdetermin ed
ĠAle man
Ġpartic ular
u ar
Ġd unk
es peranto
ic ans
Ġle ite
Ġel em
Ġtr ug
Ġar gu
Ġinc ol
Ġlie gen
itu ation
Ġhij a
Ġverl ieren
Ġru a
Ġoccup ata
Ġconvers ation
Ġveget ari
ĠWohn ung
T ro
g leich
Ġth uis
Ġsa ud
Ġst ick
ĠA k
Ġest os
Ġte chn
Ġdis g
Ġass ume
ĠÃ¤ hn
Ġrom anz
Ġverdi ent
g d
s ichtig
er in
id ence
ok es
ak en
Ġgrand mother
Ġkomm st
Sk ura
Ġscat ola
s pr
Ġc Ã©u
Ġf ome
ĠF er
ĠE is
Ġpi ani
Ãº car
Ġpass a
Ġfar la
Ġconos ci
lau ben
Ġperm esso
Ġverste ht
Ġtelevis ion
Ġresol ver
Ġjan ela
Ġamaz ing
Ġ ust
er ci
Ġt ag
ir es
Ġr isch
Ġper deu
Ġer i
ĠL ied
Ġpass ou
Ġbet er
Ġseg undo
ĠÃ¤nd ern
Ġb ow
Ġla g
Ġst uck
Ġne hme
az zo
Ġtra v
Ġbelie ves
Ġdiver se
Ã¼s ste
Ġmean ing
Ġcomple anno
Ġerav amo
Ġe hr
Ġdi fic
ie gen
ri r
ĠP rÃ¤
Ġany way
ĠR ei
ĠD io
Ġad ult
Ġbut ter
ĠSt Ã¼ck
Ġot to
Ġcou rage
Ġsupp ose
Ã¼n de
ĠAng elegenheit
Ġnam es
Ġcir ca
Ġimpegn ata
ĠgrÃ¶ÃŁ er
84 10
Tal vez
ĠÃ¡rv ore
G od
K an
m ittel
Ġm ut
ur m
Ġver standen
Ġr ese
ĠB rit
Ġwar st
Ġsur r
Ġgan as
Ġalc un
ĠAbend essen
Ġvie jo
Ġfix ed
ĠNÃ¤ he
w agen
Ġh Ã¶rt
Ã¡ nd
Ġle ader
od a
Ġfr onte
uss en
Ġres ign
Ġbl ieb
Ġvia je
Ġpon to
Ġenem y
Ġust edes
N un
qu Ã©
ta ge
ld ren
Ġle che
Ġsch ne
Ġfe ed
Ġro pa
Ġuns eren
Ġpia ciuto
Ġspre ad
Ġstup ido
kel ijk
84 52
Ġbev uto
Ġpeque Ã±o
ĠHar vard
b os
Ġm ele
Ġne u
Ġge ze
Ġge bracht
Ġqual siasi
ĠEr fahr
Ġbre ath
Ġinteress ato
Ġind ust
Ġkam er
ĠnÃ¤ch ste
Ġcart as
Ġexha usted
Ġanivers Ã¡rio
H ic
Ġw under
Ġch ico
ĠS ter
ĠF oto
ĠL at
iz ation
ĠJ ac
Ġfal o
auf gaben
Ġfun ktion
Ġfre und
Ġhabl ando
Ġperf orm
ĠBl ick
Ġsorpr eso
Ġwash ed
B el
p are
Ġc ai
un ico
Ġein s
Ġest ate
ck ing
Ġser vi
ĠV erein
Ġfare i
Ġdar um
heit en
Ġfra ge
Ġhal te
ks am
Ġcho ose
B ring
C er
N el
Ġin ve
Ġhe at
Ġwh ose
ien cia
Ha ce
ester o
Dov resti
Ġpisc ina
Ġhous es
h anno
Ġm edi
Ġw he
Ġr ound
Ġer led
ĠK r
hn ung
ari os
Ġenjo ying
Ġsou p
Sta vo
Ġber Ã¼h
Ġwall et
Ġneighbor hood
D iss
J ullie
Ġb ang
Ġle vel
hn t
Ġpa ir
ek er
Ġapp les
ĠOr t
S omos
V erg
ĠS elbst
Ġcom fortable
Ġli bre
Ġsp ra
ib il
Ġbut ton
Ġres ist
Ġrem ind
Ġpop ol
Ġrelig ion
Ġring ra
l at
er ia
Ġw and
ĠM ars
Ġno vamente
Ġwe er
âĢ ¯
Ġti enda
Ġord in
Ġpra ia
Ã¤nd ert
Ġseg reto
Ġref le
Ġmatrim onio
L le
i ft
Ġd Ã©
Ġl hes
qu ele
be u
Ġcu er
Ġmo od
Ġcos ta
ein en
Ġconc entr
Ġgeh st
Ġbor ing
Ch ied
Ġdisa ppe
ĠSpan ish
f eira
w and
Ġs endo
Ġun able
ig ten
Ġsa iu
ul s
Ġsp ie
ĠG en
Ġam ount
Ġro de
Ġcl ar
get en
Ġmat ch
Ġpic nic
du ce
Ġhay a
ĠAp fel
Ġcel ular
O f
S ÃŃ
ĠS ol
ĠF u
Ġsp agn
ĠC D
Ġir Ã¡
Ġaqu ela
Ġbr idge
ĠTag en
Ġrema in
Ġdisco vered
Fin almente
Ġdepress ed
Ġdesap are
7 7
c ono
m m
Ġp ant
Ġes tive
ĠS ituation
Ġal tern
Ã© dio
Ġex cep
ĠU nd
Ġfavor ito
Ġnum er
Ġlle gÃ³
Ġ19 6
Ġdro p
Ġmigli or
Ġaper to
Austr alia
Ġopini Ã£o
z as
Ġs anno
Ġp il
ra gt
Ġst ars
ag a
iz ado
ard a
Ġsol ution
Ġgen aus
Ġresp osta
ĠBer g
Ġbag no
Ġbek annt
Ġsorpr end
Ġerw artet
gui en
ĠÃľber setz
Ġinno c
G a
n as
Ġp ase
Ġl eren
ell ed
Ġwe ars
Ġsp iel
Ġra us
Ġuns erem
ĠHa ar
Ġsm iled
Ġdire ito
Ġaten Ã§Ã£o
Ġbasket ball
Ġempre go
o ver
w Ã¤r
Ġw ich
el ten
os c
le ben
Ã¡ rios
Ġalle ine
Ġpiace va
izz ato
Ġstol z
Ġopportun ity
Ġhub iera
ĠerklÃ¤ ren
2 0
g on
s ident
Ġt aste
am es
Ġbe we
Ġdes to
lo g
ute bol
Ġve jo
Ġpass en
Ġreal idad
Ã¼t zen
Ġpolit ical
Ġprocur ando
stu blieft
b Ãºs
ent er
ent ra
Ġla ke
ond a
Ġauf s
Ġsol ar
bre chen
Ġ1 4
bo ard
aut y
Ġsn el
Ġd umm
is er
id ere
Ġpl ano
Ġcont rat
Ġprogr ess
Ġsong s
Ġdut y
i x
Ñ ĭ
Ġs li
in segn
Ġf urt
Ġv ar
Ġla p
Ġfor ced
Ġpo ver
Ġmar av
Ġpol ÃŃcia
ali ana
Ġob ject
Dov rebbe
Ġmenti r
Ġtoward s
Ġseparat ists
j ado
p Ã¤
Ġw eten
Ġn ational
Ġqu indi
ĠÃ ģ
Ġpass ada
Ġsor te
Ġsin to
Ġfun er
Tod as
ĠBer lin
Ġappro ach
Ġconten to
Ġreti red
Ġjack et
M al
r ÃŃvel
Ġp idiÃ³
Ġg ast
Ġr usso
go le
Al guien
Ġprofess ore
Ġlisten ed
z uf
er ed
at em
le iche
Ġme e
Ġr oman
Ġer ro
Ġmar ito
Ġsoon er
Ġgeh ol
ĠSchw ier
Ġsat is
zeit ig
schied en
ĠmÃ¡ qu
SÃ³ lo
Ġgenaus o
Ġn ation
am ing
ĠS c
Ġcon vid
Ġsu gger
erd Ã¬
Ġcult ura
Ġstim mt
ĠChe f
S ec
o e
p ol
w ij
es ar
ed endo
Ġe um
le y
Ġla zy
Ġver Ã£o
ab or
Ġda u
Ġbu iten
Ġcons ult
je blieft
Ġmil es
Ġthir sty
Ġval or
Ġdev ono
ĠOr d
ĠpÃ¡ g
Ġreuni Ã£o
Ġs our
as ons
Ġdi ede
Ġz io
Ġam mal
Ġdel i
Ġcu anto
Ġdec l
Ġap aix
Ġbef indet
Ġgew innen
Ġdesper t
L aten
in qu
is is
Ġi denti
ic ted
Ġne arly
Ġsh it
Ġman ca
ĠH ut
Ġgr upo
Ġcor ret
Ġreg ion
Ġspre che
Ġauto bÃºs
Ġocc as
ama is
Ġpergunt ou
Ġlad r
Ġdanc ing
ĠFle isch
I nd
r ont
Ã¼ l
ĠR estaur
Ġgi ves
Ġsem anas
Ġbar co
Ġtrabal ha
ĠSonn tag
1 6
ie ve
ec tive
ug g
Se it
Ġcol p
Ġfac ilmente
Ġlun es
Aqu ÃŃ
Ġgest orben
Ġdest ru
Ġscha ffen
Ġsorr iso
ĠhÃ¼ b
Ġverhe iratet
ĠAustrali Ã«
E g
d ag
Ġa ra
em e
Ġre pe
Ġne ither
Ġpar li
ul p
ĠJ an
Ġgen ommen
Ġcap o
Ġstudi ato
ĠLond res
Ġfight ing
Ġcav allo
Ġpock et
C ap
Ġc ras
re ta
Ġin ven
ess ed
Ġman chmal
Ġdis ag
Ġpa inted
ĠRe ch
Ġdov resti
Ġgel uk
Ġcambi ato
Ġf utebol
et es
ci es
Ġdes ign
lo v
Ġtem pt
Ġesper o
Ġsou l
Ġsoc cer
Ġlim p
ĠNach mittag
Ġllam a
b ito
f y
an ger
it ou
ĠS pe
ĠS achen
Ġz eker
Ġer re
ÃŁ lich
Ġauf zu
Ġevery where
So ll
ĠSe ele
Ġserv ice
Ġenfer mo
ĠgefÃ¤hr lich
Sor ry
N imm
Ġw Ã¼t
Ġme as
ĠS atur
Ġsa ved
Ġus ual
gr und
ĠKind ern
ĠÐ ½
Nicht s
stell ung
Ġrecogn ize
b rig
z ir
Ġto cc
Ġst Ã¤ndig
Ġer reichen
ij o
ĠJ ugend
Ġvol uto
ĠmÃ¼ s
Ġspre ken
Ġchar acter
ĠLond ra
Sape te
Vogl iamo
Ã ¯
Ġes paÃ±
Ġre pres
ce i
Ã¤ re
Ġpre gn
gn is
Ġsin cer
arn os
Ġpla ces
Ġsho ot
Ġestudi antes
Sar Ã²
M er
U s
h il
x ito
Ġd ry
Ġr osso
Ġit self
ok er
La at
Er ano
Ġhier her
Ġhab et
Ġru le
Ġtot ally
Ġmulher es
Ġbiciclet ta
Ġchia vi
Ġrar amente
A ch
Ġt ab
Ġp ensei
Ġc ere
ti ene
Ġsa cri
Ġche ese
ac y
ci ous
Es s
Ã¼r ger
Ġchi uso
Ġstud ente
Ġbus cando
Ġmal ato
Ġbis o
Ġarriv are
Ġinst rum
Ġversch ied
ĠMon tag
Ġvas o
ĠHo ch
Ġelect ric
ĠKÃ¼ che
Ġcomun ic
Guard a
ĠHung er
oura ged
Ġf oc
am in
Ġla b
Ġsh ocked
ĠP res
lo ven
Ġstud ies
ĠTe uf
Ġmul ti
Ðµ Ð
Ġgover no
Ġrub ato
Ġimpro ve
onav irus
V is
ar emos
Ġch Ã¡
Ġal stublieft
Ġre vol
ĠW ill
Ġdes cul
Ġmor ta
Pens ate
Ġdisp on
Ġgost am
Ġescre veu
Ġgam es
u almente
Ġl lu
ĠM or
Ã¡ ria
Ġcas h
Ġinter net
Ġdec or
Ġcul p
Ġwindow s
Ġjap an
ĠgrÃ¶ÃŁ te
Ġwohn en
ĠAm Ã©rica
Ġjard im
Ġperio d
u x
us ch
ĠM at
ter i
Ġal ma
ver so
Ġgo ede
Ġcl ima
ĠO k
Ġpod ia
Ġresp uesta
Ġom brello
Ġasp etto
Ġric ordo
St anno
Ġdort hin
Ġrespe ito
ĠSen hor
ĠPrÃ¼ fung
B y
M orgen
Ġt am
Ġw ays
Ġde ed
ĠM arika
ĠF orm
Ġher o
ĠV og
Ġmen or
Ġfam il
Ġsing en
Ġsit zt
Ġaccept ed
Ġfright ened
R ic
d at
Ġd essen
Ġan k
Ġver ge
Ġsp ero
iz en
ĠD umm
ĠV ert
Ġfu hr
ĠPar igi
ĠHe im
Ġhands ome
Ġacab ou
Ġjard ÃŃn
Ġelk aar
J im
b la
Ġc ierto
Ġk amen
ĠH alloween
ĠSch we
Ġpa ce
Ġdur amente
ĠSe e
Ġeas ier
Ġauto bus
schuld igen
Ġmatem atica
Ġcuri ous
Ġoce an
k now
l ice
Ġs os
on ger
Ġf ed
Ġo we
id s
ir Ãł
Ġz onder
Ġpr is
Ġac us
Ġro of
Ġca ja
Ġcor ri
nte m
vir on
ĠGeb Ã¤
Ġhorri ble
6 6
E i
S pr
Ġm ÃŃo
Ġn ett
Ġin gen
et Ãł
Ġla ufen
Ġfor ever
ĠF rem
Ġdis ser
Ġchi esa
Ġdist ance
ĠHer zen
gest ellt
Ġcommun ic
Dur ante
M o
Ġs etzte
ĠS itz
Ġle b
ĠE he
Ġcu arto
Ġals jeblieft
Al c
Ġcor so
Ġpart icip
Ġdiffic ul
Ġcook ies
80 7
Jap an
Ġfasc in
Ġzap atos
u esto
Ġc ine
Ġno ve
Ġj edes
Ġdes con
Ġsol i
Ġje ito
edo ch
ĠÐ ¿
ĠFlug zeug
insegn ante
ch em
es tiv
or ter
Ġf aria
Ġv iz
Ġle jos
ĠT iere
Ġvis ita
Ġbes it
Ġmen ina
Man chmal
Ma ke
Ġlang we
rij k
ĠAus land
hol en
Ġnoti zie
Ġdeta ils
Ġp ele
Ġl ernt
Ġdi l
Ġdo et
Ġvo te
og ra
ĠGes chenk
Ġdrei ÃŁig
Ġmens ch
Ġtent ou
Ã¡t ico
Ġprincip al
Ġbeza hlen
ti Ã³
ĠB ut
ac a
Ġpre vent
Ġpu zz
art amento
Ġinv est
Ġpot ato
Ġedi ficio
Nos otros
Ġexplic ar
at ico
Ġf Ã©
it are
ant wort
ute m
Ġanim ali
Ġpay ing
Hoe veel
Ġverlie bt
Ġpote va
Ġtiv esse
O ntem
b ye
i ale
Ġs ca
es es
Ġb ud
Ġf este
Ġdo od
Ġse arch
Ġch allen
Ġz elf
Ġr at
ĠA hnung
Ġer at
Ġwe h
Ġwe bs
Ġimp iego
Äĥ t
De pois
Ġinc idente
Ġenc ant
Ã¼n st
Ġrel Ã³
ĠgroÃŁ es
ĠÃº til
Ġlic ense
D opo
x to
ch os
Ġc ump
Ġn ato
Ġto ler
Ġi emand
Ġte cn
Ġtell s
Ġfa Ã§o
Ġmag n
ĠArbeit s
Ġsap atos
ĠSon nen
Ġobj eti
f allen
Ġm ettere
Ġw ise
Ġn isso
Ġe j
ll as
Ġme al
pp ure
ĠH Ã¼
Ġenc anta
Ġmes i
Ci Ã²
Ġpou red
Pod emos
Ġsuccess ful
Ġracc ont
ĠFu ji
B et
Ġd anz
Ġn esta
Ġver rÃ¼ckt
Ġsp aghetti
che in
Ġcont ou
Ġet Ãł
Ġsuper mar
Ġlar gest
Ġwild e
MÃ¶ chtest
ĠWÃ¶rter buch
Ġassol utamente
ĠwÃ¼t end
ri k
Ġj edoch
Ġsch o
ĠK er
ĠW issenschaft
Ġpo ll
Ġlos ing
ĠO b
Her r
Ġajud Ã¡
ĠStud enten
ĠGeheim nis
Desp uÃ©s
B ecause
w ert
Ġr en
Ġle zione
ud ere
ga an
Ġreun iÃ³n
c les
h ada
Ġs Ã¼ÃŁ
ĠSch m
Ġcou n
Ġart ist
Ġgiorn ale
Ġindi etro
Ġcole gio
Ġjue go
Ġpopul ation
Ġnoss os
b amos
c ci
v iamente
Ġw eder
as st
os ition
um i
Ġz ij
ĠP ost
Ġra ise
Ġbra ve
ĠCh ar
ik o
Ġcle arly
Ġbig ger
amp f
ĠBl ut
Ġconsegui u
ĠEntsche idung
Ġander er
S per
y Ã³
Ñ ı
Ġde fe
mer ksam
Ġfe hlt
Ġta al
Ġpens ato
ĠZeit ung
Ġseg ui
Ġpio ggia
Ġclim b
ĠFern se
O p
i ent
us c
ĠM Ã¶glich
ter a
ant el
Ġfor ce
Ã¤ ss
Ġar ti
Ġri f
Ġesc al
Ġfal ou
tim amente
Ġprov ando
Ġev itar
Ġange kommen
ĠlÃŃn guas
Ġcuc inare
Ġthre aten
Pri ma
ĠOrd nung
viron ment
" ?
S pe
m utter
Ġbe auty
Ġver tra
Ġr Äĥ
Ġpar ked
Ġso gar
ĠT ier
sch w
Ġprop osta
Ġoc ur
Ġtrad urre
Ġcontinu ed
rop ri
d os
m te
u ale
Ġp it
Ġp ath
Ġun if
Ġen amor
Ġpro cess
Ġar rog
Ġcost ru
ai ana
Ġass ass
Ġdiz endo
Ġsk in
Ġblo ÃŁ
ĠlÃ¤ uft
Ġpen cil
spra che
P a
P ap
Ġt ap
on se
Ġqu o
Ġun bed
Ġno ta
Ġwe ap
ab t
ĠT asche
Ġmy ster
Ġup stairs
Ġve o
Ġpass port
Ġgew onnen
ĠAn fang
Ġdemoc ra
Ġatrav ess
Ġme is
em an
Ã¡ st
Ġat temp
gl Ã¼ck
ĠT at
Ġpo et
Ġmag az
Pre f
Ġexam ple
Ġdest ino
Ġquesti one
Dei xe
Ġgh ost
d ruck
r ger
s inn
al te
am s
Ġver n
Ġwh om
icht lich
Ġlo ja
Ġcam b
chi ere
ĠHaus aufgaben
Ġhon or
Ġconvers ar
Ġdeber ÃŃas
Ġdocum ent
Ġfuncion a
Ġavi Ã£o
Ġbehav ior
Ġruh ig
Ġreluct ant
f ort
Ġch itar
ĠS an
Ġcas ado
Ġwer eld
gh ese
Ġsent ado
Ġsk ill
Ġanim ales
Ġbeh and
izz era
Ġdef end
ĠUr laub
ĠseÃ± or
S cri
i ate
x o
al ent
Ġbe z
Ġj umped
ĠA uge
Ġden ti
Ġcont est
Ġpass o
Ġcall s
Ġdisc uti
Ġalc una
Ġev il
Gra cias
ĠKl asse
Ġidio t
Ġcontr ario
Ġinteres ante
Ġstam attina
ĠSchwier igkeiten
as ing
Ġv ig
Ġdi cion
Ġde ut
la ble
Ġper cent
ĠD ank
Ġad i
Ġwo orden
Ġson s
gel ijk
Ġdist ra
ĠprÃ³ pria
Ġment ito
Ġucc ider
Ġball are
ĠVog el
F al
H ou
Ġt ens
Ġcom ment
Ġver me
ĠA uss
Ġzu cch
ow s
Ġvi vi
Ġu o
Ġtie f
isp iel
Ġerav ate
Ġeg al
ĠFrÃ¼h stÃ¼ck
a it
k ig
on go
Ġto en
et je
Ġsu erte
Ġab ge
Ġzu llen
Ġtr am
Ġte atro
sch rift
ĠSch n
Ġvac aciones
Ġconc lus
Ġcr isis
Ġlev ar
Ġtelevis Ã£o
ĠAuf gabe
Ġmam ma
Ġestu vo
Ġscel ta
Ġgaro ta
m b
Ä ±
Ġp oc
Ġher vor
Th ings
Ġho le
Ġpal la
Ġbad ly
g st
Ġp Ã£o
Ġb il
un ica
Ġst ories
ĠÃ© xito
Ġpl enty
ĠD a
Ġauf hÃ¶ren
Ġsol che
Ġnu cle
Ġtro va
Ġbin nen
ĠGe fÃ¼hl
Ġaff am
Ġcred it
uck er
Ġbri l
Ġpreocup ado
Ġarrabbi ata
Ġsymp ath
ĠespaÃ± ol
D ar
w ohn
Ġm ela
Ġf ile
Ġo ÃŃr
Ġqu ant
Ġle gte
Ġat mos
Ġte en
ung ere
Ġsi ate
ba ut
br as
Ġtro t
Ġap ag
Ġsab emos
Ã´ m
Ġalc une
Ġchang es
Ġgleich en
Ġeff ect
Ġid ent
Ġacred itar
ĠSta aten
Ġintro duc
Ġfro h
Ġm art
Ġo ÃŃdo
ĠM ittel
Ġla ut
Ġj azz
Ã¤ hlt
Ġni Ã±a
Ġdem on
Ġent onces
Per o
ĠGe gen
Ġconf iar
Un ter
Ġuse ful
ĠEin z
Ġfing er
Ġcum ple
Ob rigado
Ġpregunt Ã³
ĠFir ma
M us
er os
Ġl Ã¶sen
ac ed
ok ed
Ġbo ard
Al ger
ĠGes ellschaft
All ora
Ġneg oc
Ġrimas to
K om
Y esterday
ĠS r
Ġein ander
ÃŃ st
Ġke er
Ġ2 5
Ġfre ue
Ġcent ury
Ġexpl an
Ġescrit or
P arla
c ta
Ġc ay
Ġe her
ĠM ut
Ġhe aring
Ġgo al
Ġne un
Ġli est
Ġus es
ha use
Ġpo ison
Ġpart ido
Ġcant ante
ĠFr iday
Ġalem Ã£o
Ġjud ge
ĠdÃ¼r fen
F rom
f ess
f ab
Ġd ito
Ġg isteren
Ġto l
Ġv ender
ed as
Ġr ug
Ġest Ã©
Ġho bby
Ġot ten
Ġhum ano
Ġexper iment
ĠNach b
Ġsister s
Ġopin iÃ³n
Ġincl ud
ĠGef Ã¤n
Ġmuse um
Ġpien o
Ġpisto la
Ġgent le
C ar
Ġin im
Ġe ar
Ġpu ll
Ġten is
Ã¤t zen
Ġfl at
ĠRe is
ĠFre unden
isti an
Ġvriend en
Ġespe ci
Ġbenut zen
v imos
Ġ Ñģ
Ġun as
ti eren
za hl
Ġencontr ou
Ġerk lÃ¤r
KÃ¶n ntest
Ex c
ĠPr in
Ġemer gen
u rig
Ġch icken
Ã¶ d
ab ilmente
ĠT ennis
Ġser ÃŃa
Ġ1 1
Ġcompr Ã³
Ġstom ach
Ġs elt
Ġb olo
Ġg ather
Ġver br
ĠF reiheit
ĠG u
Ġmo v
Ġvol o
Ġfl ower
Ġprov avelmente
Ġdream s
Ġorigin al
ĠWochen ende
7 0
g ele
r anno
r ica
Ġa uss
la ud
Ġsu i
Ġche ap
Th en
Ġpe ggio
Ġmet h
iti vo
Ne ver
ĠlÃ¡ p
Ġpossib ility
Ġassum ed
C o
v ens
Ġv enti
ed ing
ĠB rown
Ġas c
ĠÃ¼ber all
ru ct
Ġze gt
Ġfer ro
Ã¤ch lich
Ġcorr ere
Ġpequ eno
Ġappo intment
Ġsched ule
ĠrelÃ³ gio
Ġunbed ingt
Ġd ank
Ġm un
ie ÃŁen
Ġse ason
Ġwas hing
Ġst amp
Ġtr inkt
ĠT ro
Do ing
Ġdes en
ation en
Ġfa ith
ĠGes etz
Ã¤nd ern
Ã¤hr end
ĠThe ma
Ġcorn er
R o
a e
w ers
Ġt ierra
in has
et os
Ġre i
Ġpar enti
ĠG ra
ĠH unde
Ġhel e
ati k
ĠZ w
ĠSt rand
Ġsal iÃ³
Ġsm ettere
Ġconos cere
Ġpel os
Ġdivert ido
Ġburn ed
u el
v ater
w ord
Ġto ch
ed om
al ed
Ġi ba
Ġr in
Ġdel icious
Ġac qua
Ġter ia
Ġcor onavirus
ĠEr geb
pl atz
Ġmost rar
Ġdisc ut
Ġzie hen
Ġinform azioni
Ġnas ceu
Ġpicc ola
Ġavi Ã³n
ilos oph
Ġveloc emente
Ġmoe il
Ġapaix on
ĠRestaur ant
Ġzucch ero
S unt
f lich
m el
Ġ ug
Ġc ot
Ġre tire
Ã¶ tig
Ġdes pre
ĠD on
ug al
ĠZ we
In t
Ġsti r
Ġvol unte
use hen
Ġexc it
Ġsil ent
Ġalgun as
Ġbeb Ã©
Ġcheck ed
Ġintern ational
Ġpleas ure
G re
Ġo de
Ġqu elli
ich i
ÃŃ da
uch s
Ġcan ciÃ³n
Ġsc ene
ue go
Ġgi ud
Ġpass are
âĢľ .
Ġgel ie
Ġesp an
ĠfÃ¼ hrt
Ġlight s
Ġniemand en
yp ti
Ġcrimin al
Ġprog etto
ĠMÃ¶glich keit
p oca
Ġ Que
Ġn ine
te u
ri ge
ur ato
ver Ã²
Ġle isten
ff es
Ġco inc
Ġfo arte
Ġai re
Ġmod er
Ġexc ell
Ġadv anta
onde u
Ġgrow ing
Ġargum ent
Ġto il
Ġdi cc
Ġk ostet
ĠS er
Ã© l
Ġsch rij
Ġdes ay
ĠD ach
Ġmat ar
ĠkÃ¶n nten
Ġbro er
Ġadd orment
Den k
ĠFuÃŁ ball
Ġspagn olo
B is
T orn
Ġs co
om bi
Ġun mÃ¶glich
ĠM iss
Ġcon ne
Ġre asons
ĠL aden
ĠT asse
ĠR io
ĠR uhe
Ġcar eless
Ġgr ate
Ġinf in
Ġemp le
Ġdisc urso
Ġrit orno
Ġcontra ct
Ġsan gu
y le
Ġa vai
in de
ent as
Ġz iet
her n
Ġpr aten
Ġpri gione
Ġacc used
ĠSp ort
Ġint ended
Ġgef ragt
Ġgek ocht
Ġhol iday
Ġklein er
Ġveget ables
Ġgewe est
82 45
Ġsatis fe
ĠTeuf el
w art
Ġ Â«
Ġh ill
Ġg atti
Ġen vironment
ge kommen
Ġfr anz
Ġcomp ar
Ġpor to
Ġsc on
Ġout ras
Ġob ser
Ġliv re
Ġclass es
ĠrÃ¡ p
ema al
Ġgeb eten
ĠerzÃ¤ hlen
Ġwood s
Ġcerve ja
Ġhina us
Ġfurt her
m ara
Ġd etta
Ġs Ã¬
Ġf iss
ie te
Ġla chen
Ġso gno
Ġfo go
Ġeste ve
Ġlavor ato
Ãªn is
Ġpergunt as
hem at
Ġclaim s
Ġterrib ile
Ġrese arch
. âĢĿ
m ine
v izzera
or g
Ġdi ci
Ġla id
Ġab bra
Ġher man
Ġpo vo
Ġocc ur
Ġsitu aÃ§Ã£o
Ġlim it
Ġopin ione
Ġdenk st
Ġpersu ade
CuÃ¡nt os
ĠHoff nung
C um
Ġt ight
Ġd essa
Ġs etzen
in ing
Ġv ul
end um
Ġer an
Ġwar ned
Ġco ver
Ġci ent
Ġins p
Ġmem or
Ġarriv ata
ĠStra ÃŁen
Ġsag st
Ġbol sa
Ġcust om
Ġregn et
Ġness una
w ie
Ã Ģ
Ġl inda
Ġv raag
ir Ã²
ĠJ os
Se id
ĠHa w
Ġgra v
Ġlegg endo
Ġresult ado
Wann eer
Ġeduc ation
Ġgesto hlen
Ġameric ano
ĠmÃ¡qu ina
D is
F ai
l ight
m Ã¶
Ġa cept
Ġd ello
in ke
Ġv ÃŃ
Ġe mail
ĠB raz
ber n
ĠK am
op t
ĠV ocÃª
tion al
Ġtir ar
Ġriusc ito
voc ato
Sec ondo
B o
j ando
Ġ Wh
Ġm ist
Ġhe im
ĠB au
Ã¤ um
ate g
Ġent tÃ¤us
Ġess as
Ġir re
Ġrisp etto
Ġsociet y
Ġsuff ici
Ġringra zi
v iera
Ġf ie
Ġse ien
ter ior
Ġal red
Ġcon te
Ġmu ro
Ġpu esto
Ġcer ta
Ġjo y
Ġton gue
ĠfÃ¼ hren
Ġaper ta
Ġschre ibt
Ġcoc ina
Ġdicion Ã¡rio
b orn
b bi
Ġa ard
ch ung
Ġv esti
Ġch amp
Ġj usto
Ġab bi
Ġma il
Ġpr atic
Ġex atamente
ĠD ok
Ġcu b
Ġenjo ys
Ge h
Ġski ing
Ġmember s
Ġevid ence
ĠPrÃ¤ sident
N um
al k
il es
Ġsh out
ast id
Ġpl Ã¶tzlich
De b
Ġwo ont
Ġhou den
Ġbl u
ĠIt alien
Ġmens a
Ġrum ore
ĠpÃº blico
Ġhes it
Ġrecomm end
ĠBri lle
Ġdi ab
ol t
Ġno via
lo oking
Ġihr es
Ġlie bst
Ġprodu ct
ĠRuss ian
Ġneighb ors
S in
Ġt orto
Ġp us
Ġl oss
un ivers
Ġst ret
Ġr ato
ĠF inger
ul i
ĠH ow
Ġdes er
ĠD em
ue va
rei fen
Ġmin or
anc ed
Ġ1 3
Ġbra in
Sem pre
Ġale gr
Ġascolt are
Ġhil ft
Ġnuest ros
Ġjorn al
S Ã¬
Ġt Ãªnis
Ġp Ã©s
Ġl aten
Ġsch we
Ġor gul
Ġvis ti
og le
ies o
Ġwel come
Ġdivent ato
Ġlem br
Ġann oun
ĠMÃ¼ he
Ġanx ious
F az
f it
k ra
w es
Ġa chter
Ġin verno
us ion
Ġcon ce
Ġj okes
Ġab ility
ac Äĥ
ind ruck
ĠG old
Qu antas
Ġcomp la
Ġmit einander
Ġwhen ever
Ġdir Ã²
Ġdorm ito
ĠAmer icans
Ġdecis ione
Ġhigh ly
Des de
Aqu ele
Ġanno yed
isc ono
Ġeing el
Ġpub blic
Ġavai lable
r ufen
Ġre de
ut ed
Ġver h
ĠB a
He eft
Ġpr os
Ã§ ou
ĠC ar
ĠZ ahn
Le g
Ġven ne
Ġperfect ly
Ġdarf st
Ġschre ck
Ġindoss ando
ĠHol z
Ġlus tig
Ġh ors
Ġi a
Ġde bt
ot ed
ien st
ĠW and
Ġcomp ra
Ġtem a
ous ly
Ġti ver
we is
Ġson ho
A qui
E mp
S arebbe
er as
Ġw em
Ġn ata
Ġto ca
ed ro
Ġqu id
Ġme ia
ter Ã²
ut es
Ġper do
Ġj ump
ist ra
Ġdir itto
ĠSte in
Ġsemp lice
Ġhang ing
Ġreci b
Ġug ly
or ie
Ġe ben
Ġdo ct
Ġme zza
Ġch in
ur er
Ã¤ che
Ġtr att
pr Ã¤ch
ĠZ Ã¤
Ġfat ti
Ġtal ent
Ġtal ento
Ġai uti
Ġbit ter
amb ur
Ġverl etzt
Ġsar anno
Ġave vano
ĠlÃ¡ gri
Ġkauf te
Ġhuman os
Ġerinn ere
arbeit et
Ġrar ely
ĠOn kel
ĠGefÃ¤n gnis
Ġexcell ent
, "
m achen
n chen
w alt
x ico
Ġ This
Ġs ize
Ġh ine
re ib
Ġf ale
Ġver go
ĠN ase
Ġdes ped
ĠR ede
Äĥ cut
Ġmal o
Ġvole vano
Ġparte cip
ĠFe ind
Ġexc el
Ġconhe cer
Ġtelevis ione
Ġeigen e
Ġjapon Ã©s
Ġportugu Ãªs
Ġlla ve
in ado
Ġm onte
Ġh ice
al Ã¡
ro ppo
Ġz in
ur ity
Ġst aring
ĠB aby
Ġj un
Ġac tor
Äĥ m
Ġ1 7
Ġacc om
Ġinf astid
iblio the
Ġdesc ub
Ġsci ent
Ġexam ination
P as
Ġ âĢ
Ġk unt
um or
Ġpro j
ff ie
ĠW enn
ĠC r
gh i
ĠAr men
Ġmat h
Ġgro te
Ġcal cul
Ġprofess ora
Ġmista ken
Ġscri v
Ġhund ert
Ġnatur ale
Ġpregunt as
ĠhÃ¶ re
atr ice
Ġoportun idad
Prob abilmente
Ġenf ad
Ġgeno eg
univers itÃł
C l
L ast
p ack
z os
Ġv ijf
Ġe erste
Ġes co
ac io
ok o
Ġar ma
che id
Ġdis per
Ġhel emaal
Ġtra f
Ġhapp iness
ĠFe ier
Ġsitu aciÃ³n
Ã¼ch tig
Ġmotiv ated
D av
t r
ie gel
em mo
Ġle ct
Ġall Ã¡
Ġfam osa
ĠGe fahr
Ġguard ato
Ġragaz ze
Ġsl ight
Ġhold ing
ĠÃ¼bers etzen
Ġesti ver
Ġcammin are
Ġmaggi or
Ġllu via
s to
u elo
Ġy es
ic ana
Ġper ig
ÃŃ p
Ġma akt
Ġte uer
ĠT or
Ġimp os
ba hn
ste in
Ġnie ve
Ġrep ente
ĠBe ispiel
Ġprov oc
laub t
Ġlat ely
Ġgewo on
Ġpregn ant
Ġgrate ful
Ġr uss
ĠB ill
ĠD ay
Ġdis h
Ġco ach
bl ing
ater ra
Ġbus car
ali f
Ġreal iz
Ġdiz ionario
Ġsil en
Ġnamor ada
Ġexerc ise
ĠGebÃ¤ ude
W Ã¤hrend
u est
Ġd ul
Ġh en
Ġqu ente
Ġre gole
Ġr ate
Ġcar b
Ġra ff
ĠZ ucker
Ġor ange
Is lam
Ġconf i
Ġconf ident
Ġprom o
Ġbeg innen
Ġaiut arla
Vi vo
Ma Ã±ana
Ġconc ord
vie w
Ã¤ll ig
Ch iam
Ġtick ets
Ġmayor ÃŃa
Ġwebs ite
n ers
Ġg ig
Ġo bra
Ġun c
Ġch uva
ac ional
br ero
Al gum
gr am
Ġhom es
Ġaten ciÃ³n
Ġvoc ab
ĠhÃ¼b sch
Ġsupermar ket
ĠNachb arn
p tion
at ers
Ġo gen
Ġes for
ic er
Ġch ave
Ġj ong
ot ti
ĠL Ã¶s
Qu indi
Ġpu eda
iss ima
Ġcl ock
Ġbl anco
Ġdov reste
ingu a
urt roppo
Ġentr am
Ġkon nten
Ġpos itive
Ġsit zen
Ġacred ito
Ġpeque Ã±a
Ġaccomp agn
zeich net
Ġiss ue
D r
H oc
a eroporto
g om
j ekt
Ġp Ã¡ss
Ġv ay
Ġe ars
Ġqu Ãª
ia e
Ġch em
Ġal um
Ġhas se
ak te
ede ut
Ġgel ato
cul pe
Ġvin te
Ġschnell er
Ġeconom ic
Ġrapp orto
Ġbigli etto
Ġspia ggia
F re
M et
r ingen
Ġin tim
Ġe c
ti er
Ġme j
ĠE m
mer z
sch n
Ġtra urig
Ġbr and
Ġvac anze
Ġmod a
ĠÃ¤ uÃŁ
Ġtemp or
Ġnas o
Ġdot tor
Ġ4 0
Ġfly ing
Ġbecom ing
Ġpess im
Ġpsy ch
Ġexplan ation
1 9
G er
H el
i rei
j ud
Ġc io
Ġal meno
Ġre v
Ã¶ gel
uch ten
Ġad oro
Ġir on
Ġsobre vi
Ġsic uramente
Ġvic tim
zie hung
Ġcir cum
Ġschle chte
Ġirgend wo
ĠGef Ã¼hle
is Ã©s
as chen
ĠG elegenheit
ĠE ier
ĠJ esus
Ġpi atti
Ġhelp s
Ġinv ite
Ġmem ory
Ġpossib ly
Ġveder la
ĠPal est
Ġbian co
Ant es
Glaub st
G l
p es
y ond
Ġd ado
Ġin e
Ġin fer
Ġse as
Ġch arm
ĠJ im
Ġcome u
ru ppe
Ġste eds
Ġgef ahren
Ġcambi ar
Ġpolit ica
ron om
ham ed
D et
R im
c re
p ret
p fel
Ġj unto
Ġpar lo
Ġso pa
Ġsch rieb
ak er
li ke
Ġvor rebbe
Ġtre ated
Ġemp f
ĠwÃ¤ r
Ġpes ar
Ġencontr ado
Hab ÃŃa
Ġdove va
Ġdeix e
ĠAugen blick
ĠvÃ¡ rias
Ãİ n
ĠKla vier
Ġtrot z
D ese
a Ã±os
v vis
as en
Ġz ag
st es
ĠZ wei
Ġele f
Tu be
ĠFran Ã§a
Ġref riger
Ġgesch lossen
Ġano che
Ġgiov ani
ĠKir che
schl uss
ĠSatur day
T wo
f ar
u z
ar ter
Ġc un
Ġg ay
ĠS and
Ġal iment
ul ho
Ġlo wer
Ġma p
ĠK raft
Ġemp rest
Ġdom in
ÈĽ Äĥ
Ġprepar ato
Ġmand ato
Ġdrug s
Ġapri re
Ġdisser am
M ang
Ġl amp
Ġv rij
Ã© j
ran s
Ġven gono
Ġtre in
Ġstr ess
Ġapr es
Ġban ca
ĠschÃ¶n en
Exc use
Ġmoeil ijk
c Ãªs
Ġ There
Ġin oc
Ġdi ven
Ġk open
Ġla ck
ĠI f
ĠI hrer
ten s
Ġcan cer
Qu ali
Ġent endo
Ġpe gou
Ġna am
Ġlet zt
Ġwork ers
ies en
Wo her
Ġdesc ans
Ġgol pe
Ġtravel ing
Ġcult ure
Ġcommun ity
gef Ã¤hr
Ġbras ile
Ġilleg al
ĠVerein igten
Ġalred edor
Ġ ...
at elo
ĠM acht
ĠÃ Ń
ri min
ĠS i
Ġas hamed
ind est
mer a
ĠfÃ¼r chte
Ġpri me
Ġacc ent
man hÃ£
Dov rei
Ġbic chiere
Ġtermin ado
Ġbek am
Ġstan otte
ĠReg ierung
Ġclim ate
Ġdivor ced
Ġarro z
b bero
y d
er ano
ĠM esser
od ie
Ġdes erve
Ġcu rios
Ġmo to
Ġor ologio
Ġsec reto
Ġtraba ja
ip ed
Ġref use
Ġbot ti
Ġdott ori
Ġstren gth
Ġperdi Ã³
Ġbeha up
Ġcolt ello
Ġshar p
J ack
S into
f il
at ors
Ġf estiv
st ad
che i
ĠC on
Ġfin ta
Se e
Ġcol pe
Ġcre ated
Ġgan har
Ġconv in
At Ã©
Ġnat ura
ĠUnter richt
Ġbegin nt
Ġbeza hlt
Ġsimp ly
Ġtaz za
ĠIngl aterra
ĠErfahr ung
Ġt it
Ġw ist
ut ar
Ġj ur
ĠL ei
ĠC o
Ġav is
Ġbl ank
Ġvisit are
irt schaft
Ġmid night
ĠMuslim s
Ġfool ish
Ġglo ves
Ġlung a
Ġlett ere
Ġpaci ente
Ġchitar ra
Ġcumple aÃ±os
k om
v ic
Ġb orsa
te a
et ed
le m
Ġsu cht
Ġj amais
ĠÃ© poca
ĠW ert
Ġgu ad
Ãº t
Ġav Ã´
tag s
Dov reste
ĠÐ ²
Ġverk auft
Ġdifferen za
Ġrum or
zus ch
Ġfunzion a
ĠAut os
Ġham bre
Ġhue vos
Ġdicc ionario
om ed
Ġm ant
Ġw ach
Ġc ento
Ġc usta
Ġn ennen
Ġv ag
Ġde pr
Ġun g
Ġk icked
ur te
Ġst esse
ber g
Ġprofess ional
pi elt
Ġarm y
blie ben
Vogl iono
Ġcerve za
Ġsapp iamo
Ġentram be
x a
ch ing
Ġo ben
ul ui
Ġsh ape
Ġex isten
Ġent de
Ġgood bye
ohn t
Ġter remo
Ġfar mi
Ġapp lic
Ha ec
ggi ata
Ġrec uper
Ġzw anzig
Ġsel ber
inc idente
Ã¤r m
Ġcomm itted
une hmen
Ġkl ug
Ġestudi ante
Ġprimer o
Ġestran ge
Ġescrit Ã³rio
Ġspaz ieren
Ġlij kt
r esse
w ind
Ġes tiv
Ã© nt
ell as
ĠR ome
men ta
Ġaiut armi
Era vamo
Ġcond ucir
Ġattra vers
Ġmountain s
ĠpolÃŃt ica
Ġgru ppo
ĠKrank heit
Ġaccom pl
C hr
E ri
M am
a akt
Ġa erop
Ġd age
Ġs ke
ol ino
Ġcon temp
Ġj on
ass es
Ġsh ock
red d
Ġmir ror
Ġvor her
Ġass ust
Ġsal ary
uer zo
Ġpag a
Ġcle ver
Ġdiver so
Ġcop o
Ġpel ig
Ġpreoccup ata
Ġcru el
Ġrip os
Ġmotor cy
Ġmonta gna
R a
T er
z ando
Ġb Ã¶se
Ġsp reekt
ier ten
ist ro
ĠN orth
Ġim barazz
Ġsuper i
Ġval de
Ġaspett ato
Ġspend ing
Ġko ffie
Ġboc ca
Ġpei xe
K aby
k ten
qu en
ic it
Ġk at
ti ert
Ġbe ve
Ġper gunto
Ġac aba
Ġwar te
Ġvor stellen
Ġass om
Ġbro wn
Ġsic ure
Ġniemand em
Ġutil iz
ĠAp ril
Ġcard s
Ġhors es
Ġt esto
Ġdi go
Ġbe yond
ri zzo
Ġac ting
Ġgr am
Ġinter esse
Ġfi ft
pa ir
Ġpas ta
Ġru im
ban ese
Ġexper t
Ġletz ter
enz io
Ġborrow ed
Ġglo bal
Ġcai u
P ra
i vo
k oh
r id
Ġh Ã¤uf
Ġv ende
ĠM ay
Ġz erst
Ġst ared
Ġgo d
Ġne ppure
Ġnon na
Ġte xto
ĠR Ã¼ck
Ġtom a
Ġcou ch
ĠCh ance
Ġmod el
Ġru ido
col edÃ¬
Ġmigli ori
Ġneg Ã³
Ġrema ined
Ġschl ug
Ġpequ ena
ĠFern sehen
Ġcoz in
Ġdirig ir
ĠprÃ³p rio
Ġpenn a
Ġn ero
Ġg ir
Ġde g
ĠS in
Ġcon sel
Ġest rem
ĠK re
Ġac tion
Ġva ak
Ġquer er
Ġroom s
Ġdan ach
Ã¤nd en
Dov remmo
Pot rei
ĠirmÃ£ os
Ġfortun ato
icher heit
ĠWor ld
Ġextran jero
J ij
W il
m ung
p unkt
in cia
Ġc y
or ma
Ġg ym
Ġthe ory
us ias
ie m
Ġse p
ĠI st
Ġche er
ul timo
ĠK ino
Ġmu erto
br os
Ġfu oco
Ġprof und
ĠVer stand
tra gen
ĠYou Tube
Ġappe ared
ĠFar be
ĠPap ier
Ġdistur b
Ġcono zco
ĠFrÃ¼ hl
Ber ber
ĠfÃ© rias
ĠlÃ¡gri mas
Z wei
r ato
Ġv lie
Ġan fangen
ie ÃŁ
ari an
gr amm
Ġconf uso
Chi ldren
Nu estro
Ġalc uni
Ġfotograf ia
Ġalun os
Ġbelong s
Ġrisol vere
Ġha ga
Ġch im
Ġz on
Ã¡ r
Ġper ros
ĠF est
ĠK Ã¤
Ġcost ume
ib ility
Ġad j
pr Ã¼
Ġmuch ach
Ġpa usa
Ġvol unt
Ġpri or
Ġsal es
Ġsab ato
Ġact ed
Ġrisp osto
Ġdeb es
Ġpolic eman
Ġdivers i
Ġriusci va
Ġpropos al
ĠItali an
c em
m on
Ġs ede
Ġh Ã¤ngt
Ġv ast
Ġdi al
Ġdo ce
Ġver lo
Ã¼ cke
Ġso br
ok ka
ĠK n
Ġcas as
Ġsi quiera
Ġfaz em
Ġbes ucht
ĠIt aly
Ġcamp ing
Ġpress ure
ĠKon z
Ġtoil et
z ul
er ai
Ġd ite
Ġs are
Ġs ite
in am
Ġn one
Ġf lag
ĠM ag
Ġcom une
ag ne
ion ale
Ġsc or
Ġor gu
Ġlav ar
Ġav rÃł
int s
Ġclass room
ĠTrÃ¤ nen
ibliothe k
F ate
c ing
z es
Ġd us
Ġf retta
Ġg ate
Ġv es
un sch
Ġde cep
Ġk rij
Ã¼ d
Ã³ r
ĠK no
Ġcompr om
Ġrec om
ĠIn sel
Ġbre at
Ġcomport amento
Ġdise ase
f Ã¤l
k omen
l ica
Ġw is
Ġw ij
at as
Ġp ushed
Ġc Ã£o
Ġes f
ro gen
ĠÃ ľ
Ġbe zo
Ġno v
Ġch ose
end ido
ĠB all
ĠF a
Ġwe inen
iz ioni
Ã§ ado
Ġpo esia
Ġir gende
ved Ã¬
Ġmet ter
Ġnie uw
Ġmat hemat
Ġbar ba
ĠVer l
Ġvia ggi
sp iel
Ġvir us
Ġdol ore
Ap enas
Ave vo
Ġrecogn ized
i be
r ut
Ġh ig
Ġl igar
Ġab re
ul um
Es peranto
Ġco in
Ġcont rad
Ġexp los
Ġfal ei
Ġreg ard
Ġste ts
Ġarri va
Man che
Ġpron unci
ĠfÃ¼ hlte
Ġspos ata
Ġsoz inha
Ġont mo
Ġpiens a
Ġpub blico
Ġkap utt
Ġschme ckt
L assen
Ġdi co
ĠS am
Ġle ider
Ġj em
Ġpr ices
ib st
Ġbel a
Ġmet ro
Ġinv ierno
Ġhij ab
Ġkind s
Ġprecis amos
Ġerr ores
Ġcour t
Ġju ice
5 9
A no
H Ã¤t
P h
r ite
Ġv Äĥ
Ġe et
Ġo vos
Ġqu ÃŃm
Ã¡ veis
Ġer ros
ĠL os
ĠE ich
her r
Es p
Ġwar f
Ġshould er
Ġdem Ã¡s
ars ene
Ãº de
ĠÃ¼ber zeug
Ġcent er
emp io
Ġdisg ust
F el
u ie
w els
Ġd acht
Ġk ilomet
Ġro ba
Tod a
Ġestud ando
ÈĻ i
Ġol har
Ġval ig
ĠKat zen
Ġllev ar
ĠvÃ¡ rios
Ġencont rei
ĠUnivers itÃ¤t
Ġarre p
ĠschlÃ¤ ft
Ġartic le
Ġske pt
U bi
Ġe tern
Ġbe be
Ġcom et
ÃŃ ss
Ġpr inc
ĠW ol
ĠN av
Ġten ido
Ġcol on
Ġdisc orso
Ġfue go
Las cia
zie k
Ġart ista
Ġneg ro
Ġamb ul
Ġclean ed
Ġopp os
Ġcav alo
Ġapro xim
Ġestran ho
Ġpote vo
Ġalem Ã¡n
Ġsuic id
Ġadop ted
ĠSchÃ¶n heit
Ġfunktion iert
Ġeingel aden
6 4
h ere
i ele
l icht
t to
Ġt ig
Ġt ust
Ġh unt
el and
ad em
Ġal arm
end io
est es
Ġsp ot
Ġte oria
ond endo
red en
De bes
Ġspe ed
Ġap re
ĠUn ion
na hme
Ġbr it
En gl
Ġprefer ita
pi ra
Ġfall ing
Ġclean ing
Ġange fangen
Ġprogram ma
Ġequ al
Ġinnamor ato
Ġmic ro
Ġgehol fen
c olo
z ell
Ġt ÃŃo
Ġa utem
Ġd ando
Ġd Ãł
Ġqu in
im entos
Ġle an
ag ens
ĠK ore
ĠJ oÃ£o
ĠZ us
Ġna he
Ġcam bio
Ġpas st
Ġpart ida
Ġgel ang
ĠwÃ¤ ren
Ġset te
Some body
Ġneces ito
Ġglaub ten
Ġfail ure
Ġbiso gna
B l
R ius
as p
Ġv iss
Ġdi most
Ġqu ieren
Ġbe etje
Ġre gen
Ġpro be
ĠK omm
Ġvi va
Ġson no
Ġtom Ã³
Ġsm arter
Ġprom esso
Ã¼s st
Quer ia
Ġemo zion
Ġalun ni
ĠFrank reich
Ġmeth od
Ġadvanta ge
A li
w en
Ð º
ud i
Ġam used
ba jo
Ġpo eta
Ġaqu el
Ġcal ma
Ġseg red
Ġrun s
Sch au
Ġsil ence
Ġsold iers
Ġinvit ato
Ġfis ica
Ġsuic ide
ĠSchre ibt
Ġbeant worten
Ġpericol oso
k arte
Ġh emos
Ġp age
Ġf iero
el be
Ġv endo
Ġk a
ti am
Ġre lie
ost ro
ĠB ob
Ġman if
Eu ro
Ġpor ti
Ġdes ert
Ġgu ai
ĠO ber
Ġav anti
Ġinc lu
Ġbl ow
ĠmÃ¶ chtest
Ġverl or
Ell as
Ġequi po
ĠBes cheid
Ġphoto graph
Ġregn en
Ġfidanz ata
Ġdere cho
, âĢĿ
S ia
at is
Ġf ec
Ġe f
Ġre ch
st ru
Ġr ief
icht s
ĠF ort
Ġam ava
Ġtr inta
ok ol
ĠP u
Ġtim p
ĠO hren
ĠVer b
Ġnecess Ã¡rio
Ġamb os
ĠBes uch
Ġvolt ou
Ġprodu ce
wend ig
Ġorgogli oso
S elbst
p her
Ġa po
Ġh ire
Ġc uch
Ġc ore
Ġl oco
Ġf ÃŃs
it an
Ġun de
um o
ĠA bra
Ġen gl
Ġen orm
az a
ĠÃ© Ã©n
ĠK ing
ĠW est
sch ien
Ġnu ot
Ġvor be
ĠkÃ¶n nt
Ġpart es
Ġdorm indo
Ġpes car
ĠJahr es
erg ie
Ð¾Ð ¼
Ġclaim ed
jen ige
Ġdage gen
Ġjem als
A lla
x er
z ess
Ġa unt
Ġp ir
or gt
Ġdi et
Ġdi cht
Ġdi xit
he i
ur st
Ġcom endo
ell ing
sch lÃ¤
Ġsta vano
ĠO hr
Ġvol viÃ³
Ġalle maal
Ġmehr ere
ĠFran cÃªs
Ġput ting
ĠVer gangen
Ġbeg rij
Sem br
Ġcontinu ar
Ġaconte cendo
Ġpossib ilitÃł
Ent Ã£o
Ġocup ada
Ġmenti ra
Ġenem ies
Ġpien a
Ġyell ow
Ġuo va
Ġespan hol
D iz
J emand
Ġm und
ir rt
Ġver st
Ġr ise
Ã¼ hrt
Ġj unge
ĠW erk
It alia
Ġfi la
ĠIn form
Ein ige
ÈĽ a
Ġinteress a
Ġfre edom
zu gehen
Ġtemper ature
ĠWir klich
Ġgeluk kig
Ġscriv ania
r ug
Ġt um
in na
Ġn ap
al m
Ġha gas
Ġme um
Ġst one
Ġel im
Ġtr ata
ak o
Ġcu esta
De ja
Ġbel ang
Ġmor al
Ġmai oria
Ġreal ity
Ġconvers a
Ġing ann
Ã¶l ker
Ġbran co
? !
it ato
Ġk ur
Ã¼ gt
av amo
Ġshe ep
Ġdis par
Ġser iamente
Ġwer ken
Ġpe ggi
bl ished
Ġav vocato
Est Ã¡n
Ġmach uc
Ġgem aakt
Ġencontr Ã©
Ġwel chem
Ġmad ri
Ġapart amento
Ġverk aufen
Ġfotograf ica
Ġalber i
Ã³g ico
h Ã¤ng
x ic
Ġt Ã¡
it ando
Ġv idi
Ġo oit
Ġes tim
Ġdo pp
Ã¤ ste
ul to
az Äĥ
Ġpl ants
ba ar
Ġqual unque
Ġfin an
Ġfac il
Ġmag ni
Ġpart ito
Ġprecis am
Ġval ue
Ġinten tion
ĠschÃ¶n es
Ġill ness
Ġguitar ra
Ġcarry ing
Ġdent ista
ĠHaupt stadt
Ġbab ys
w elt
Ġs ocks
Ġp ond
Ġc usto
Ġv aya
Ġv ragen
qu em
Ġo x
Ġdo ccia
ur ance
oc chio
Ġpro test
ab ly
gl ed
ĠK ap
We il
land s
Ġlie b
Ġreg ul
Ġans wers
Ġprepar ando
Ġlar ga
Å£ i
Ġnote book
Contin u
Ġ oro
ch an
re me
am entos
ad ing
Ġle iden
Ġlo vely
iam ento
gn et
ĠSch icks
ati v
rei be
Ġav vis
Ġcap isce
gg ere
gli ere
Ġvers prochen
Ġdeve m
old ed
Ġloc ated
Ġcop y
Ġearth qu
Ġdivor ce
Ġvuel ta
ĠÃ¶ff nen
Ġanger ufen
koh ol
u be
z ust
am us
ich a
um a
ĠS ek
ur idad
Ġer halten
Ġdes ider
Se g
ved ese
eri kan
Ġnecess ario
Ġtransl ation
Ob wohl
Ġtemper atura
Ġtrasc orso
V ive
j alÃ¡
z ung
es as
Ġc ali
qu id
Ġun com
Ġdo ors
ri re
la ufen
Ġsu elo
Ġpar che
Ġge ven
Ġsch la
Ġtr usted
Ġfa hre
Ġben Ã¶
Ġmet al
Ġou ro
Ġgra cias
Ġprogr ama
Ġapolog ized
Sape vo
Ust edes
Ġgira ffe
Sm etti
Ġhoofd stad
Ġuniver se
Ġgeze gd
Ġterremo to
Ġestrem amente
I edereen
Ġf alt
un cia
Ġun w
id d
Ġk ij
ĠB ra
Ġte us
ĠK ar
Ġcost s
Ġho op
Ġimp res
ĠV en
Ġproble em
Ġsm esso
Ġreg res
Ġmer cado
Ġkle ines
Ġsil enzio
KÃ¶n nten
Ġbeb Ãª
Ġsugg es
ye ar
Ġjapon Ãªs
Ġblij ven
Ġgescha fft
4 0
A manhÃ£
Ġs ost
Ġl isto
Ġe a
Ġdi gas
Ġthe ater
Ġch Ã£o
ĠB edeut
Ġtr enta
Ã§ am
Mi ke
ick te
ĠkÃ¶n ne
Ã¼n ger
Ġmed ico
col i
Ġnorm ale
Ġgehe iratet
Ġswe ater
Ġeng aged
ĠcÃ¡ mara
h end
en es
Ġs nee
or gan
Ġl ern
el ha
al ter
Ġe ager
ri z
Ġcom ido
Ġr ang
Ġr ende
ag lia
est ens
ĠF rieden
ind ru
gn Ã¼gen
Ġje ans
ĠTh oma
Ġless on
Precis amos
Ġimposs ibile
Ġinte iro
hÃ¶r nchen
ĠcompaÃ± ÃŃa
ĠÃľbersetz ung
Ġobjeti vo
C all
D Ã©j
f li
u hl
Ġt anzen
in ando
Ġw ink
is hing
Ġf ato
qu io
et ch
ĠS icherheit
ĠB Ã¼rger
Ġge bra
Ġri ved
Ġsta irs
ĠSch ne
Est os
Ġacc ess
Ġwoll ten
atur es
Ġleg ger
Ġpron ti
Ġquier as
Ġdro wn
Ġsul le
Ġdoll ar
Ġler ne
Ġgradu ated
Ġgrat is
ĠMittag essen
Ãºt bol
B oston
is ca
it is
Ġse ek
ĠA pp
Ġman ip
ĠW ie
Ġwar n
Ġgu ida
Ġter Ã¡
Ã³s ito
Ġconf irm
Ġtrabal hando
Ġgreat est
Ġ3 00
Ġcanad ese
Ġrecon he
Ġatras ado
an ja
Ġf Ãºtbol
Ġg usto
al bero
Ġk osten
ĠS uper
Ġver ke
Ġli ps
Ġas es
ĠP ass
ĠAr ti
uer to
Ġrep et
Ġbig gest
Ġimpar ando
aus piel
Ġsuspect ed
ĠPa ulo
Ġflie gen
Ġenti endo
ĠPoliti k
Ġsca pp
i que
Ġs ce
Ġc od
Ġv ere
Ġe w
ie ben
la w
Ã¼ te
Ġsp in
ĠT w
ĠR Ã¼cken
Ġsc r
Ġbo eken
Ġfac ts
Ġven endo
ĠVer kehr
Ġentr ada
Ġmer av
Ġperf etto
gre ja
Ġdent ist
Ġsper anza
Kein er
Ġcuer po
Ġatravess ar
ĠLÃ¶s ung
) .
C am
D im
c ca
p ass
r Äĥ
Ġan tig
Ġer fÃ¼
Ġpar king
Ġpr ese
ĠN u
sch lie
ze ichen
Ġter rit
bi os
Ġacc ording
Ġpol ite
Ġgra bbed
Ġreason able
arto ff
Ġacab ar
Ġenfer med
ĠcuÃ¡ ndo
Ġfreund lich
ĠSchreibt isch
L es
z ut
an er
Ġn esse
el er
Ġin ner
im um
are a
Ġpro hib
Ġdes ire
Ġro g
Ġbu one
Ġstud ieren
Ġpass word
Ġrec lam
Ġconos cer
Ġgeh abt
ph ere
vol ta
Ġsit io
Ġclos er
ĠHerr n
fortun ately
Ġrac ist
Ġcay Ã³
Z um
o go
u ca
Ġto ol
ac cia
Wh ile
ann ten
Ġdel ic
gu Ã©
ĠSch rift
Ġthought s
Ġesta cion
Ġgu ar
Ġbr utto
Ġbom b
Ġnem en
Ġcook ed
Ġmatter s
Ġment al
Ġbek ommt
Ġerk ennen
Pot resti
met ros
Ġfoss ero
Ġnar iz
Ġschlie f
Ġcono ce
Ġaum ent
ĠkÃ¤ mp
Ġpant al
Ġtempt ed
Ġexcel ente
okka ido
L un
N or
O jalÃ¡
i ano
Ġc ie
Ġn Ã¼t
Ġb ib
Ġst essi
Ġper c
ĠB ibliothek
ente i
Ġso gn
ĠL Ã¶
Ġri lass
Ġser vir
Ġgi usta
Ġro ll
Ġten ga
Ġges und
Ġcap able
uc y
pa Ã±a
Ġstr onger
Ġtrans form
Ġba Ã±o
Ġur l
ĠVor schlag
Ġoss erv
D ai
P res
g ada
s tig
t ere
Ġb iro
Ġdi ck
ri ght
ld e
ig ue
Ġre ac
Ġle zen
Ġen o
hn te
ak ter
Ġvor sichtig
ĠÃ¼ brig
Ġven it
Ġright s
bro ken
Ġplan eta
Ġmay be
Ġprop ia
Sta y
Ġspend s
ĠÃ³ culos
Ġricord a
ĠGroÃŁ vater
Acc ording
Ġcoz inha
Ġouvi u
Ġoptim istic
ĠZÃ¤ hne
C or
R es
V ert
Ġp av
el ing
Ġan gene
ĠM use
id ado
Ġcom mand
Ġver r
Ġper iÃ³
ĠB este
av ond
iz in
ha fen
Ġpe or
Ġav esse
Ġapp artamento
ari es
Ġbra ch
Lo ve
Ġfavor ita
Ġdown stairs
Ġ5 00
Ġpie ces
Ġpract ic
Ġabsolut amente
ĠÃ¶ff nete
Ġdess ert
Ġrepres ent
ĠWirklich keit
ĠperiÃ³ d
Ġc ade
Ġf en
Ġf rig
Ġde ur
ic am
ol ato
Ġsa Ãºde
ge gen
Ġsch ol
Do e
Ġpa io
Ġmor gens
Ġzw em
Ġpla ats
Wo llen
On ce
Ġchiam ata
Ġllam ar
Ġwann eer
Ġempez Ã³
Ġcomplic ated
ĠUS A
Ġerre icht
B asta
J oÃ£o
h ab
Ð ´
Ġw ilt
Ġw achten
Ġf Äĥcut
ĠM antel
Ġch ama
st ens
Ġver ab
ÃŃ culo
Ġpr ende
Ġcomp lained
Ġdes l
ĠD unk
ern a
Ġpass aggio
Ġvor resti
Ġcompr ado
Ġvisit ing
Ġpaz iente
Ġbatt le
Ġarre gl
Ġbenut zt
O r
m ag
v iste
x es
Ġt io
Ġt ÃŃm
Ġa eroporto
Ġb ater
ich tet
ir rel
and al
Ġst ub
Ã¼ se
ĠG ren
Ġcar re
Ġfi quei
ĠLe uten
Ġmangi ando
Ġdam age
Ġgost ar
Ġschle chter
Ġfas h
ĠÃĦ pfel
Sc us
Ave va
Ġsapp ia
Ġmere ce
Ġintroduc ed
1 1
V ieni
w esen
ch it
Ġth in
Ġdi eta
Ġun us
ac chi
ĠE ink
ast ica
Me us
Ġgu ests
Ġmor ar
Ġnach dem
Vor rebbe
Vor reste
Ġstup ida
ĠschÃ¶n er
Ġsed uto
Av rei
Conos ce
ĠMi ke
Ġtare a
Ġdestro yed
ĠestÃº pido
ĠHaw ai
ĠenttÃ¤us cht
S up
T anto
m us
Ġth ick
Ġb ild
Ġf og
ed uc
Ġch orar
ĠI k
Ã¼ re
Ã¤ cht
Ġen gra
Ġzu erst
Ġder en
Ġex isti
Ġsc ale
cc ato
Ġbu oni
ijn a
fer a
pl os
Ġvole vi
Ġprecis ava
Ġkeep ing
Ġdisp osto
Ġcab allo
Ġanno i
Ġfing ers
Ġencont ra
ĠSu ppe
Much os
Ã¼nst ler
ĠVergangen heit
Ġuncom fortable
B ras
L inda
Ġd Ãº
Ġp ale
Ġc Ã³
Ġn ello
Ġha cen
Ġz ul
Ġver fÃ¼
Ġver gangen
ĠG et
Ġfr uta
Qu eremos
Ġdis k
Ġpi or
ĠZ uf
Ġacc anto
Ġlan gen
Ġreg ular
Ġgan ar
Ġconse jo
ĠFl Ã¼
Ġfort une
Ġverm elho
Ġentire ly
Ġutilizz are
Ġbos que
Ġromanz o
g in
u hr
Ġa ereo
Ġn im
Ġde vol
um in
Ġas unto
Ġen gan
We et
Ġinter pre
Se gu
Ġeu er
Ġdir mi
Ġfi que
ĠGe h
Ġfer ito
Ġprote gger
Ġll orar
Ġfiz eram
Ġfrequ entemente
Ġripar are
Ġabitu ato
Ġhabr ÃŃa
Ġehr lich
ĠpÃ¡g ina
Ġmagaz ine
ĠBraz il
Ġestiv esse
Ġmotorcy cle
Ġdeg ree
h un
m bol
en ze
Ġs ito
Ġan rufen
us te
Ġre gi
ĠB ud
Ġest ad
ul os
ul are
Ġma pa
ier as
ĠW Ã¤
ĠN ar
ĠR es
ĠD omin
Ġad ora
Ġcl ases
ct u
Ġfind ing
Ġsec urity
Ġwen ige
Ġkiss ing
Sembra va
ĠwÃ¼n sche
Ġenerg ia
Ġfle w
Ġgaro to
ĠBrit ish
V an
Ġw ra
it ado
Ġv inden
ĠM edi
Ġand arsene
ĠS old
Ġre le
Ġver ha
Ã¶ tet
ĠE indruck
Ġac ordo
Ġri g
Ġtal ented
Ġfal se
wo od
Ġpra zer
Ġmer cato
Ġsenti va
Ġsom brero
Ġeing esch
Ġfle iÃŁ
Ġrequ est
Ġsurvi ve
ĠKonz ert
J edes
O K
om i
Ġp oker
el ve
Ġo bi
ĠS pr
Ġcom ent
Ġpro t
ĠL auf
Ġwar tet
Ġtra g
Ġmo oi
De us
ĠAr me
Ġrec ente
Ġresp ir
Ġinteress ata
uld ig
lu ck
pas st
Ġsang re
Ġparec ÃŃa
Ġsucceed ed
Enc ontr
Ġcarte ira
ĠPfl icht
A o
D urch
T rad
n ummer
Ġc ities
Ġn Ã¶tig
Ġun gefÃ¤hr
Ġre vel
Ġst Ã¤r
Ġsp elen
ci ug
ĠT ony
ĠT ierra
Ġpre gunto
ĠO p
Ġwo hin
uld ade
Ġadm ir
Ġgioc ato
Ġmatem Ã¡tica
ĠFlug hafen
ĠGo ogle
Mol ti
Quis iera
Ġtru ly
H az
N one
V Ã¡
c ito
Ġth ief
Ġn ai
Ġn ennt
ed ale
et nam
Ġme te
Ġcom mer
Ġr esta
ĠF ol
Ġge p
Ġzu vor
ĠN etz
ĠD ame
Ġim ediatamente
ĠSch okol
Ġni eder
Ġent schieden
Ġfar a
Ġsomet ime
ĠJahr hundert
Ġcho ver
Ġvel ha
Ġacred ita
Ġtou ched
ĠEurope an
Ġaud ience
Ġcross ed
Ġscel to
Ġcoloc ou
Ġdanz are
Ġfestiv al
b ili
Ġl ass
Ġb ons
Ġf Ã¤ngt
Ġv iento
Ġha ver
Ġno on
Ġche ek
Ġlo qu
gl ing
Ġac Ã¡
Ġbu ried
Ġpia cerÃł
ĠVer halten
Ġunderstand s
Ã¤ch eln
Ġko cht
Ġveder lo
Ġsuc esso
amer un
Ġescap ed
f orte
l ernen
Ġs ne
Ġw Ã¼sste
Ġo cho
ĠM ennad
Ġcon gr
Ġer sche
Ġge arbeitet
Ġsp us
Ġar gue
ĠH Ã¤l
ĠN a
Ġoff ended
Ġap Ã³s
alt ese
Ġcre es
Ġask s
Ġtrabal h
Ġdisp os
Pro v
ĠChr istian
Ġcham ar
Ġclos et
Ġtas k
Ġcomplain ing
Ġanci ent
Ġscord ato
ĠErd be
ĠnÃ¤ her
b bia
u vo
er anno
Ġs ill
Ġl id
am t
us ing
ri ff
Ġre ag
Ġr aro
Ġpro ib
Ġtr Ã¡
Ġman age
Ġsc ritt
Ġimp ed
Ġpass ion
Ġide al
Ġsoll st
Ġlan ger
Ġcin qu
Ġviv ono
Ġemplo ye
Ġner vi
alif orn
G ott
H allo
R esp
u cia
Ġa ulas
ir n
Ġal bero
Ġj usti
ÃŃ fico
Ġel ement
ĠT em
ĠW under
Ġcomp rei
Ġget runken
Ġsol le
ĠV Ã¶gel
ĠZ a
ĠZ ahl
Ġwer kt
Ġres fri
ĠSt uhl
Ġot ras
Ġven ido
Ġmed ical
fici al
ĠHer bst
Ã¡t icas
Ex iste
Ġalun ne
ĠGem Ã¼se
ĠVol k
Ġsupermer cado
ĠAleman ha
Ġelem ento
Verg iss
Ġdottor esse
Ġviss uto
as Äĥ
Ġf ondo
ed y
Ġqu Ã¦
Ġcon vert
Ġr ough
ĠB en
Ġer m
Ġab ra
ĠG itar
Ġpl ate
Ġfin ita
Ġav ver
Ġfaz Ãª
Ġfar mer
Por que
Ġsal ut
Ġven go
Ġinsegn ato
esen ta
Ġtorn ou
Ad oro
Ġvide os
Ġmand ar
Ã« n
ĠKle idung
ĠKl assen
Ġforgi ven
ĠRa uchen
Ġcous in
v Ã©
Ġs amen
Ġf out
Ġo be
Ġo ito
Ġes empio
Ġla cri
ver stÃ¤nd
Ġsa ben
Ġer folg
Ġen ga
Ġel ke
Ġlo gr
ab biamo
ĠE d
ĠE ins
Ġcor aggio
Ġbar ulho
Ġlu ogo
Ġban ana
izz are
Ġhead ache
Ġrid icul
Ġpat ience
Pod rÃŃa
Em ily
Ġextra Ã±o
Ġprincip io
Ġclim bed
Mu itas
Ġsolu zione
Ġsoft ware
Ġeuro pe
U ng
V ia
x ed
Ġn orte
ĠM ot
Ġj Ã¼nger
Ġpar agu
ast Äĥ
Ġchi ami
Ġor ig
ied e
Ġfav our
Ġsent ar
Ġsw ore
ĠmÃ¼ sst
ĠAb sicht
Ġpra y
olog ie
Ġban ho
ĠFl asche
Ġcontinu a
Ġpel igr
Ġprodu cts
Ġesqu ecer
Ġmonta Ã±a
ĠBÃ¤ ume
Enc ont
Ġjam Ã¡s
Ġentf ernt
Ġargu ing
V os
b ij
w rit
Ġn acht
Ġf urn
ĠM y
Ġque i
ĠS un
Ġche fe
ass a
Ġma and
ĠE mp
ĠH emd
ĠH okkaido
Ġac omp
Ġpi ed
Ġess es
Ġir ia
Ġass ic
Ġconf idence
rib u
Ġexc use
Ġsoc ied
Ġcur so
Ġviol in
Ġterri fied
Ġscha ute
Ġpower ful
ĠKo be
Ġanzi ano
Ġbesit zt
G en
l s
Ġ ×
ch as
Ġp s
Ġb asso
Ġal bum
Ġre y
Ġpro vid
ĠL Ã¤rm
Ġdes halb
Ġpe zzo
Ġmo o
Ġpass ieren
Al g
Ġbet runken
bo ek
Ġaiut arlo
Ġgesch ickt
osp edale
Ġbas ed
Ge ef
Ġlev ou
ĠNach bar
Ġliber a
Ġtravel ed
Ġzwe imal
akes pe
Ġusc ito
Ġfuner al
M art
T re
Ġv endere
al ha
Ġan gel
ri gen
ir r
ig os
ter t
Ġwe igh
ĠD ec
Ġgi Ã¹
Ġfil oso
Ġstr ict
th ough
Ġgesch lafen
Ġtrans port
Ġwel cher
Ġaver age
Ġwrit er
Ġerw arten
Ġrelig ious
Ar ri
Ġcorr endo
Ġterm s
Ġescuch ar
Ġved iamo
Ġubria co
Sper iamo
Ġcio cc
N orm
g amos
Ġw olle
it el
Ġg ang
Ġyou th
Ġk ost
Ġcon j
Ġcom a
il or
ĠB as
Ġon esto
ĠH el
ec ido
Ġcas amento
ren g
ĠSch auspiel
ante mente
Ġpo llo
ste hen
Ġstart s
Ġgel assen
Ġdav anti
Ġapr endeu
Ãªn cio
Ġdeix a
if ers
Ġcontinu are
cra ft
Ġflo od
Ġdifer encia
Ġdic ono
Ġbew usst
Ġpergunt ar
ĠDu its
Ġsopra v
Ġexperien ced
kk u
Ġfash ion
D ann
a ac
e per
er me
Ġc em
Ġb one
Ġb ine
Ġf iera
it amos
Ġsa hen
Ġso pp
Ġpro y
Ġex ch
ĠJ ob
ec ta
Ġad min
Ġem oc
Ġ2 4
ĠmÃ¶ chten
Ġbeg le
ĠPar ÃŃs
Ġschw ier
Ġscri ve
Ent re
Ġserv izio
Ġdra w
ÑĤ Ð¾
Ġwaar om
Mu itos
ĠGroÃŁ mutter
Ġmiser able
Ġllo ver
ĠZwei fel
Ġhig her
S Ã£o
T emo
V as
k ind
o ta
Ġn aked
ve g
Ġch ances
Ã£ es
Ġge ogra
Ġsp rich
Ġam bi
her ese
hing ton
ze ugen
Ġpens ano
ĠLe id
Ġplay a
Ġsus hi
Ġdri ves
Ġpag ina
ĠNe u
mar kt
Ġpolit ics
ĠheiÃŁ en
Ġjap ones
Ġosped ale
Ġattra ctive
Ġdimentic are
Ã¼nd en
Ġok ay
Ġmeis je
ĠEich hÃ¶rnchen
D orm
P urtroppo
W or
f ra
k y
Ġa Ã§
Ġh oney
it ore
Ġg ilt
Ġle be
ac co
Ġvi ven
ĠÃ¼ber le
Ġcor resp
Ġchild hood
Ġprop Ã³sito
Ġant wor
Ġdecid iu
Be h
Ġfeliz es
Ġpaz zo
Ġserv ono
uri es
Ġsof Ã¡
Ġsell ing
Ġcomple x
schuld ig
Amer ica
Ġbotti glia
ĠArti kel
Ġs na
in ate
Ġw ide
Ġf ence
Ġg era
ro ll
Ġst ellt
Ġfor th
ĠF Ã¤h
Ġat tor
Ġall zu
ĠT ats
ora us
Ġdis si
Ġser p
Ġcor p
Ġph otos
Ġgesch ieht
sp rach
uk o
zz ese
Ġsign ed
Ġchang ing
Ar gentina
Ġrou pas
Spr ich
B ra
J am
b age
y al
Ġt este
Ġc ave
Tom orrow
Ġb aked
Ġi z
ess ion
Ġma u
ĠC or
Ġro jo
Ġchi aro
Ġchi udere
Ġten ere
bi endo
Ġpri ze
na pp
Ġbef re
Ġmag st
Esta va
ÈĽ ie
Ġmer c
Ġsuper ior
Ġtorn ar
Ġcomplet o
Ġkom pl
Sab ato
Ġlem bra
Ġferm are
ĠStud ent
Ġsaf ety
Ġinnoc ente
Ġunif orm
Ġsnee uw
8 8
M or
W ait
f rau
Ġa ÃŁ
Ġh ulp
Ġb ound
Ġb ijna
Ġin uti
Ġdi j
ig u
Ġcon den
Ġr are
Ġser ved
que te
Ġcor aggi
Ġmal att
Ġze igte
ĠGes prÃ¤ch
Ġpla cet
Un fortunately
Ġfic ando
Ġstand s
Ġpiano forte
Ġpad r
Ġore cch
ĠKo ffer
3 9
A Ãºn
a ff
k i
s c
Ġp in
Ġf ought
ed ay
Ġi greja
ir lo
se in
ge ven
Th ree
ĠP atient
Ġwo ord
Le ave
Ġtre inta
Ã¶r der
ĠVer gnÃ¼gen
Ġou de
Ġdan Ã§ar
Ġprom essa
Ġshow s
Ġdre w
Ġadd ed
Ġsom eday
Ġcond uc
Ġgol den
Ġtir ou
Ġimposs ÃŃvel
Ġrema ins
ĠErk lÃ¤r
ĠBrÃ¼ der
Ġromant ic
Ġappar ently
Ġt oss
to ber
ti u
um n
Ġle zioni
Ġmu ziek
Ġent scheiden
Ġmol est
Ġsto ck
Ġze igt
Ã¤n gen
Ġverl ang
Ġred et
lÃ¤ ss
Ġhon esto
Ġgenti l
ĠAs ia
Ġcen ar
Ġtrabaj ando
itud ine
Ġdoming os
ĠsÃ¡ bado
Ġacostum br
fess or
c uen
l aden
y ard
Ġa im
Ġa ÈĻ
Ġw ider
ic ano
Ġbe ob
Ġz itten
Ġper icolo
ot as
ĠD id
Ġsi endo
Ġmol t
Ġstud iert
Ġcap t
Ġins urance
Ġris par
Ġmus ical
Ġdisc ouraged
Ġgioc ando
ĠBes ch
Ġbur st
Ġcru z
ĠÃ®nt Ã¢
Ġerled igen
Ġhine in
Ġorgu ll
Ġskept ical
ĠBedeut ung
Ġstub born
ĠMedi k
v ieron
Ġh ip
Ġc ic
Ġn essa
Ġto wels
Ġv az
Ġv inc
am ica
ach tet
ge gangen
Ġcomp os
Ġpo chi
Ġwo hne
Ġbl oc
Ġhand elt
Ġsig ue
Ġlle gado
Ġcat tivo
Ġjo ined
Ġneces ario
Ġherm osa
Ġcitt ad
Ġatta cked
Ġelect ed
rÃ¼ck en
Ġmuse o
Ġbee indru
Ġaiuter Ãł
Ġchap Ã©u
Ġt ard
an ke
Ġp ush
as ten
al de
le hrer
ra w
Ġch ines
Ã¼ hren
ÃŃ cias
Ġma estro
all i
Ġri mp
ze p
iss Ã£o
Ġsal ad
gr ound
Ġsucc ede
Ġble w
ats Ã¤chlich
Ġlim pi
Ã¼s se
Ġnat Ã¼rlich
Re almente
zÃ¤ hl
Ġglaub te
Ġnovel a
Ġremo ved
Ġraff redd
veg ese
N at
er se
in ou
Ġp ants
Ġl endo
id ents
ti o
ver n
Ġst ruck
Ġr osto
Ġfor mer
Ġel ett
Ġpr ue
Ġex ec
Ġcar ina
ven uto
In ter
Ġcer ti
Al though
Ġos p
Ġwon en
Est es
Ġreg ali
Ġpart s
Ġdire ctor
Ġwin ning
Ġdorm endo
Ġpes care
Ġencontr Ã³
Ġcra v
Conos co
ĠBrÃ¼ cke
Ġmanz ana
Ġequivoc ado
Ġrisch i
Ġdiscuti r
Ġdoct ors
Ġearthqu ake
A ce
G ira
T reb
l ad
it Äĥ
qu is
ĠS of
ill ed
Ġpro pria
gl as
ĠK or
ack en
Ġcam bia
Ġmor ti
Ġgro wn
Ġdire cciÃ³n
uer ra
Ġind em
Ġwel ches
Ġsold ados
Ġscop erto
Ġsuffer ing
ĠTan inna
G i
M ore
h oso
re au
Ġto oth
Ġis ol
Ġk il
um an
ĠS w
ĠS ti
De v
Ġres our
Wir d
Ġdur mi
Ġze er
Ġrep ly
Be fore
Ġrisp ett
Ġunivers idad
fÃ¼ hrt
Ġprinci pi
Ġcans ada
Ġsqu irrel
Ġbur ro
Ġcontroll are
Dam mi
Ġkla ar
know n
Ġhesit ant
ĠSchicks al
Ġf rem
ri ll
um ent
Ġsa ib
Ġnon no
ind ung
Qu est
ok rat
vi endo
ici as
Ġcons ert
hi elt
pl an
Ġemp ie
Ġric ca
Ġru in
Ġll eno
Ġdeep ly
Ġspieg are
ĠTa xi
Ġalmo Ã§o
Ġeffort s
Hav ia
Ġprem io
Ġpotato es
olt Ãł
ĠTw itter
A ct
in et
ar os
Ġp itt
Ġv arias
Ġdi ario
Ġse es
Ġne c
Ġel ec
Ġge brochen
ĠL Ã¤cheln
ier Ãł
gl esia
Ġsol chen
Ġco gn
Ġhere in
Ġges pielt
Ġnur se
Ã¢ nt
qui la
Ġbamb ina
fÃ¼ hr
ward s
Ġko chen
Ġpolic y
Ġlem bro
Ġvos otros
Ġmurder ed
ĠAt l
Ġoud ers
CuÃ¡nt as
ĠWor ten
ĠRad io
Ġjour nal
Ġtast es
Ġinve ce
akespe are
F r
k aufen
s atz
z ei
Ġ ello
Ġt orno
Ġd orme
at ela
qu it
id ers
Ġz ero
ĠA ug
ot ta
Ġany time
Ġad el
Ġfal am
Ġob rigado
able mente
Ġhab il
Ã¤ch tig
Ġsil Ãªncio
ĠIde en
sh irt
Ġspaz io
h te
an kt
Ġcon qu
Ġr ica
ag ement
Ġtr inke
Ġman gio
gl iche
Ġdel ici
Ġimp r
Ġag gress
Ġro d
ett ing
Est ne
ĠAl kohol
Ġ2 1
gel ernt
Ġsucc edendo
Ġentr ou
Vor resti
Ġped ido
Ġdet rÃ¡s
Ġdiscuss ed
Ġflu ent
oste i
Ġfres co
ĠMo isÃ©s
ĠPap a
Ġscre aming
Ġintro duce
ĠÃ¼bers etzt
Ġpretend ing
Ġwit ness
Ġdisappe ared
ÃĢ s
Ġimpos ible
Ġinoc ente
ĠNav idad
Ġmerav igli
ĠHawai i
D ica
F rÃ¼
w i
w ise
Ġp ati
Ġc ord
Ġdi k
Ġde ja
ĠM os
id Ã£o
ent amente
Ġz ona
no ch
ĠB ib
Ġfor za
Ġdel ight
Mi ra
Ġbel ow
Ġfac es
Ġven cer
ali ano
Ġresp ondeu
Ġdire ction
Ġend s
Ġhum ana
ĠsÃ© rio
Im mer
Ġpul s
ĠVers prechen
Ġpint ura
Ġsuffer ed
Ġlit ig
ĠkÃ¼mmer n
ĠPres ident
Smetti la
S enti
V ed
Ġt ac
Ġp ere
ti ere
ĠS at
Ġcom Ãºn
Ġwh is
Ġfor ty
Ġda uer
Ġac tive
Ġbut t
Ġinter pret
era ar
Ġass istir
att ere
Ġbar zell
ĠBer uf
Ġpot ere
Ġhor iz
cul as
Ġtrad uc
Ġvic ina
Ġkl ingt
Ġgehe im
Ġswe ar
Has ta
fall s
Ġnotic ia
Ġpasse ggiata
Ġesque ci
Fran c
Ġsurf ace
Ġdifficul ty
Ġjon gen
a ereo
b ul
v on
v at
Ġo li
ic ato
Ġsu ona
Ġper de
Ġli ar
Ã³ t
ĠT unis
Ġmu o
Ġgu ap
Ġor ario
ide z
Ġdir gli
Ġdar le
Ġpol izio
Wo hin
St at
St asera
Ġatt ended
Ġtermin ou
Ġjemand em
Ġignor ed
Sh ow
Ġtradu zione
Ġelect r
Ġlaat ste
Ġconfer ence
Ġness un
Ġromp iÃ³
Ġfrustr ated
Ġlangwe ilig
Ġthreaten ed
Alger ians
Lun edÃ¬
ĠHÃ¤l fte
M ens
c r
c ast
f st
l ingua
Ġd Ãª
ar Ã¡s
Ġg leiche
Ġde bo
Ġcom um
ci oso
ĠP unkt
ĠC l
Ġad vo
sch rank
Ġcu Ã¡nto
Ġchi ar
ub ro
Ġmus ician
Ã¼n kt
Ġrich tige
Ġalc anz
Ġdeber es
Ġtransl ated
Ġspeci es
Dic ono
Ġsimples mente
Ġemergen cy
ĠFrÃ¼hl ing
Treb uie
F ir
R eg
S ay
Ä ģ
Ġp all
Ġc azzo
ut el
ly mp
Ġtr ent
ĠK e
ĠK artoff
iz ing
Ġpre vis
gi Ã³
Ġcont ent
Ġcont atto
Le v
Ġbeg onnen
Ġwal ks
Ġrep ro
Ġrich i
Ġrece ive
Ġsci enti
ĠNat al
Ġkennen gelernt
Ġterm ine
Deber ÃŃa
Ġfortun ate
Algun os
Ġproper ty
Ġspir it
Ġuniver so
ĠPoliti ker
ĠtÃ¤ glich
merksam keit
ĠFernse her
ĠhÃ¤uf ig
etnam ita
H i
Ġ ÅŁ
Ġt esti
Ġa ustr
es tim
qu eta
Ġla ure
ant ed
oc chi
Wh ose
ici ans
Ġapp ly
Ã¤t z
Ġinf orma
Be im
ĠTe x
etti amo
Ġval u
Ġgosta va
Ġpul ch
Ġdifer enÃ§a
gew Ã¶hn
Ġappre ci
Ġdocum ento
Ġnac ional
ĠSal z
Fa Ã§a
Ã¶ff net
Ġnoss as
wohn er
Ġespeci ally
F ic
G all
b ung
b ack
re ut
it ung
Ġto ll
Ġdi vis
Ġi p
Ġy og
ti k
ver standen
st Ã¼t
Ġsu che
Ġver bra
Ġab uelo
ĠP o
ĠW unsch
ger y
Ġres er
Ġfa ul
Ġposs um
ĠRe gel
ons cious
ĠBe ine
olog ist
Ġdiver tir
Con f
Ġcolle ct
Ġdaughter s
Ġtur no
Ġsufici entemente
Ġricord i
Ġcast le
Ġcuri oso
Ġunf air
Ġwealth y
Ġselt sam
Ġcolpe vole
Dim mi
3 00
U craina
W issen
s etzen
v ÃŃ
er ing
Ġs ink
Ġh iel
Ġp up
it am
Ġdi ct
ic are
ĠM el
Ġam erikan
ne a
ĠW itz
Ġad ol
Ġmit t
Ġra ins
Ġchi ede
Ġthan ks
pe te
Ġvor reste
etz ten
Ġcap ace
Ġven ha
Ġbra uchte
As col
Ġgel oso
Ġprecis ar
ĠSchw ei
Ġgar ra
vol i
Ġsho ok
Ġmiss ion
ĠfÃ¼ hlen
Ġnego ti
Ġllam Ã³
Ġsof a
Ġnasc ondendo
Ġverlie ÃŁ
h Ãµes
o ff
w asser
x ual
Ġa ici
Ġd entes
Ġp one
or se
Ġl ento
Ġi edereen
Ġun emplo
ir ts
Ġver urs
ĠB ed
ĠB ein
Ġwe ed
Ġar chit
Ġser ie
Ġgi usti
Ġje fe
Ġwo on
Ġteach es
Ein en
Ġru ined
Era vate
Ġpel as
Ġpolit ie
Ġrespons ibility
Ġcav al
Ġglaub st
Ġinizi are
ĠVers uch
Ġincl uso
Algum as
Ġoppos ite
) ,
1 4
E ach
i Ãªncia
j s
an en
ia is
im enti
icht ung
Ġfor se
ĠG ener
Ġac aso
Ġpl antas
Ġent sch
den ken
we chsel
Ġav essi
Ġstr ug
ĠVer d
ĠTe xt
Ġdou ble
Ġmess ages
Ġequi p
ĠcÃ¢ nd
Ġbaci ato
ĠSto ck
ĠWeihn achten
Ġacomp an
c chi
h ens
p assen
z Äĥ
Ġh yp
Ġn ou
Ġl ud
un iten
Ġes ist
ĠS ono
Ġst elle
Ġle ve
Ġge ho
ber to
ĠG ast
ĠT yp
Ġu tile
Ġben ch
Ġinc ident
Ġger almente
Ġperm ite
Ġprepar ado
Ġnerv Ã¶s
Ġviol ence
Ġsy mbol
Ġrap id
Ġappe ars
Ġconosce te
Ġlevant ar
Ġalz ato
Ġvari os
Ġfrut ta
Ġschuld ig
Ġquebr ou
Ġlibert Ãł
Ġfuri ous
Ġcloud s
ĠWh ite
uniten se
f tig
r ade
y stem
Ñ ĩ
Ġl uch
Ġb ite
Ġv eter
Ġan st
Ġde via
ra be
Ġch est
Ġre b
Ã¡ l
Ã¤ hlen
gu es
Ġgr Ã¼
iss i
Ġent h
Ġchi usa
Ġna use
ase ball
Ġlet ra
Ġfin chÃ©
Ġaver lo
Ġarriv ati
ÈĽi i
Ġfall s
Ġbott om
Ġsmell s
Ã¼ch tern
Ġquad ro
Ġinsist ed
Ġparagu as
b am
f inden
v est
Ġt ant
Ġl igt
ĠM Ã¶
Ġz i
ut or
Ġcom menti
Ġle ichter
ĠL et
Ġpre g
ĠR elig
Ġmor osa
ĠUn glÃ¼ck
Ġinc or
ĠZeit en
Ġprop or
Ġpot est
Ġprov ide
Con he
ĠSe iten
Ġabb ass
Ġwrit es
Ent schuld
jer os
Ġfid are
Ġcuid ar
ĠGed uld
ĠMit gl
Ġsle cht
Nach dem
Austr ia
With out
Ġley endo
Pi enso
plic emente
ĠKam era
H an
P eter
W en
l ern
m iss
n el
Ġt antas
at ul
Ġv Ã³s
Ġin gr
Ġe bens
le id
ĠS oc
la uf
Ġne in
Ġche io
ĠB le
ĠG Ã¤ste
und et
ĠV ors
In gl
Ġcam inar
Ġgen annt
Ġinc orre
Ġesper aba
ĠBer icht
Ġhor ror
ÈĽ ia
Ġasp ir
ĠEs p
ĠPro jekt
Ġabs or
Ġhead ed
arti ene
Ġnorm almente
Ġrecht zeitig
Wel ches
Ġheav en
Ġempez ar
Ġbigli etti
Ġsour ce
ropri ate
Ġpelig ro
ĠÃ¼berzeug t
P ensei
c Ã³
h Ã£o
on ha
Ġm all
an se
Ġne vo
gl asses
gn er
Ġhelp ful
Ġro v
Ġna quela
iti k
Ġfind s
Ġparl ar
bo y
Ã¤n ge
ein de
ph ab
Ġsenti menti
Ġconv into
Ġbas ement
Ġcant ando
Ġzie ht
Ġrius ciamo
ĠFamil ien
ĠWas hington
Ġnac iÃ³
Dur ing
ĠMat hem
Ġcoun ter
C asi
k l
m ut
Ġt rib
Ġt amp
Ġv indo
Ġde ar
Ġha ces
ĠI l
Ġre vista
Ġfor b
ag lio
Ġnot ÃŃcias
Ġam i
Ġsh ared
Ġac tions
ĠW issen
ĠR ed
Ġout ubro
ĠSch merz
Ġro pe
Ġbar ato
Ġesper ava
Ġesper anÃ§a
Ġamig as
Ġstran ger
Ġcab all
Ġprote ger
Ġment endo
Ġverb ess
Ġcostum ava
Ġfem ale
Ġcurr ent
Ġgelie bt
c ou
i v
r ant
u ary
u pp
z Ã¼
ch ar
ar iamente
Ġb anc
Ġe he
Ġdi entes
Ġun e
ll i
ĠI h
Ġle bte
Ġj ungen
Ġli b
Ã¤ ck
Ġab og
ind ern
ĠG uerra
ann en
Ġda her
ĠW olf
ĠW irtschaft
Ġsol ange
ĠZ igar
cer Ã²
ĠO bst
And rÃ²
Ġbl ock
Ġdov rebbero
Ġsw it
Ġpop ula
Ġton to
Ġface va
Ġdam als
Ġbag s
Pod rÃŃas
ĠÃºl timos
ĠNo va
âĢĿ .
Ġburn ing
Ġcontrib u
Ġorgogli osa
ĠMill ionen
Ġbrut ta
Lie be
Ġpover i
16 30
Ġrele ased
T ras
c ue
m ates
Ġ ?
Ġs am
in izio
Ġp ont
is ne
Ġno bis
Ġal ibi
ur ie
Ġj oking
Ġpre zzi
Ġpre pare
Ġser es
Ġent usias
Ġbo ots
Ġop tions
Ġdar Ã²
Ġbes l
ĠSp iegel
Ġalt ra
Ġgel eden
Ġlu a
Ġord inato
Ge orge
Ġbesch lossen
Ġresult ados
Ġextra ordin
Ġitali ana
Ġmud ou
Ġpriv acy
Ġesque Ã§a
ĠPerson en
Ġnav io
Ġdetta gli
Ġdecep cion
L l
T ens
Ñ Ī
Ġd ran
Ġc erem
Ġb ond
Ġf ul
it ional
Ġme i
Ġch or
io to
Ġel ection
Ġge baut
Ġam able
ĠK ult
up iter
iam oci
ĠC om
ue ve
Ġor i
ang el
we it
Ġcol our
Ġpens ione
Ġoff ici
Ġfac tory
Ġtre b
Ġenc ar
Ġunderstand ing
Ġunter scheiden
Ġdorm ido
rib ed
Ãªn cias
vol u
Sem bri
Ġimm igr
Ġdev ast
itz er
Ġbuen os
Ġrou pa
Ke ine
Ġsau ber
ĠSter ne
Ġsegred o
7 3
k ab
Ġd agen
Ġh ing
is heit
or ed
to wn
ti z
Ġche ated
ĠF ische
Ġpr in
Ġsh ame
Ġhas st
Ġman te
ren gen
Ġoff icer
Ġimport antes
Ġaiut arci
Ġdecid ere
à¤ ¤
Ġdep ends
ĠerzÃ¤ hlte
à¥ į
Ġpiens o
Ġspeci ale
Ġfund ament
Ġspiel te
Ġfranz Ã¶s
Ġlembr ar
Ġvalig ia
D om
K inder
V ale
h aben
v Äĥ
Ġt ante
Ġm ug
Ġm ord
Ġp iso
Ġn ati
Ġv ali
Ġes iste
Ġof ere
Ġver geten
Ġgo b
ill os
gi orno
Ġtu ve
Ġmor Ã¬
Ġoff ens
Ġai uta
rit ten
Ġint elle
Ġpare cer
Ġdom est
ĠMar iam
ĠMar kt
Ġdrink en
Ġown s
Ġmelhor es
Ġconoc er
Ġach ieve
ĠSchl uss
Ġencont ro
Ġvari ous
Ġfidanz ato
ĠWeihn achts
Ġdunk el
Ġcustom ers
Ġannoun ced
Ġfift y
ĠTunis ia
d ade
j ada
Ġt atto
Ġa ves
ch ino
on en
an gu
Ġl uego
ri an
ri al
Ã¡ m
Ġche ating
ui z
Ġge va
Ġzu hause
Ġus ato
ĠH als
ĠH Ã¤us
ĠH Ã¤nden
ien ta
ib ili
Ġcar es
ish ment
Ġdec lar
Ġmar k
Ġmet Ãł
itu al
Ġcare er
Ġwish es
Ġunter halten
Ġtorn a
Ġdecis ions
Ġba ilar
Ġscri vendo
Ġmos qu
Ġrid ing
Des culpe
ĠMensch heit
ator y
ĠAuf merksamkeit
Ġverb oten
ĠgrÃ¶ÃŁ ten
Ġ6 0
Ġnar row
à¥ Ģ
Hel p
Ġletzt es
FrÃ¼ her
B le
S uch
c ano
p lace
an ca
Ġb ola
Ġun er
Ġun ge
ur ing
Ġcom em
Ġst Ã¼r
Ġer tragen
Ġsp etta
Ġac um
ĠD en
ĠD ar
Ġqual ity
Ġcont att
Ġten ta
Al meno
Ġsm iling
Ġrec entemente
Ġbelie bt
Ġcre ative
Ġgew ohnt
Ġrel ated
ĠPro du
ĠFreund schaft
Ġcomputer s
Ġinnamor ata
Ġjug ando
Ġspavent ato
Ass im
Ġsigui ente
Bet ty
ĠErgeb nis
ĠMot or
ĠaÃ§ Ãºcar
k ommt
in al
at um
it zen
ro at
ig eri
ÃŃ veis
Ġpar ou
Ġest up
Ġsch en
ĠP edro
Ġcost oso
ast ro
Ġke u
ĠSch ritt
Ġag ric
Ġro le
Ġbu enas
Ġta fel
Ġve inte
ied en
Ġwonder ing
bar en
Ven erdÃ¬
oli vi
Ġorgan iz
à¥ ĩ
Ġthousand s
Ġexperien cia
Ġsociet Ãł
Ġtin ham
Ġindivid ual
ĠFrem d
Ġnucle ar
Ġiz quier
A unque
e ce
Ġm ÃŃa
Ġp om
Ġdi ante
Ġqu anti
ra cht
Ġre pair
Ã¼ cher
Ġwe chsel
Ġge blieben
Ġnot icias
Ġat re
Ġda hin
ÃŁ end
ica Ã§Ã£o
Ġtem pi
Ġinter rog
Ġlav ori
Ġav Ã³
Ġpart ici
Ġfriends hip
ĠBe g
Ġsim ile
Ġturn s
ĠMann schaft
Ġremember ed
Ġdever ÃŃamos
Ġur gente
Ġprofessor essa
ator io
Ġvert ellen
Ġverw and
Ġcominci are
Ġschlie ÃŁen
D ate
D ue
R ep
g eld
Ġb esta
it us
Ġch ino
ig d
Ġre vis
Ġsa per
ge bra
Ġpr ost
ĠT ai
all ed
Ġex terior
ĠSch loss
Ġra ck
ct ual
Ġtom ando
Ġalt ura
Ġvia ggiare
Ġom dat
Ġlon go
ili ana
Ġverdad eiro
Ġgener ous
Ġpul ire
Ġnumber s
Ġmilit ary
Ġdest in
Ġprodu z
Ġtradu zir
Ġconven cer
Ġann ull
bere itet
Ġcapp otto
ĠÃ¡rv ores
b oden
m ai
in em
on om
Ġm ise
Ġe er
Ġun re
im enta
ĠB em
Ġab uela
Ġel s
Ġpro of
ab el
Ġdel ay
ĠP e
Ġimp er
Ġesta bas
Ġcu ad
Ġpers Ã¶n
gg ing
Ġestud ante
Ġmont Ã³n
Ġsegu ra
Sem plicemente
Ġdream ed
Ġchar ged
ĠlÃ¤ ng
Ġlen guas
Ġattra verso
Ġnasc osto
Ġcand y
Ġpleas ant
Ġescri biÃ³
Ġproj eto
ĠKÃ¤ se
Ġenfermed ad
ĠIh rem
h amos
s ich
v ar
v indo
om me
ou l
Ġver bringen
Ġon ge
Ã¶ ten
ĠL achen
ab ili
op s
Ġden y
ĠN ational
Ġpl at
ĠR olle
ven es
Ġfin anz
Ãī s
Ġvol gende
Ġtre bu
Ġpres a
ĠEr inner
Ã¤n n
Ġganz es
Ġvir Ã¡
Ġkl ing
Ġtrou xe
ĠMon ate
ĠMon aten
graf o
Ġabri u
Ġsex ual
Ġoper a
ĠhÃ¶ ch
Ġrou b
Ġincre ase
ex p
Ġcurr ently
ĠOk tober
D Ãª
m ack
Ġp ity
os nia
Ġin Ãº
ĠS us
ist isch
Ġsc ary
Ġgr ade
og gi
Ġfi fte
Ġtro vo
Por to
Ġob st
Ġob wohl
ela ufen
Ġpart icul
ik er
Ġhum ans
Ġtelef o
Ġstre ets
Ġmens agem
Pr omet
ĠKle ider
tiop e
weg s
Guard ate
ĠHol mes
Algun s
Ġallerg isch
Ġkno cked
Ġgemein sam
ĠGitar re
Ġraffredd ore
F l
M acht
f Ã¤llt
r ice
Ġt ussen
Ġa ugu
Ġp ug
Ġp urch
Ġe uros
Ġi glesia
ĠM eth
ĠS ei
ĠS outh
Ġj Ã³
Ã© nd
Ġab zu
ĠK arte
Ġcomp agn
ĠD ieb
Ġent ra
Ġbu io
Al giers
Ġdar mi
Ha ar
Ġrec uer
Ġpas o
Ġpas ada
Ġcre ate
ĠVer k
Ġant ici
Ġpot remmo
Ġhurt s
Ġhung rig
Ġfum a
Ġviol ent
Ġsignific ado
Fi quei
Ġschwar z
Ġmanz anas
Ġjour ney
N osso
Ġm ond
Ġn uts
Ġn achts
Ġl ese
it ure
Ġun l
Ġes as
Ġver Ã¤ndert
ant ic
Ġsp rang
ĠG el
Ġpa esi
Ġir r
Ġcam icia
Ġcor te
au ber
Ġestud antes
Ġgeh Ã¶ren
Ġmind estens
Ġlar ger
Ġinform aciÃ³n
Ġinst ante
Ġconst itu
ĠMe ister
Ġschle chten
Ġsecret s
Aqu ela
Ġbill s
Ġzwe iten
Ġzuf Ã¤llig
Ġsteal ing
C erc
K ommt
K ennst
M and
N ing
T urn
k ter
k ele
y l
Ġm ÃŃn
Ġh ambur
Ġe am
Ġhe et
Ġfor no
ag ar
Ġsh orter
Ġtu um
Ġmo est
Ġoff icial
Ġapp artiene
Ġacc eso
Ġmal ata
Ġspeak ers
Ġsent indo
Ġgew usst
Ġdan ke
lau be
Ġgio ca
Ġmind s
Ġturn ing
ald a
Ġdiffic oltÃł
Ġdep ende
ĠfÃ¼ hrte
Ġsed ia
pra ch
ĠÃ³ r
Ġmam Ã¡
Ġjapon esa
Ġiss ues
Gio vedÃ¬
Mer coledÃ¬
Ġatmos phere
ombi ana
ĠDomin us
Ġridicul ous
a iland
Ġc Ã©
it ag
Ġin n
le in
um ento
Ġcom incia
ag ue
Ġab gesch
ĠF lie
ĠL Ã¼ge
Ġman s
ĠP ers
Äĥ s
we ight
Ġu gu
Ġenc ima
ĠRe geln
ĠkÃ¶n ntest
Ġcal end
Ġsar emo
richt en
if ied
ĠÃ¤ rger
Im mag
Ġlugar es
etter Ãł
ĠEg ypti
ĠReg ensch
Ġvend rÃ¡
Ġach ou
Ġrob ber
Ġschlie ÃŁlich
Ġcondition s
Ġneighb our
Pa ul
Ġintim id
luck y
Ġpeligr oso
Ġproy ecto
A z
C al
F inland
R em
c ite
Ġd estra
Ġp osta
Ġp ounds
ti mi
Ġr os
Ġsp azz
Ġnot es
Ġsch Ã¤
Qu ell
ĠT est
ĠD r
Ġpo ate
ep oca
Ġmein t
Ġgen ius
ment os
Ġste pped
ank s
Can ad
Qui z
Ġanim ale
Ġcomm it
Ġign ore
Ġsun glasses
Ġod d
ĠsÃŃ mb
Ġapro ve
Ġwerd et
Ġescol ha
Ġpermit ir
Ġcrowd ed
Ġlink s
Ġprud ente
Ġrisult ati
ĠNu ja
ĠsÃŃmb olo
N A
Ġm ouse
an y
Ġp eda
Ġan nos
Ġse quer
Ġla va
Ġre isen
Ġr end
Ġex emplo
ĠH or
Ġsol ÃŃa
Ġent schuldigen
we hr
Ġmin er
Ġnow here
Ġcor to
Ġfac i
ub lik
ĠHa ut
gar ten
Ġprobab ile
ĠIn st
Ġaiut arti
Ġfic aram
Ġprofess ion
ĠDe utschen
Ġdeb ole
Ġfid ucia
ĠfÃ¡ br
Ġgest ellt
Ġexpl od
ĠÃ¡rbol es
ĠPort ugu
Ġvay as
Ġconsel ho
Ġerfolg reich
Encont rei
M at
N ancy
T ive
c us
g s
g ico
t u
Ð ¼
Ġt atsÃ¤chlich
ar tig
Ġf oste
et was
le cht
ol n
ri ana
Ġst ieg
Ġst yle
ĠA ss
ĠA eg
Ã© c
Ġab und
Ġel eph
Ġsp are
ĠL iter
uf ficio
Ġsch ia
Ġar gom
ĠestÃ¡ vamos
Ġwor n
Ġsc rat
ĠSch ach
Ġpe an
Ġaus z
Ġfa ke
unt amento
hi ps
Ġgew artet
ĠAn ne
vol ution
Ġtri es
ĠÐ ¼
ĠThe ater
Ac abo
Ġcamp agna
Ġcad eira
Ġnun c
ĠAut or
Ġsurvi ved
Ries ci
ĠPort ugal
Ġdepart ment
Ġmention ed
ulgar a
Ġpil ot
Ġrefriger ator
ĠWol ken
Ġaggress ive
B us
S co
r ico
z unehmen
en os
Ġn ele
Ġb elt
al tet
Ġme zz
Ġbe herr
Ġcom eter
Ġr ender
Ġher unter
Ġcan eta
av ed
Wh atever
Ġac om
Ġri r
Ġbo as
Ġpo ema
Ġhapp ier
Ġcer v
ĠWe isheit
Ġoc ult
ĠJapan isch
Ġzo on
Ġexact amente
Ġvert rauen
gem acht
Ġens inar
Ġpec un
Ġdevelop ed
Ries ce
Ġbemer kt
Ġpopol are
ĠtÃ¡ xi
Ġjapones es
D ame
c op
i oso
Ð ²
Ġt antos
Ġd edo
ch uva
Ġw acht
Ġp end
Ġwas ting
ĠS Ã£o
Ġle u
ac ia
Ġknow ing
ud as
Ġsp r
Ġar mas
ĠD is
Ġent wick
Ġgood s
ĠSt urm
Ġass onn
tim men
Ġlei hen
Ġparl ano
olo gi
bal d
Ġsw ord
ĠAn geb
tain ed
ĠÃ¡ rea
Ġgar bage
Ġkill ing
Ġhead s
Ġqua is
Ġanno ying
Ġsecond a
Ġvend uto
Ġfol has
Ġwaar heid
Ġagre ement
Ġcapit ato
Ġabandon ed
Ġcit izen
Ġirrit ated
Ġtaz a
Ġpis olino
ĠMad rid
Ġroman ce
Ġadol esc
A le
C ro
K ate
or ing
as a
Ġv ain
et ur
Ġha go
Ġbe ard
ig ur
Ġein sam
Ã© rio
Ġas i
Ġpar ado
Ġsh ift
ren o
me ister
ĠV aters
Ġco ast
Ġra bb
Ġpo bres
Ġop us
Ġjust ice
Ġter r
Ġsem bri
Ġinc ome
Ġsur gery
ĠPro zent
Ġpron oun
Pre par
Ġdecis Ã£o
Ġgost ou
ader no
Ġvoll kommen
Ġfol gen
ĠkÃ¼ ssen
Ġgradu ate
Ġcell ulare
Ġaccett ato
Ġcomenz Ã³
Ġwhe el
Ġlap top
loven a
ĠJos Ã©
Ġvocab ul
Ġfinan cial
6 77
G ener
N ossa
d ate
j amos
Ġs Ã¤
Ġl eraar
Ġde utschen
Ġun lucky
Ġdo e
ĠM Ã¤r
ĠI o
Ã¶ re
Ġnot ÃŃcia
Ġsch loss
Ġdu bb
Ġpor ch
Ġsta ge
Ġser ata
Ġinter view
Ġcol po
Ġuns eres
ain t
Ġmein te
ĠGe orge
ĠEr w
Ġpla in
ĠBer l
Cu idado
ian Ã§a
inc oln
ĠMond ays
Ã¤l te
etti vo
Ġzie k
Ġstra w
Ġeigen es
Fac ciamo
Ġaum ento
Ġcancel ed
Ġperig oso
Ġtrotz dem
? âĢĿ
B r
I gn
T ime
x imo
Ġs outh
on er
Ġb auen
Ġv imos
ig ner
Ġhe ight
Ġre icht
Ġver stÃ¤nd
Ã¼ ben
Ġne ut
Ġen velop
ĠJ ones
ĠN ummer
Ġcas ual
sch merzen
Ġfar to
Tu ve
tim as
Ġsm etta
Ġaw ful
Ġprop io
Ġbom ba
Ġneces itas
antas ie
Ġrelig ione
fol ge
ĠOr gan
Ġdese jo
Ġdim ens
Ġsembr ano
ĠLo ch
ĠTan aka
mÃ¤ ÃŁig
Ã¤cht nis
Ġmalatt ia
R um
S ci
f as
g ando
j ban
Ġd ust
Ġn orth
Ġv ond
Ġes quer
Ġk rie
ig as
Ġr oses
se it
We gen
Ġfe ver
Ġro omm
Ġfar ti
Ġapp et
iti ous
Man gi
amen hof
Am bos
izi ana
Ġhin zu
Ġdivent ando
Ġinvit ati
Ġaz Ãºcar
Ġerinn ert
Ġrapp res
Ġencu entra
Ġrifiut ato
uvi ana
Ġrisult ato
ĠmÃ¼s ste
ĠvÃŃ de
Det esto
Ġaerop uerto
Ġantici po
1 2
G h
t es
z ing
en i
Ġd eten
Ġh Ãº
or em
Ġb allo
Ġb aix
ta usend
ĠS il
Ã¡ vamos
Ġein igen
Ġle va
ĠB ade
Ġso pr
ci one
Qu ais
Ġtr ick
ĠP aar
sch ijn
Ġro bbed
Ġbr on
Ġfu ck
Ġinc ap
ĠEr n
Ġant woord
Ġwoll t
Ãªn io
Ġpap ers
Ã¼t ze
Ġcop ia
Ġatt itude
Ġparti es
Ġtw elve
jer on
adi ans
ielor ussa
Ġestre las
Ġhic iste
Ġinte gr
ĠMed izin
Ġconver ted
lov acca
Ġsprich st
Ġw achsen
Ġb ord
un s
Ġe is
Ġz ool
Ġpar ad
ul ia
Ġtr anne
gl Ã¼cklich
ei le
Ġpre cio
Ġpre jud
No ch
gi p
Ġro te
Ġfar emo
Ġbes ide
Ġbro od
Ġverd ienen
tet ela
Ein es
Ġvers uche
Ġown er
Ġsar ai
Ġmont anha
Ge hen
ĠfÃ¼ hlt
Ġpiacc ia
Ġbeb ida
Ġdej ado
Ġthre at
Ġfrequ Ãªncia
Ġrob ot
ĠEng el
Ġdiss ero
ĠTur k
Ġsoddisf atto
Deb emos
Euro pa
Ġresfri ado
Ġenga Ã±
Ġorecch ie
Ġtrebu ie
Ġcompagn ia
C ond
ch ni
Ġm oro
Ġc int
Ġno vio
Ġch osen
Ġch aves
Ġre ve
Ġne em
Ġtr ade
ĠT al
Ġcar ros
Ġhel ic
ite it
Ġfare bbe
Ġta usend
ĠO lymp
Ġtom ou
Ġrec us
Ġdown town
Ġant worten
Ġsw immer
Ġries ci
Ġletter atura
Ġred uc
Ġverw endet
Ġrot ta
Ġdej es
ĠBild er
Ġquest Ã£o
Mag st
Ġconoscen za
ĠAle x
Ġconsid era
ĠHeim at
Ġdescans ar
Ġkilomet ers
Ġrispar mi
Ġcrav atta
F iz
N ella
Ġe o
Ġe jer
Ġof re
Ġof erta
Ġre ject
Ġsa ke
oc china
Ġer le
Ã¶ ÃŁe
ĠL iste
Ġpr ome
Ġdel uso
Ġda ily
iz iert
Ġpre c
ĠD isk
Ġvo to
Ġag it
Ġent ende
Ġinc on
Ġint orno
Ġbar ca
Ġgel ijk
Ġtrov ata
Ġref orm
Ġabri go
Ġdefin iti
Ġpur se
Ġpio vere
Ġpac ked
Ġcanad ense
Ġnature za
Ġrecon oc
Lav or
Ġinterr upt
Ġdete ctive
ĠberÃ¼h mt
Ġunus ual
Mart edÃ¬
Ġparticul arly
J uan
Z w
d es
f oro
Ġ 0
Ġc ass
is y
ic tion
ll y
ti endo
Ġand a
Ġver passt
Ġper igo
az i
Ġpr onte
ĠK rÃ¤
ĠD es
Ġtra z
Ġra zz
ran ce
Ġges ucht
Ġdir Ãł
Ġtro p
Ġmet ros
ub o
ggi ato
Ġlle ga
Ġdeve mos
Ġgan hou
Ġdecis iÃ³n
Ġgek Ã¼sst
tem ber
Ġvert re
Ġestudi ando
Ġless ons
Ġveder ti
Ġsla pen
Ġquiet ly
Ġded os
Heb ben
Ġregret s
Ġpack age
Ġdiam ond
Pref iero
Ġdeut sche
Ġinclud ing
ĠjÃ³ venes
Ġ ÑĤ
re ti
Ġdi ces
et r
Ġi rei
Ġal Ã©m
ĠB aseball
Ġen ige
ul ich
Ġum ge
Ġlo an
ai re
Ġac onse
ĠD ima
ho b
ĠSch atten
ĠZ ust
Ġcor ta
Ġav vic
ett one
anz t
Ġparl ate
Ġris c
Ġsupp er
iert el
Ġfra g
Ġord ers
Ne w
ĠSchw estern
Con oc
ĠY en
ĠHe il
Ġnem ico
fl uss
Ġappre zz
Ġvill aggio
Par agu
Ġaggi ungere
Ġtax es
Ġalber go
Ġbecom es
Ġak zep
Diss ero
Ġchallen ge
ĠMuse um
aliforn ia
Ġfurn iture
1 8
4 9
H ol
m orgen
Ġh arÃŃa
Ġk ennst
ol ata
Ġch a
Ġch ain
ĠS ara
Ġest rada
ass ion
ĠG rie
Ġsh elf
ĠR osen
ite te
gn uno
we in
Ġaqu ella
Ġpart ner
Ġpla ced
Ġread s
lia ble
Ġrem ark
Ġapr endi
Ġcr ush
amm lung
ĠCan adians
Ġdep ort
Ġtemp est
Ġsmall er
Ġsound ed
Ġqued ar
Ġescre ve
ĠLand es
Dat emi
Ġrespons abil
ĠKl ima
gesch lagen
ĠLehrer in
Ġconten ta
ĠAd resse
Ġperfe kt
Ġallerg ic
ĠTre ffen
ĠestÃº p
ĠSitz ung
Ġabbi ate
ĠZus ammen
Ġebens o
B es
i ant
Ġt izio
Ġc ien
or ti
Ġan zu
ie ber
Ġes ame
ig ui
Ġas ciug
Ġnon s
ach el
Ġder jenige
ĠK ate
Ġcost as
iz mente
Ġcomp ro
ĠD re
Ġget Ã¶tet
Ġim b
Ġmu ri
hl st
Ġinter fer
Ġcer tamente
Ġfi ets
Ġmet er
Ġcap tain
Ġfac a
Ġsal ario
Ġaiut arli
Ġfra cas
Ġperd endo
amm t
Ġmul ta
Ġbag n
Ġlat im
Ġperso on
Ġracc ol
Ġameric ana
Ġbemer kte
Ġmej ores
B em
N ess
Ġa ange
Ġb Ãª
Ġto ys
Ġdi gn
Ġan f
ĠS tern
ur f
ut zen
Ġne uer
Ġer laubt
Ã³ quio
Ġest udo
ĠL in
Ġam ate
Ġpr isa
Ġex pres
ist es
Ġimp atient
Ġlas se
Ġkann te
ĠÃ¼ber w
Ġfal so
Ġpres ents
zi ale
Ġconf und
Ġdiz em
olog ical
Ġfum o
Ġucc idere
Ġindi rizzo
Ġpreocup a
Ġesque ceu
Ġarrest ato
Ġhac ÃŃa
Ġweap on
Ã¡st ico
Ġgather ed
Ġherman os
Ġsilen cio
Ġnevo ie
Ġfifte en
M il
M ama
T unis
u era
Ġd ingen
Ġs amm
Ġb ate
os amente
Ġdi ary
Ġch iamo
ĠS ep
ĠS til
Ġche f
ĠB utter
ion ar
Ġsh ado
Ġdu ele
ann a
ib ly
Ġad vent
Ġmit ad
vi le
Ġent gegen
Ġu bi
Le ider
Ġsur pre
ĠwÃ¤ hlen
Vo or
Ġrep ut
ik ing
Ġpes ca
Ġind isp
Ġ19 7
Ġexper iÃªncia
Cre de
ĠMin ister
Ġbol s
Ġgas ol
stell er
Ġassist ant
ĠpÃ´ de
Ġbrinc ando
Ġza hlen
Ġteen ager
schn itt
Ġine vit
Ġadvo gado
Ingl ese
B I
H ello
M achen
f ern
s un
Ġt anti
ch end
te ilen
Ġes os
Ġse ar
Ġse gn
Ġno d
Ġno vas
Ġla und
Ġre is
Ġcom iendo
gl ier
ĠK ampf
Ġac est
Ġra uchen
Ġaus ges
Se us
Ġcam pe
Ġpia ciuta
Ġson r
Ġmat ou
itu ana
Ġreg ras
Ten ÃŃa
An n
Ġsleep s
Las ciate
Ġconc ierto
Ġvec chi
Ġmad eira
Cre es
Ġlaw s
pra che
Ġgez ond
Ã¤h ig
Ġast r
ĠPlan eten
Ġcanz oni
Ġsembr are
fri ka
Ġphys ical
Ġsurr ounded
Alc uni
Ġmensa je
Ġdeser ves
ĠFort sch
Ġsill y
Franc ese
. Â»
O ver
m at
r are
s ame
u bi
Ġm Ã©
le o
um bus
ag ers
Ġab urr
ier st
ĠE i
ĠK ong
Ġpre Ã§o
ger t
Ġad vert
Ġpi es
Ġsta an
Ġtra ck
Ġra iva
pr Ã¤
red it
Ġten se
Ġgen io
Ġconf ront
ĠAn walt
ĠÃ¡ rabe
amen ta
ĠEg ito
Ġcum pl
Ġweit ere
ĠGott es
Ġschl imm
Ġintern acional
Ġspar ato
Ġmaggi ore
ĠInter esse
Ġcatt ur
Ġwoorden boek
Ġcuch illo
Ġcali ente
ĠfleiÃŁ ig
ĠSof a
Ã¼nkt lich
phab et
ĠAngeb ot
C op
S agen
Z ie
j Ã¤h
m elo
Ġd uda
in f
Ġb are
Ġy ard
Ġun ten
ĠI nt
ur us
Ġcom mento
ĠG ar
ĠN ueva
ĠD ra
Ġtra p
Ġcont are
Ġfin landese
Ãº l
Ġconf lic
Ġesper to
Ġgef angen
Ġvers pÃ¤
Ġentr Ã³
Ġact ual
Ġclass mates
Ġconst antly
Ġoccup ati
Ġsqu are
ĠAlger ians
ĠÃĦ r
Ġcominci Ã²
Ġhug ged
Ġpassen gers
Ġgentle man
ĠlÃ¡p is
Ġschrij ven
Ġvul ner
Ġabog ado
ĠinÃº til
m s
er ry
Ġa hor
Ġs illa
on est
Ġe ifers
ir ro
Ġcon gel
st re
Ġver ber
Ġst uf
Ã¼ ste
il er
ĠB ad
ĠA fr
od ka
ag no
ul us
ĠL Ã¤ndern
Ġar ru
ĠH am
Ġpl um
ug a
art s
Ġtal vez
Ġthan ked
Ġdr uk
Ġhow ever
Ġmor endo
ĠLe hr
Ġass oci
Ã¤t ter
Ġ2 2
gr essi
Ġplan ta
pl ane
Ġpart icol
Ġrep la
Ġric erca
ĠSchw ar
ĠY e
Ġtrans fer
Sch lie
Ġcur s
Ġsom bra
Ġbesch loss
lim s
Ġopin ions
ĠheiÃŁ e
Ġfull y
Ð° Ð»
ĠStre it
Ãİ mi
Ġfrut as
Ġcooper ative
Ġbrill ante
Ġdau ern
igeri ana
1 5
M ess
M aced
W ieso
c ero
d ed
at ar
Ġp ijn
Ġc ock
Ġun ir
Ġre chten
ur ar
Ġcom iÃ³
Ġsa car
Ã³ vil
Ġon to
Ġge halten
Ġsh el
ok ie
Ġhad den
Ġtem o
De bo
Ġcam ion
Ġges am
Ġfel ices
Ġdein es
Ġbeg ins
Ġfic arÃ¡
Ġtrov arla
Ġpes cado
Su o
Ġol hando
Ġtrad ition
Ge ht
Ge ben
Ġadv ance
Ġtermin Ã³
Ġcham ado
ĠLa une
Ġ9 0
ĠTelefon nummer
Ġyell ing
Ġgelo of
Ġconsci ous
Ġspl it
Ġgramm atica
Ġelev ator
Ġappear ance
Ġdescobri r
Ġmarav il
Ġfamil ies
Ġoccur red
mÃ¶ gen
ĠpÃ¡ss aro
Ġdisk uti
L amento
S met
V I
f est
r amos
s pa
w ir
Ġm elt
Ġm Ã©s
Ġb aixo
us iÃ³n
Ġfor Ã§a
se ite
Ġso wohl
Ġcan to
Ġsch einen
av ate
Ġcomp lim
Ġpl astic
Ġdis ci
Ġtra je
Ġlas cia
unt os
Ġapp laud
Ġcons ol
Ġob blig
zi al
Ġsus pe
Ġtrov arlo
Ġdecid ir
ĠIs aac
ĠÃ¡ l
ĠEs per
mas chine
Ġprepar are
Ġdesc u
Ġdecir le
Ġtel esc
Ġsalv are
Ġnovel s
Cos Ã¬
ĠKÃ¼ hl
ĠPa use
Ġperio do
Algun as
ĠFÃ¼ ÃŁe
ĠCol om
Ġtour ists
Ġindust ry
Ġexcit ing
ĠÃ¤uÃŁ erst
ĠErklÃ¤r ung
D Ã¡
G r
M altese
b et
f ass
h ia
u ern
w eder
Ġ ult
Ġh arÃ©
Ġc orda
is cht
ĠM ama
ig ra
Ġla un
Ġsa ÃŃ
Ġum as
az ier
Ġman iera
Ġden unci
Ġpre vious
ĠN ahr
Ġpl us
sel o
Ġgen u
ori as
Ġcons iste
Ha be
Ġpres entes
Ġesper ienza
Ġestud a
edes ca
Ġgar anti
Ġpos ti
ilt on
Ġdever iam
Tut te
Ġbeste hen
ĠGed Ã¤chtnis
Ġconoc ido
Ġllev aba
Ġcorrect ly
Ġfelic idade
Ġsett le
Ġindepend ent
Ġobe y
Immag ino
H emos
R isp
a be
u blic
z in
Ġ ere
Ġs hr
ar zt
Ġh Ã¤ss
Ġp Ã¼nktlich
Ġl ines
Ġdi cen
ĠM Ã¼n
Ġk rit
Ġk oud
ta us
Ġbe ina
end as
ÃŃ gen
Ġen kele
Ġum s
ber en
ĠG ran
ĠT ra
ĠH ong
ĠJ une
Ġwar tete
Ġsc acchi
Ġhabe o
ect os
Ġdr ing
Ġreg el
Ġste ps
Ġdom um
Ġlu x
Ġunter sch
Ġdecid iÃ³
Ġrich iam
à¤ ²
Ġtorn ata
Ġsub ir
Ġatt ic
Ġpossib il
rot z
Ġpio ve
Ġast ronom
Ġgam ba
Ġagrad able
ĠhÃ¤lt st
wÃ¼r dig
Ġinfel ice
ĠRech ner
Ġcorri endo
Ġliebst en
etch up
cuen cia
F ather
g ung
u ce
Ġs lo
Ġth er
Ġn ici
Ġb ordo
Ġf ede
el has
it ui
ad eira
ig de
Ġr ond
Ġle gen
ÃŃ culas
ac es
ud en
ud io
Ġge zogen
ĠL Ã¼
ĠL ast
Ġare as
Ġauf gew
Ġsc rib
Ġmir ando
Ġti ed
Ġpri g
Ġrec uerdo
Ġresp ecto
ĠGer Ã¼
Ġperm etter
Ġol hou
Ġmac chine
Ġlasci Ã²
Ġcolle ction
Ġsix ty
Aqu ilo
ĠÃľber ras
Ġwall s
Ġhur ried
Ġaufge hÃ¶rt
Ġpiens as
Ġfant astic
Ġconserv ative
Ġcolp ito
Ġwis dom
ĠSchokol ade
ĠaÈĻ a
olivi ana
A bra
U r
j aro
Ä ĵ
Ġ .
Ġth ri
Ġf angen
el ijke
al ing
Ġan ges
Ġde af
us sten
ĠS Ã¤
Ġcom unque
Ġsa x
Ġein kaufen
Ġli on
Ã³ p
ot es
be w
Ġman ter
ĠK Ã¼nstler
che iden
Ġmir Ã³
bi et
Ġav ond
Ġover weight
Ġperson ale
Ġven erdÃ¬
Ġrec ent
Ġmat ita
eder Ãł
ĠBe ziehung
omp et
itte e
port ar
Ġair plane
Ġform ul
Ven ga
agn ola
ÑĤ ÑĮ
Ġzwe ite
Ġriusc ite
Ġestre llas
ĠcÃ¢ mera
Ġinflu ence
Ġrepar ieren
Ġbelle zza
Ġorden ador
Ġgev onden
Bel ga
wÃ¤r ts
Ġoccas ion
Ġcircum st
Ġsicure zza
Ġprofund amente
Ġrecom end
Ġmathemat ics
Ġbelang rijk
ĠperiÃ³d ico
Ġeifers Ã¼chtig
B osnia
N igeriana
O rm
R ussa
c ases
u ci
v Ã¶lker
Ġs ina
Ġh ost
Ġp fle
Ġl iga
Ġde gre
Ġwas chen
ĠS em
Ġsa v
ot hing
ot ras
ĠF in
az o
ĠJ u
ec o
It aliana
oss i
Ġcome Ã§a
ati vas
og ram
ect s
Ġlie ver
Ġbl amed
rit te
ath ol
Ġshow n
Ġmer it
Ġpap Ãł
Ġnue ve
Ġblo g
Ġdeb ate
hol t
Ven ite
Ġbol so
ĠMa ÃŁ
rugu aiana
Ġsalv ar
Ġconstru ir
Ġexpress ion
orr ere
Ġdum b
Ġfuer za
ĠrÃ¡p idamente
Ġfavour ite
ĠMathem atik
schijn lijk
Orm ai
Ġdegre es
B oliviana
C inese
E tiope
J ede
L ettone
L ituana
M el
S vedese
T edesca
V ada
W ater
h et
w ell
an otte
Ġf onte
Ġg Ã¤
Ġin izia
Ġo or
ic us
ia o
id ays
Ġme als
Ġch ill
im press
Ġre ven
Ġre du
oc cas
ag ine
ĠF ach
ge ht
ĠG reek
Ġex ag
ak ker
ĠD urch
Ġho og
Ġaus zu
Al banese
Is landese
Ġbel ly
ĠÃ¼ber zeugen
Ġav anz
Ġback yard
Est one
Ġbra ccio
Ġvu ol
Ġplan es
ĠEn ergie
Ġpot resti
Ġdiver ti
Ġprepar ar
Ġfast idi
Dan ese
ĠBrie fe
ĠEnt wick
Ġpoint s
Ġreport ed
Ã¶l f
ĠNachricht en
Ġpersu aded
Ir landese
Ġdau ert
Ġrepe at
Ġdisag ree
Gre ca
ĠAbra ham
Nor vegese
Finland ese
Sco zzese
Cro ata
B ulgara
B ielorussa
C eca
C amerun
G iapponese
S vizzera
S lovena
S lovacca
U ruguaiana
f ord
on c
at Ã³rio
is iert
Ġf ried
am enti
et ra
ĠM od
ia ble
id em
Ġche ia
Ġpar ede
ul ti
Ġpr Ã¦
ĠP il
iz ens
ĠJ am
ĠW ichtig
Ġpor Ã©m
Ã§ ada
Ġni ed
fe hl
Per uviana
Ġgu ide
ĠO ran
Al go
Ġbr ush
Ġbra Ã§o
Si riana
Ġaiut arle
ĠCh ines
Vi etnamita
Ġgra zie
Ġnuo vi
Ġsar c
Ġret ten
Mar occhina
fahr t
ude i
Sp agnola
Ser ba
Ġtur co
Ġcham ou
Austr aliana
Ġgebe urd
Ġindoss are
Pol acca
Lib ica
Lib anese
Ġspl end
Ġhinge hen
Col ombiana
Mal ese
Eg iziana
Ġpuzz led
Ġocur riÃ³
ĠPalest ini
Bras iliana
Ung herese
Alg una
Stat unitense
Gall ese
Austria ca
Porto ghese
Az era
Canad ese
Ġenvelop e
Rum ena
Gh anese
Paragu aiana
Tunis ina
Mess icana
Maced one
Bosnia ca
Camerun ense
c chio
h ow
h old
k raft
r upt
Ġa zi
Ġs ess
on z
el h
Ġv emos
Ġdi ciendo
Ġk en
Ġla chte
Ġle ÃŃdo
Ġj ar
Ġel o
Ġso gni
Ãª nd
ĠK iste
In c
Ġpo es
Ġthere fore
Ġwork er
Ġven uti
Ġmal as
Ġbis c
Ġaber ta
Ġcal mo
Ġpal estra
Ġdav or
ĠAn gl
Ġend ere
Ġcab o
Ġpreoccup ate
Pr endi
Pot reste
Wel ke
Ġintell ig
Ġatra p
ĠtrÃ¤ um
arbeit en
MÃ¶ chten
ĠCanad Ã¡
Ġpref iro
ĠAmerik aner
Ġnamor ado
bur g
Ġdescri be
Ġhomes ick
Ġkij ken
ĠThoma e
Ġemploye es
Gira ffes
D isc
L isten
O dia
k re
r endo
È ĺ
× Ļ
Ġd agli
on ta
Ġdi min
Ġbe gged
Ġst ro
ke hrt
ĠF eld
Ġge omet
ci am
Ġtr ank
ĠW ik
Ã§ ando
Ġdes af
Ġvi endo
Ġsc al
Ġsol ved
ĠSch irm
Ġfe ci
Ġpo vero
ack t
Ġesc onder
Ġfar Ã¡
Ġjo vens
ĠBe w
Ġsurpr eso
Ãµ e
Ġragaz z
Ġpos iti
Ġbreak ing
Ġtrain ing
Ġspos ati
Ġreco ver
Ġinvit ation
Sa be
Ġdese o
Ġllev Ã³
Ġvriend in
Ġsbagli ata
Ġgelo gen
uran Ã§a
Ġfelic idad
ĠLat in
Ġperform ance
Ġammal ato
ĠChar akter
Ġsympath etic
Ġguad agn
ĠZuf all
Ġdubb io
C ono
i eld
y n
Ġ Why
Ġp fl
al and
Ġhe uti
Ġver bracht
est and
Ġwe in
Ġge Ã¤ndert
ĠP an
Ġpre p
Ġpre to
ĠR ot
ĠC alifornia
Ġgr osso
Ġpi anto
Ġu x
Ġmin ister
Se ja
Ġlav are
Ġpens aba
Ġsent ita
Ġlong a
As ÃŃ
Ġsig ar
Ġprom ises
ĠEs paÃ±a
Ne hmen
Ġseg und
Ġsum us
Be ing
Ġgesch lagen
Ġed ge
scha ften
ĠBl ume
Ġaconte ce
Ġtw in
Ġsix teen
Ġbor ra
Ġsecret ary
ĠTh oman
Ġrecht s
Ġdol ce
Ġbill ion
Ġcad uto
Ġirgend etwas
Ġascolt ando
Ġgam be
Ġfrequ ently
ĠUnivers ity
Ġproper ly
Ġlla ves
Ġnuest ras
Ġgain ed
Ġlean ed
schlÃ¤ ge
Ġsugges tion
Ġzwem men
Ġdij iste
? Â»
E hi
S os
e po
g esehen
o o
p la
s pe
Ġw ou
Ġp ater
Ġin qui
am mi
ic iones
ĠM aus
ll te
Ġz orgen
ost ante
Ã£ e
Ġver antwort
Ġge Ã¶ffnet
ĠL Ã¤nder
ab hÃ¤ng
ĠT aschen
ĠK arten
ĠR est
Ġimp act
ĠSt rom
Ġcer t
ĠRe icht
Ġschool s
Ġmat erna
Ġold est
Ġinv is
Ein er
Ġbeg on
Ġaiut arvi
inc u
Ġinteress ado
Ġopen ing
Ġexpect s
Ġcontinu ato
Ġconst ant
Ġerw arte
ala x
ĠÃ³ timo
Ġsuit cases
Ġesqu ec
Pi Ã¹
Comp rei
Ġbrinc ar
ĠmaÃ§Ã£ s
Ġjapan ische
Ġtiver am
Ġnaturale za
Ġdul ce
ĠfÃŃs ica
Sembr ate
Ġlacri me
V Ã³s
w ann
Ġt art
Ġt inta
Ġs for
Ġn omen
te k
Ġqu iera
ie v
ro e
Ġha unt
ent re
Ġr annte
ow ers
Ġsch Ã¼t
Ġfr idge
Ġir se
Ġesc ut
Ġson hos
Ġhab lo
ces a
Qui en
Ġunter s
Ġsic uri
Sta va
Ġmem bro
Ġsil ver
Ġnat al
Ġll ena
ĠrÃ¡ dio
Ġucc elli
KÃ¶n nt
ĠnÃ¤ch stes
Ġdiscuss ion
Ġhid den
Ġagrad ecer
Esc re
ĠpÃ´ s
Ġwunder sch
Ġsos pe
ĠSold aten
Ġinuti le
ĠBle isti
ĠfÃ¡br ica
8 9
G uten
h ic
z ed
Ġ 80
id ed
Ġno vos
Ġla cht
Ġz es
Ġre ly
Ġr us
Ġer sta
Ġge e
ĠG ruppe
Ġman cher
ap ole
lo go
ina Ã§Ã£o
ĠV orte
Ġtu us
Ġti re
Ġca er
Ġir me
Ġaf uera
ett es
ĠGe gend
Ġvia j
Ġom nes
So bre
Ġrem ar
Ġcr ÃŃt
ĠY ah
ones i
Ġerw Ã¤
ican os
Quer ÃŃa
Ġgift s
Ġajud ou
Ġself ish
ĠSh akespeare
Ġcelebr ate
Ġfant ast
Ġscher zando
Ġtes tim
ĠRech nung
Rius cite
DÃ©j ame
Ġtamp oco
Ġagric ult
ĠRegensch irm
occas ione
W omen
c orn
Ġd uch
ar nt
Ġn imm
re z
id it
ra pp
Ġk op
Ġno isy
ur de
ant ie
Ã¤ ten
ĠF ried
ĠF einde
Ġam ist
Ġex ame
ĠN ieder
ble iben
ĠV i
Ġti ro
Ġca ir
Ġav rÃ²
Ġacc ad
edi ent
Ġger aten
stand ing
Ġesper anza
Ġaff ront
War st
wor tet
Ġdep rim
Ġarriv ando
Ġprogr amm
Ġfell ow
Ġimag inar
Ġattra cted
Ġorgan ized
Ġprincip almente
Ġfle x
ĠpÃ¡ jaro
Ġdivers a
Ġvuel to
Ġmodern a
Ġdanc ed
Ġbug i
Ġdere cha
Ġbele za
Ġlicenzi ato
Ġsli pped
ĠOb ama
ĠBa uch
ĠMedik ament
Ġunemplo yed
D ort
F arei
S ent
m ten
s m
Ġ Qual
re ven
Ġb Ã©is
ĠM auer
Ġha at
Ġse ch
ir gend
ĠS Ã¤nger
Ġal fab
ut zu
Ġver stand
Ġr eno
Ġr ufen
Ã¶ h
ĠL esen
ĠG ras
ci ata
op in
ĠW esen
Ġsc are
ĠV ern
ĠU kra
Ġgu er
ĠO ri
Ġfi anco
Ġlot ter
Ġfl es
au la
Ġbro ad
ĠFran cis
Ã¢ r
ĠWe iÃŁ
Ġdorm i
Ġfre uen
Ġtri al
Sch on
Ġpos ibil
ĠEuro pÃ¤
Ġinten Ã§Ã£o
Ġcop s
Ã©r cito
Ġcent ral
Ġtras h
Ġsex y
Ġriman e
Ġbele id
Ġlibert ad
ĠRei he
Ġvalu able
ĠYah vÃ©
ĠbÃ©is bol
utzu tage
V edo
z ado
an im
et ze
Ġan ch
Ġde ben
Ġbe wegen
Ġso bald
Ġman ner
ĠT Ã³quio
ĠP eter
Ġri pr
Ġdis fr
Ġsol id
Ġho jas
ĠZ unge
Ġcont ato
ĠSt and
Ġvol ere
Ġvol ont
Ġgen e
Ġfl as
Ġreal idade
ĠZe aland
Ġdisc ul
Ġpop olo
Ġcompan ies
Ven ha
Ġeinz igen
Ġnear by
Ac red
Ġflu ently
Ve jo
Ġcaus es
Ġgescha h
Ġalm uerzo
Ġschreck lich
Ġkrij gen
ĠBud d
Ġantwor tete
Smet tetela
W em
g enden
k amer
u um
in ata
ch iamo
Ġp ilo
it at
it ute
Ġan i
ad ays
ĠM ord
ti vi
Ġbe halten
ĠI I
Ġj ener
Ġfor ti
ag d
ow ed
av en
av ing
Qu and
ĠT ante
ĠK ek
ne i
ne o
Ġtim ido
Ġho ff
Ġpi atto
Ġag rade
Ġco ger
De j
ang es
Ġvol are
Est u
Ġapp lied
Ġson n
Ġbes orgt
ĠSp ain
Ġbelie f
ĠIt Ã¡lia
Ġesp ada
Ġrisp oste
Ġverste ckt
Ġpaz ienza
Ġfiz esse
Ġtat u
Ġuf fici
Äĥr Äĥ
Ġconfess ed
Ġbeha ve
ĠFer ien
Ġweap ons
ĠEinz ige
E d
Ġw aves
Ġc ita
is ation
or ros
ic um
Ġsu chte
Ġein d
Ġfor mas
pp ers
Ġlo bby
ud y
Ġsp ijt
Ġpr atica
za am
ba um
ĠO ce
Ġdr am
ari um
Ġmake up
Ġplay ers
ĠAn sicht
Ġord ine
ÃŃs imo
Ġprepar ing
Ġwind s
wh at
Ġnue vos
Ġur gent
ĠSte uer
Ġtext book
Ġascolt ato
Ġing red
Ġdevelop ment
ĠMas chine
Ġauthor ity
Ġfantas ma
Hav ing
Ġdirect ly
Ġtechn ology
Ġelef ante
Ġung laub
Ġverr aten
Ġsaib a
Ġcerv ello
Ġzool Ã³gico
Ġlaund ry
c ous
f tet
u ber
z usehen
Ġp ose
or io
Ġn erve
ad ier
Ġun con
ic Äĥ
ĠM eter
Ġche ga
Ġer ne
ci pe
ĠT our
ann el
ff i
ĠR ichtung
Ġwar ning
Ġgr ades
Ġpi ant
Ġfe hlen
Ġbu ck
Ġres cue
ĠSt ato
Le arn
Ġfal schen
Ġacc ust
bo x
Ġhom eless
Ġmus sten
Ġsupp or
Ġol tre
Ġhabl an
Ġgek omen
Ġpat ri
Nu estra
ĠAus druck
Ã¢n Äĥ
Ent onces
To en
Ġascol ta
Ġincontr are
Ġmenti re
Ġhol en
Ġolvid es
Ġtoc ando
Ġinte ira
Ġvit am
Ġlou co
Ġaccett are
Ġrij k
ĠÃ¤hn lich
ĠÃģ frica
Ġmyster y
Ġdesay uno
Ġblank et
Ano che
zess in
Ġmoo ie
Ġgob ierno
Ġreput ation
ĠKÃ¼hl schrank
8 5
B aya
S A
V end
c te
u cc
Ġs vil
ar Äĥ
Ġh arÃ¡
Ġb order
Ġe ter
Ġme chan
Ġver mo
Ġen fr
Ġab ito
Ġfr anco
ĠT eller
iz es
Ġpor te
ĠN ag
ĠC op
Ġsol itamente
Ġvo et
ĠZ amenhof
fe ito
Ġna quele
Ġor bit
Ġpens iero
Ġap lic
Ã¼ck t
Ġsin istra
Ġmil le
Ġcat tiva
Ġave vamo
Ġban heiro
Ġperf ett
ĠMutter sprache
Ġstran a
Ġped ra
Ġrece beu
Ar beit
Ġirgend wie
Ġcres ciuto
Ġrequ ire
App ar
wend ung
Fi que
Ġcanc ell
ĠJan eiro
Ġsacri fic
Alc une
iped ia
Ġmanip ul
Ġizquier da
Ġbeina he
E nd
J o
Z o
b ata
c ce
f ero
k opf
Ġw ounded
Ġl indo
Ġg at
al b
te hen
Ġe chte
Ġk ent
ĠS orge
Ġz ang
Ġcom fort
ĠG ep
Ġnot wendig
ci Ã²
Ġsch aut
Ġsch reibe
ĠK y
Ġpre go
Ġmi ld
ug el
ger n
Ġhel ado
Ġtra ged
Ġfe est
art icolo
Ġfin estre
Ġmar ch
Ġdich iar
Ġfu cking
Ġposs ui
igen ce
Ġgel osa
Ġverl iert
ĠPro fessor
Ġcomm esso
Ġcorre cto
Ġgener ally
Ġev ents
Ġrap az
wei f
ÃŃr ito
ĠGew alt
Ġace itar
Ġmatem Ã¡ticas
Ġhic ieron
Ġcompet ition
Ġdeta il
Much as
ĠcuÃ¡ l
ĠIngl Ãªs
Ġalm or
Engl ish
ĠDunk el
ĠGeh irn
Ġejer c
T ok
W ow
h el
j u
m are
x ima
er lo
es ome
Ġl icht
Ġin vi
ti ves
ri amo
Ġcom ments
Ġst ates
ĠA st
Ã© st
Ġel ekt
ĠE sel
Ġdel ante
ĠP izza
ast s
Ġcar ino
sch ung
Ġco g
Ġco llo
Ġra ined
Ġro ten
Ġmo gelijk
br uch
Ġvol ume
Ġfar ai
par ents
Ġsin al
ĠZe ichen
ĠVer antwort
ĠJap ans
ĠAn k
Ġsurpr esa
vol to
izz azione
ĠAng eles
ĠBÃ¼ ch
Ġdet al
ĠEx per
Ġriusci vo
Ġaspetta vo
Ġinm ediatamente
Ġotto bre
Ġwich tiger
Ġmarav ill
Ġidenti fic
ĠÐ½ Ðµ
Ġverschied ene
ĠDumm heit
Ġraccont ato
Ġarchit ect
ĠRelig ion
Ġoffens ichtlich
Ġspetta colo
Ġpartici par
b lich
c in
Ġt v
en ci
om ic
an ho
Ġw ound
Ġf omos
Ġg az
Ġbe gr
Ã¼ ng
Ġj unk
ÃŃ fic
ĠG al
Ġsch icken
Ġar d
Ġdes em
Ġsc om
Ġmit gebracht
ĠV iel
ĠZ u
Ġinter ior
Ġsti l
ĠO per
Ġbl ess
Ġpret ende
Ġkind ness
Ġdecid ido
Ġapr ende
Ma is
Ġleg no
Su pp
ĠHaus es
asc Äĥ
Ġact ress
Ġsegu ito
ennt nis
Ġdra wer
Ġod ore
Ġimpegn ati
Ġeduc azione
Ġbox es
Ġoper ation
Ġbal ance
Ġsf ortun
Ġbatt uta
Ġpud iera
Ġlig ou
Ġmajor ity
Ir gend
Ġflor esta
ĠKan adier
Ġtip os
Ġsegui re
Ġclimb ing
Ġghost s
Ġabbra cci
Ġchin Ãªs
ĠTem per
Ġendere Ã§o
J os
K o
K un
S timmt
T an
f ro
g ica
l ido
n ame
Ġs ings
Ġg ostei
Ġre glas
Ġsu ger
ess ero
ĠB ible
Ġer ster
ag rad
Ġel der
Ġte or
Ġda Ã±o
chen ke
Ġgr anted
ĠV alent
ohn heit
Ġaqu eles
Ġfal s
Ġva is
Ġsoll tet
Ġprof it
Ġstay s
Ġmed ida
Ġencontr amos
Ġseg uranÃ§a
ĠFe br
Ġmie m
Hab l
Ġzo als
ĠFl or
Ġdep os
Ġcur tain
Ġtrou bled
Li isa
Ġpost p
ĠIslam ic
Ġvie ja
ĠKle in
ĠMin ute
Ġcand ele
ÃŃc ara
ĠRuss isch
Ġfug g
ĠAleman ia
Ġattemp t
Ġbehand elt
Ġslight ly
Ġhunt ing
Ġcorresp ond
Ġbeeindru ckt
Ġwhis per
Ġscienti fic
Ġprig ion
D aar
w ater
Ä «
Ġt ine
Ġs att
ch ie
Ġp hr
Ġl Ãª
Ġde bajo
ic ed
ĠM itte
Ġch icos
Ġal ien
la us
Ġr osas
ass em
Ġsp reek
Ġzu ge
Ġus ado
go ing
chen kt
Ġcar r
Ġmu e
ĠZ auber
Ġbo ll
Ġtom ato
Ġinc endio
Ġother wise
ĠRe al
ĠVer brechen
Ġdan cer
Ġgra us
Ġcri mes
Ġperd ita
Ġperf etta
Ġsusp ended
ungs los
Ġland en
ĠHand t
Ch ina
Dit emi
Ġach ava
Ġwenig stens
fo glio
Mu ito
Ġcostum a
Ġsignific ato
ĠSo vi
Ġcondu ct
ĠFÃ¼ hr
zw anzig
Ġcontain s
Ġdank bar
ĠBau ern
ĠYe ar
1 7
K unt
l ings
Ġ ost
Ġt endo
Ġa unque
Ġh ind
Ġw ijn
re ise
Ġg ib
Ġv ult
te ilt
Ġes qui
Ġdo kter
Ġgo ds
Ġpar ed
Ġpar ag
be k
ĠF otos
Ġpro ced
Ġge gaan
ine a
Qu am
up tion
ap ers
Ġac cep
Ġpu ra
Ġinter ven
Ġinter esa
que za
ĠfÃ¼r chtet
Ġmor oso
adre z
Ġreg ister
Ġbar king
Ġgli elo
Ġhor en
ĠKind heit
Ġpes a
Ġpes ci
hal te
Ġseg reti
Ġthrough out
ign et
Ġhigh est
Ġpap Ã¡
Ġkid ding
Ġzou den
Ġpreocup e
Ġcontr ato
ĠPoliz ist
Ġont b
Ġmostr ato
Far Ã²
Compr Ã©
Ġbun ch
Ġsupermer cato
Ġpropri et
Ġotten ere
ruct ure
Ġkeu ken
Ġperfett amente
A y
M other
S ob
Ġa ter
es ne
it aliano
Ġun t
Ġbe ige
ent al
Ġver if
Ã¼ hen
Ġper haps
Ġfor mal
ĠF inn
ĠG leich
ĠG utes
Ġtr atta
ij e
ort s
ĠH u
ĠN ob
Ġcas es
ĠC a
ĠV oll
Ġtra zer
Ġesc uro
Ġmin imum
Ġfi ore
att uto
Ġbus ca
Ġsin cero
Ġhand eln
Ġarri ving
ĠWe ge
Ġant icip
ĠwÃ¤ chst
vid ade
Ġpes ante
Ġph ilosoph
Ġconc lu
Ġmer ita
Ġdre imal
Ġabs urd
Ġconsider ing
Ġadv ise
Ġaccident ally
Ã¡t icos
Ġfab ric
Re ad
Ġlen gth
Ã¼nd et
stÃ¤nd ig
Ab out
Ġsandwich es
Ġfur cht
ash ed
Ġcit izens
jen igen
Ġpoc os
Ġscient ists
Ġtig re
zust ellen
Ġew ig
Ġemoc ion
Ġprue ba
Ġsear ched
F rench
H old
T ot
a jo
g y
j ahr
z ca
É £
Ġt Äĥ
Ġw ol
is ieren
Ġdi jeron
Ġqu arti
Ġun exp
ĠM et
Ġand ava
Ġz Ã¤hlen
Ã£ os
ĠB ou
Ġtr Ã¡s
Ġus eless
ĠH on
Ġcas ada
Ġag rada
Ġra bbia
Ġtal en
Ġta il
Ġcol ors
Ġmor am
edi Ã³
Ġcal da
Ġzw Ã¶lf
ĠFre itag
ĠBer ge
Ġbeg un
Ġrep lace
Ġtrad ucir
Ġsuper ato
Am m
Ġcontro llo
Ġdeb aixo
Ġvert rouw
Ġsn akes
Ġdese ja
ĠhÃ¶ her
Ġsve glio
Ġsve glia
Ġconstru ction
Tra ba
Ġcort ar
Ġrimas ta
Ġparec em
Ġplant ed
Ġx ÃŃcara
Ġx adrez
Ġfield s
ĠJe w
ĠTrÃ¤ ume
Ġluc ru
Bu on
Ġfamil ie
Ġarrog ant
ĠstÃ¤r ker
Ġresour ces
ĠAug ust
F um
H ac
L em
V erste
d re
h s
x is
Â °
Ġto po
Ġv le
ed io
Ġes pl
Ġre ichen
Ġst ond
Ã¼ ss
ĠF eder
Ġam Ã¼s
ĠH in
Ġdes id
ĠR ich
Ġsc usa
Ġfe b
Ġro bar
Ġmo ver
Ġmin imo
Ġges etzt
Ġdec Ã¢t
Ġmar ca
Ġass em
Ġven i
Ġpres ence
was chen
Ġsing t
Ġvole vate
Ġpra kt
Ġcr Ã©d
Ġrich tigen
May uko
ĠÐ ±
ĠÐ ´
ĠÐ ¾
Ġce va
Ġblo emen
Ġpul ito
Ġpie za
Ġimag ination
Ġcult ural
vem ber
ĠÃ¶ff ent
Ġincre asing
Ġpud esse
Ġacord ado
ĠpolÃŃt ico
ĠEle f
Ġmanten ere
Ġcompras te
Ġecc ell
Diss i
Ġladr Ã³n
Ġaffam ato
ĠPrin zessin
Ġentde ckt
Ġprinc ess
Ġfundament al
ĠmÃ© to
K ijk
M arias
O lhe
T end
d el
d et
m or
Ð ¯
Ġa chei
Ġd ita
Ġs int
Ġp uder
Ġth roat
Ġv oraus
Ġdi ri
um b
ur ate
Ġab ierta
ul en
Ġsp ell
ort hern
ast rÄĥ
Sie h
Ġtu in
Ġent lang
Ġpo inted
Ġot tim
Ġapp untamento
Ġcap ita
Ġbra zo
ĠGe bra
Ġdin osa
Ġwhere ver
Ġdire Ã§Ã£o
Ġfre cuencia
Ġban anas
Ġcomm ittee
ĠGesch mack
KÃ¶n nte
Ġmove ment
Ġdiment ich
urs os
Ġhol idays
ĠSpan isch
Ġbetra chte
Ġstri ke
Ni hil
Ġinstru ctions
Ġvind t
icha el
ĠZust and
6 9
B ar
M om
c che
i pp
l ungen
in ct
in occhio
un ta
Ġi re
Ġcon tiene
Ġre act
Ġein verstanden
Ġr ushed
Ġr ufe
He bt
pp iamo
Ġwe iger
ĠE isen
ĠK olle
ei Ã§Ã£o
vo or
Ġad apt
Ġcl othing
Ġpens ou
ett ato
vel en
Ġpas ando
Ġdire ita
ister t
Ġesp ec
Ġaut omob
Ġshow ing
Ġown ed
ĠsÃ© culo
etter Ã²
Wat ch
Ġlat est
Ġdra wing
Ġoffer ta
Gu ardi
Ġconsegu ia
Ġimpro ved
Ġcli ente
Ġlock er
Ġadop t
Ġcoloc ar
ĠErk Ã¤lt
Ġhabr Ã¡
Kaby lie
Ġsopp ort
E go
M ill
V iene
c ate
r ist
Ġt ape
Ġs ust
Ġv l
Ġv ieni
Ġo jo
Ġz ia
ur ry
Ġver ific
Ġat que
ĠK rie
Ġden noch
ĠJ ust
ĠW Ã¼r
ĠN ow
ak i
ĠR ob
Ġsc ambi
Ġshould ers
In s
ahr scheinlich
Wir st
Ġav resti
Ġass ente
Ġcompr Ã²
Tu a
Ġste he
Ġdov uta
Ġimport anti
Ġlat ino
Ġqued arme
Ã¼nf tig
Ġrecord ar
Ġstat ement
Ġincre ased
Ġtor menta
Ġbetra yed
Ġfelic itÃł
Prefer isco
Ġimmag in
Ġordin ary
Ġcras h
Ġsuffici entemente
ĠGet rÃ¤n
Ġtreb ui
Ġdisci pl
Ġaccust omed
A ng
M ich
M Äĥ
h ang
Ġp ink
Ġf arsi
Ġg ordo
Ġto y
ĠM agen
Ġha z
Ġcon segn
Ġsu ono
Ġwh ist
ke hren
Ġso v
ud es
ĠG Ã¶t
Ġsch Ã¼chtern
Ġam ado
We es
Ġgr ato
ĠSch er
ĠSch merzen
Ġra il
Ġro od
Ġmo bile
Ġter ram
Ġlav ato
Ã¤t sel
ĠGe gente
Ġgrand parents
Ġmag net
Ġgro cer
vid os
Ġaut umn
Ġmel k
cul ar
Ġol ho
Ġcomplet a
Ġnerv osa
ago ya
Ven go
Ġarrabbi are
Sh all
Ġpref ere
Ġgh ia
Ġcigar ette
Ġgebrui ken
WÃ¼r dest
Ġdiplom atic
Ġtrav Ã©s
Ġskill s
Ġassom iglia
Ġsce gliere
Ġcongr atul
Ġdurmi endo
Fir st
Ġtatto o
Ġastr ona
6 5
c am
g ano
w aar
¢ Ð¾Ð¼
Ġt enden
Ġp elle
Ġb io
Ġb ellen
Ġdi av
Ġo ÃŃ
Ġan kommen
Ġes pa
Ġk etchup
ĠI mp
Ġz at
Ġz omer
Ġver f
Ġlo bo
ĠE hem
Ġman g
ĠK raw
ĠJ upiter
ĠD ingen
sch ule
gi u
cc iones
Al so
Ġass ign
Ġmach ten
Ġsen c
Ġplan ets
Ġfranc esa
Ġgew Ã¤hlt
Ġarri vo
Ġinsegn a
Ġgem e
Ne xt
à¤ ¯
Ġcorre o
Ġrain y
Ġpat ate
ĠFranz Ã¶s
Ġpolit ician
Ġll ueve
Ġviol Ã£o
Ġucc ise
Ġkauf e
Ġdoubt s
ĠTh ailand
Ġbuild ings
enscha ften
Ġsenten ced
ĠPa ul
Ġspi ele
Ġintel ig
Ġul timamente
Ġgira ffes
ĠWar um
wÃ¼r d
Ġgaf as
Ġenamor ado
Ġvesti r
Ġpros per
Ġcarb on
Ġcircumst ances
Ġunexp ected
B ed
S ic
p Äĥ
r ast
Ġt y
Ġs osten
ar ily
Ġh orn
Ġh iking
ou den
Ġse ats
Ġbe ise
Ġre liable
Ġver le
Ġst un
Ġpar ano
ab ilitÃł
Ġat ing
Ġsch if
ĠD av
und zwanzig
Er st
Ġpu ente
ĠSch acht
ĠSch ild
Ġag gressi
ze iten
Ġent hÃ¤lt
Ãº ss
Ġdr in
Ġmet ers
Ġgen ial
na hmen
Ġmal educ
Ġob ed
Ġsent ite
Ġreg ola
Ġgew iss
Ġdan ken
ĠGer Ã¤us
St ar
Ġpesso al
ĠMann es
Ġremember s
Sch w
Ġverdad ero
Ġstre iten
ĠMe hr
Ðµ Ð½
Vole va
Ġabri Ã³
Ġsell s
ĠwÃ¼n schen
Ġricord are
Ġprofes ora
Ġpref ers
ĠHÃ¶ lle
ĠSy stem
Ġarbeite te
Ã¶p ft
Ġej emplo
Ġdemon str
Ġrelie ved
Ġnai ve
Ġpolizio tto
ĠKult ur
ĠGegente il
D ass
F all
N enhum
Ġs no
Ġw ort
as y
el den
un no
ta zione
ĠS vizzera
Ġver bre
Ġr on
Ġr ossa
Ã¤ mp
ente m
be wer
pp ert
ach s
ach er
ach es
ĠK ilomet
Ġcas ou
Ġent lassen
Ġter reno
Ġpod r
Ġfar anno
Ġcompr Ã©
Ġlie bte
ĠSp azier
Ġgre ater
ret to
Ġdire kt
Ġsucc ederÃł
olog ÃŃa
Ġencontr Ã¡
Ġseg uridad
vol le
ĠhÃ¡ bito
Ġret ras
ĠLie bes
Ġlibr um
Ġjog ando
Ġnasc ondere
ĠTod es
ĠnÃºmer os
Ġast on
Ġdocum ents
Ġemo tional
ĠgewÃ¶hn t
Ġesti lo
Ġrelax ed
ĠlÃ¤ch elte
Ġrie mp
Ġelectric ity
ĠEinz el
Ġaproxim adamente
Ġmund ial
Ġrichi esta
Ġunl ocked
ĠPortugu ese
2 2
C a
U se
c ida
j eta
l hes
Â Ń
Ġt orre
Ġd ens
on ti
om brello
Ġp urs
Ġb od
Ġg ana
Ġv et
Ġis la
Ġde ce
Ġun glÃ¼cklich
Ġk ick
Ġand arci
um me
Ġla wn
ver sch
Ã¼ enza
Ã¤ ren
Ġest aria
ber s
Ġma akte
Ġfr essen
Ġar tigo
ist ent
ai uto
Ġdes ar
gi re
Ġir resp
ĠSt Ã¤d
Ġaqu ellos
Ġinc ont
Ġmis mos
ĠAn n
Ġgem ak
Ġdist Ã¢ncia
Ġfig lie
wh el
Ġrece ber
ĠThe orie
Ġmand ou
Ġrela cion
Ġmostr ou
Ġsmo oth
Ġliter ature
Ġpartecip are
ĠTats ache
ĠHÃ¤us er
ĠErkÃ¤lt ung
6 0
P ater
i est
l inge
in verno
Ġm ono
Ġe os
ro f
ere a
Ġch icas
ĠI ran
Ġre ÃŃr
Ġche guei
Non ne
Ġon ts
Ġit em
ens te
ĠG i
ĠE ss
ĠT rau
Ġda wn
Ġad ott
sch er
Ġro w
Ġide ias
Ġkein em
Ġinv ented
Ġput s
Ten ha
itar beit
Ã¤ch st
Ġwatch es
Ġhal be
Ġsab or
Ġed it
Ġsue Ã±os
jar os
iet y
glich en
Ġdam aged
Ġpoder Ã¡
Li ber
gun tei
Ġnat Ã¼r
Ġgener ation
Ġrius cire
Ġhabit at
Ġacab ado
Ġach ar
Ġach am
Ġgrow th
ĠSta ats
Ġgele bt
Ġenem igo
Ġdepress ion
Ġgrat u
ĠMÃ¼ ll
ĠtÃ© cn
Ġstren g
Ġtin y
Ġbud get
ĠerklÃ¤r te
ĠnÃ¼t zlich
Ġmete or
Ġprome teu
ĠAfr ican
C ho
E is
g ato
h ende
k omm
s hip
w in
Å ĵ
Ġd acÄĥ
Ġm ons
re de
Ġk Ã¼r
Ġk Ã¼sste
Ġme am
ter te
Ã¡ culo
ut sche
Ġne p
Ġab ges
Ġsch auen
av ia
Ġfr isch
Ġcomp are
Ġcar to
Ġcar acter
Ġgr Ã¡
ho le
Ġstud eren
Ġvis a
Ġqual i
Ġvol to
Ġeu rop
Ġdir le
Ġcompr ando
Ġsent ou
Ġplan os
Ġste ckt
igh ter
Ġsw allow
ÈĽ in
Ġmind er
Ġpron uncia
à¤ °
Ġsap ore
Ġsap uto
Ġqua e
Ġkauf t
Ġliber i
Ġarrabbi ati
Ġreco vered
Ġsepar ate
Ġdeal ing
Ġtradu z
Ġju vent
Ġnormal erweise
App re
Ġrock s
Ġsatisf ac
Ġescr ita
ĠÑ ĩ
Ġadmi ra
Ġpover ty
Ġbril h
ĠerklÃ¤r t
Ġode io
ĠtÃŃm ido
Ġexch ange
' ?
G ut
G eld
H and
l ose
p od
r ando
t ie
u ert
v are
in ander
om it
Ġg atta
al Äĥ
le idet
Ġun will
ĠS ec
ĠS Ã¼ÃŁ
ur cht
Ġver der
Ġver Ã¤r
Ġli qu
Ġas ide
ĠF ab
Ġge geten
Ġam are
Ġpre cip
ras te
Ġsal vo
Ġlot t
Ġposs ess
wer den
Ġesper ant
Ġtrov Ã²
lÃ¤ ne
Ġstan chi
Ġjog ging
Ġveder vi
Sa ppiamo
Ġbot ella
ĠKo ch
Ġgrou ps
Ġ7 0
Ġspieg azione
Ġescol her
Ġaprend endo
Ã©t ica
Ġvro e
Ġmov imento
Ġdesay un
Ġcharm ing
ĠÅŁ i
N iet
i Ã§Ã£o
t t
Ġ ellas
Ġw ander
Ġl Ã¼gen
as app
Ġf undo
Ġdi agn
ad ura
Ġse vere
ol are
ur g
ver al
ĠB ek
Ġpar ada
pp ia
ĠG ute
ĠH ob
Ġdes pe
Ġget r
Ġgr Ã¼n
Ġvo o
Ġni po
Ġcl in
ĠSt Ã¤r
Ġtre as
Ġaff id
Ġrep uta
Ġsurpr ising
Ġentr ato
ÃŃn io
Ġble ibe
ĠzurÃ¼ck ge
Ġminut en
Ġconhe ci
Ġporta foglio
Ġqua eso
ĠUnter nehmen
Ġcorr ente
Ġrela ciÃ³n
Ġschl immer
Ġsimple mente
ĠTr ump
Ġprender Ã²
Ġacord ar
Ġamm esso
Ġintent Ã³
Ġperfe ito
Ġmanten er
Ġseparat ist
Ġ199 0
Ġreligi Ã£o
ĠVert rauen
Ġescritor io
Denk st
Ġnieuw s
Ġreject ed
D io
D rei
S enza
T us
T ony
Y e
l Ã¤nder
Ġt ia
Ġt etto
an bul
Ġp izz
Ġc Ã£es
Ġn irgend
as ch
it aria
it ura
ed et
Ġo ven
Ġun schuldig
ol ite
Ġla uter
ĠS anta
Ġal ti
Ã¼ ht
Ġso Ã±
Ġzu ppa
Ġat let
Ġar men
Ġsol lev
Per di
Ġges p
Ġtro vi
Ġover whel
Ġpres enti
Ġsec und
Ġfer mar
Ma ak
Ġhabl Ã³
Ġped ÃŃ
Ġneg ative
Ac aso
Ġaper t
Ġgez w
Ġenfer ma
ĠKon ta
schein end
Ġriusc ita
Ġolvid Ã³
ĠSal ima
Ġvot ed
Ġflie ÃŁend
Ġsembr ate
Ġsac Ã³
Ġrisch io
Ġgarra fa
ĠDisk uss
vÃ¶lker ung
ĠJu ly
P asse
S am
k am
ch net
qu et
Ġi remos
Ġun ique
Ġbe ings
ĠS im
st el
Ġle ise
Ġle ggi
Ġge fe
ist ry
ĠJ uan
Ġgr id
iss a
Ġop ge
Ġpens ado
Ġdr Ã¼ben
res o
Ġmen inos
Ġsent Ã³
ĠBe weg
ĠAb s
Ne em
Ġleg it
Ġgiorn al
fÃ¼ hrer
Ġconta gi
Ser ÃŃa
Ġach ie
Ġferm ato
Ġsemp er
Ġmater ia
Ġcapit ale
Ġoportun idade
Mis schien
Ġabit are
Ġgal era
Ġaiuter Ã²
Ġmezzo giorno
Ġspie gar
ĠSuper markt
Ġroomm ate
L lam
M uss
P on
S pre
f ÃŃcio
k uchen
Ġm ett
Ġp and
it um
Ġv ela
ti en
ri er
Ġcom en
Ġon esta
Ġlo ose
Ġil le
Ġpr enda
Ġsh alt
Ġdel as
Ġhat test
gn ere
Di os
Ġco ches
ran e
Ġro to
Ġesc ra
ĠfÃ¼r chten
Ġpass i
ĠJohn son
Ġ2 3
Ġinto xic
Ġger ing
Ġstr and
Ġimport anza
ĠPar lam
Ġmel od
Mar co
Ġsoc i
Ġinform ed
Ġcompan hia
Ġlingu aggio
Ġcab elos
Ġnat us
Ġbek omme
Ġll or
Ġcra ck
Ġferm ata
Ġrip et
Ġintent ando
Ġescap ar
atter ed
Ries co
Ġloud ly
Ġenvi ar
Ġdip into
Ġdivid ed
Ġmensch lichen
Ġdemocra cy
Ġstir bt
Ġbreat he
Ġbarzell etta
ĠEgypti an
ĠWik ipedia
Ġverantwort lich
M ai
N im
O pen
S arei
b em
d am
k r
r uf
Ġt and
an ie
an ter
it ti
Ġo gg
us ione
ie k
ĠM ale
Ġme est
ĠI ra
Ġal uno
Ġsa ving
ĠB ere
ell igen
ber ries
ĠG rad
âĢ ĭ
Ġcas aco
ĠC ous
Ġser Ã£o
Ġser ies
ĠV ide
ĠV eren
Ġent s
Ġent ro
Ġent rance
Ġmo tion
Ġchi unque
Ġdr on
Ġproble men
Ġav ent
Ġmar r
Ġkne e
Ã¼ck te
Ġinv itar
pl ay
Ġnost al
Ġimport ance
ĠAn zug
Ġave vi
Ġfre ut
Ġprov Ã²
Ġgusta ba
Ġpou cos
ĠGr Ã¶ÃŁe
Ġalc an
Ġform aggio
Ġabsol uto
Ġproc esso
Ġhol and
Ġembar go
ĠpÃ¡ jaros
Ġace astÄĥ
Ġrequ ires
Ġestu viera
Dei x
Ġpill ow
ĠBo ot
Ġcommunic ate
Ġdiscut ere
Ġrepet ir
ĠGren zen
ĠTemper atur
O k
d ers
k ward
r ito
u its
v ag
v ale
an go
Ġb anda
Ġdi bu
ic asso
ri el
ent ia
ig ni
Ã¡ ct
Ġne gar
ĠB ak
Ġli p
Ġer reich
Ġer van
Ġest Ã©s
est ros
ĠE la
Qu elle
ien se
ĠW itze
Ġcomp ared
Ġcar go
Ġgr asso
Ġpu blished
iss ioni
Ġje wel
Ġnoch es
Ġacc ord
Ġbra ccia
gr ade
Ġhab ÃŃan
Ġaw kward
Ġreg istr
Ġmag ic
Ġconf ianÃ§a
Com inci
Ġgew in
Ġalt os
gel uk
vid as
Ġries cono
Ġfig ura
Ġref res
Ġperf ume
Ġuit ge
Ġunivers al
Ġmad era
ĠschÃ¶n ste
Ġpreoccup are
Ġrom per
Ġverm elha
ĠfÃ¼nf zig
Ap esar
ĠTo il
Ġfortun ata
ĠÃ®nt r
Ġbelle za
Ġpaci Ãªncia
Ġcheg aste
Ġvolunte er
Ġchamp agne
Ġvergo gn
Ġalum nos
Ġdepr essa
ĠInform ationen
ĠOp fer
Ġesquer da
Ġquarti ere
Ãºss ia
B om
T rotz
c imento
f u
m ind
Ġd ÃŃ
Ġw est
Ġc iencia
or ologio
Ġl um
os ter
Ġo amen
Ġan tigo
ad ies
Ġqu il
Ġbe aten
Ġch ir
Ġch ief
Ġr ings
ant ur
Ġfor ces
Ġab us
pp t
ok oh
ai red
ĠW ieder
Ġcomp l
lo ad
lo gen
Ġvi vos
ĠC u
Ġtem e
Ġtra ined
Ġwer fen
Ġcu idad
Ġter rÃŃvel
Ġdir ti
Ġpla cer
Ġprofess ores
Ġgeh ad
Ġvic enda
Ġart icolo
fl ug
ĠMe x
Ġdeber ÃŃamos
ĠAm az
ĠRuss land
Ġbother ed
Ġcust omer
Ġpiang endo
Fac cio
Mol te
Imp ar
Ġindepend ence
ĠHoch zeit
Ric ord
ĠWissenschaft ler
Ġpratic amente
Ġunc onscious
Ġontmo et
ĠMitgl ied
ĠcrÃ©d ito
G ro
O v
m ina
Ġt rig
an has
Ġc ateg
Ġn ord
Ġn ativo
Ġe uren
Ġan sehen
ir ono
Ġcon e
ut os
ver b
Ġcom i
Ġsa uer
Ġr ara
Ġle is
il ib
Ã© xico
Ã¤ sst
est as
Ġsp ite
ĠL es
Ġman ier
ĠP ra
ei en
ist ine
Ġac on
Ġcu re
Ġpo bla
Ġinter f
Ġmin estra
Ġvor Ã¼ber
Ġben z
Si i
Ġenc ou
Ġprof ond
Com par
ors i
Ġmost ra
ĠÃ® i
Ġconc ent
Ġcr ist
Ġperm ettere
Ġtrad itional
Ġsk irt
Ġkill er
à¤ ¹
Ġdress es
Ġgioc atore
Ġsens itive
Ġcuid ados
Ġatta cc
ĠirmÃ£ s
Ġheav ily
Ġens ino
Ġterm ina
Ġcoc inar
Ġfuncion ar
Ġpersonal ity
Ã©t ico
Ġsvegli ato
Ġinse ct
Esper a
ĠkÃ¼mmer t
Ġmeas ure
Ġtecn ologia
Ġsuperi ori
Ġcozin har
ĠSam stag
Ġpantal oni
ĠdÃº vida
Ġpied ra
Ġacom paÃ±
ĠvÃŃde o
Ġghia ccio
D ime
H ola
P ag
h u
k ker
ã ĥ
Ġt red
Ġs eder
ar um
Ġp oca
Ġl ind
Ġf art
Ġf eri
Ġin her
ĠM onte
Ġk Ã¶st
Ġse qu
Ã¡ bamos
ĠB itte
ĠE nd
co le
Ġri fer
ug i
Ġim age
Ġsi ente
Ġvo gel
men e
ĠSch aden
ation ale
Ġbo om
Ġcont Ã³
Ġess er
Ġsome what
Ġcol o
Al most
Ġcor sa
iÃŁ en
Ġcompr ens
Ġsin cere
bro t
zi u
Ġmag li
ĠWe ile
ĠIs ra
Ġlasci ate
Ġyoung est
Ġinten s
Ġlingu am
Ġland ed
Ġjog ador
ĠGed icht
Ġbi ologia
ĠTod e
Ġtrat ar
Ġirgend wel
Ġtop ic
Ġtext ed
ĠmÃ¡ ximo
Ġcart Ã£o
Ġobj eto
Ġscop o
Ġspeci fic
Ġvot ato
ĠPfer de
Esc uch
ĠKom ment
Ġtreat ment
Ġperten ce
Ġwich tige
Ġmentir oso
Ġangene hm
Ġsoprav vi
Ġconsert ar
Ġcerem ony
ĠSep tember
ĠGep Ã¤ck
Ġdiav olo
okoh ama
1 3
8 3
M etti
b ow
d ern
l Ã¤nd
m ing
m Ã¤h
Ġs que
on ato
ar at
Ġh assen
Ġg oss
Ġg iapp
he art
Ġse me
la ck
Ġst ink
ab end
ĠT on
ĠR us
Ġcas Ã³
Ġdis egn
Ġaus gel
Ġess ential
Ġapp ropriate
Ġsal va
Ġfu it
Ġtom ado
tor ia
Ġaff ected
Ġind ossa
ĠArbeit er
Ġsk inn
rÃ¤ gt
Ã¤hr st
hm t
Ġqued Ã©
Ġconvers azione
Ġdivent ata
Ġprest ar
Ġinizi Ã²
ĠMa hl
Ġhist Ã³
Ġmass a
Ġolvid ado
Mag ari
Ġconsci Ãªncia
Ġham mer
ĠMill ion
Dic en
iac ca
Ġreserv ar
ontro ll
Ġcree p
Ġgeno emd
Ġadmi re
Ġpase o
Ġdifficul ties
ĠGegen wart
Ġasc ens
Seg Ãºn
Ġfara Ã³
Ġattor no
Ġindisp ens
Ġeccell ente
Ġgiapp onesi
7 4
U hr
V ielen
b ly
j ek
w an
Ġ When
er ÃŃa
Ġs ano
on ie
Ġh alt
at ele
Ġp ong
re iche
Ġv ase
Ġv odka
Ġe tiam
to e
Ġun n
ĠM oses
id ir
ol ar
Ġhe chos
ost as
Ġr ust
Ġche aper
ÃŃ cios
ot he
Ġon geluk
ac cio
Ġsch lagen
Ġam ano
ĠT ab
ap ena
ĠP ull
ist ed
iz ade
Ġpor k
Ġgr ie
Ġpu er
Ġra w
vi el
Ġpa inter
Ġca fe
mi entos
Ġcons ape
Ġfac ing
edi ficio
gr ad
Ġint ri
Ġom nia
Ġpic chi
Ġemp fe
itar io
ĠGer icht
Ġguard Ã²
ĠPro gramm
St ell
Ġmul te
ged acht
Ġcontinu amente
Ġadd osso
Ġlingu ist
Ġvive m
Ġrestaur ants
Ġnom i
Ġtall est
Ġtradu Ã§Ã£o
Ġanti gu
entr al
Ġrespect ed
Ġexiste m
Ġverz ei
Ġneck lace
Ess as
Ġfoc us
Ġlect ure
Ger man
Ġapres ent
Ġdesider io
Ġdrown ed
Ġosp iti
ĠBleisti ft
C erca
M arika
N iente
P arti
b ad
c ional
Ġd ente
Ġs ore
ar ma
Ġc Ã³m
Ġis rael
Ġre ver
Ġsu gli
Ġli Ã§Ã£o
Ġen im
Ġen vol
Ġab ends
Ġlo ver
Ġnot as
Ġsch Ã¤tzen
Ġpr ato
ann ed
Ġpre a
ĠD enk
ĠD urst
ĠC omm
ha fte
Ġho b
ĠSch utz
Ġni vel
Ġro ja
ita in
Ġve hic
Ġvor h
Ġinc Ãªnd
ert as
Ġins ane
Ġsent ÃŃa
Ġques o
Ġrem Ã©dio
Ġconc l
Ġba Ã±
Ġhon ger
Ġqued arse
Ġgleich zeitig
Ġdra g
Ġbon itas
Ġ201 4
ĠNo vember
Ġrespons abile
Ġwaar schijnlijk
Ġveder mi
Ġworry ing
ĠÃĦ rger
Ġappro ve
Ġmater i
Neces itamos
Ġpint ar
usi astic
Conos ci
Pl Ã¶tzlich
Ġliter atura
Ġtare fa
ĠGeschÃ¤ft s
Ġapaixon ado
Ã¤um t
ĠDok tor
Ġexisten ce
quen ces
Ġsare te
Ġwra pped
Ġverha al
Ġgeva arl
Rem ember
ĠDunkel heit
C ost
d own
s emos
v ide
ã Ĥ
Ġa gen
Ġs ides
Ġw ig
re gen
Ġg Ã¼n
Ġv ing
Ġv edi
Ġo vo
ie tet
Ġbe vo
Ġque en
Ġsa il
Ġle e
Ġper na
ĠB ush
Ġer t
Ġest es
Ã¶ pf
ci uti
Ġpr ince
Ġpr Ã©dio
Qu ot
Es que
per a
ĠN icht
Ġwar mer
ĠC hi
Ġout ono
Ġimp re
ern os
Per m
ustr ia
Ġesc l
ett bewer
Ġbr ings
Ġtom o
Ġlast ed
Ġenc ouraged
Ġze ich
Ġprop ag
Ġsw am
Ġdiz zy
Ġfra gt
Ġban jo
On ze
Ġzie he
ĠInd ian
Ġvier nes
ĠcomeÃ§ aram
Ġcav alli
Tien en
val ut
Ġimpro b
Ġestre la
Ġsorr idere
Ġyell ed
Ġfem in
ĠPfl anzen
Ġcondi vid
Ol ha
Ġdific ult
ĠHÃ¼ hn
vvis amente
Ġdiven ta
Ġgram Ã¡tica
ĠKore a
Ġprobe erde
Ġregi Ã£o
Ġsna ke
ĠFÃ¤h igkeit
ĠPatient en
Mens chen
Ġroub ou
Ġnons ense
ĠÃľberras chung
Ġgezw ungen
N oli
T ambiÃ©n
Z ou
m idd
t ore
Ñ İ
Ġa Ã±
Ġd ried
Ġs etzt
Ġn icio
Ġb ars
it Ã³
Ġto ller
Ġi leg
Ġhe en
ut zt
ut zig
la f
Ġsa ggio
Ã¤ ÃŁ
Ġen v
ud den
ĠL ernen
Ġil ha
Ġam ea
Ġpr esta
Ġare ia
nd er
ĠH inter
Ġpre cios
ĠN eder
ak s
ĠD ichter
Me hr
Ġgu est
ep t
Ġess erci
Ġbet a
Ġcor agem
Ġwa hre
Ġmal apena
wo orden
iste t
Ġresp onse
Ġpal est
isten za
Ġvers prach
Ġpare cen
Ġoc as
Ġgio chi
Ġesp alda
An ne
ÃŃn cipe
Ġrest itu
Ġstand ard
Ġdro gas
Ġcred i
ĠIr rt
Ġpreoccup ati
Ġdeb ido
Ġmedic ation
Ġswe at
Ġrela zione
Ġmill ones
Ġcach orros
ĠSta at
Ñģ ÑĤ
Ġhundred s
Ġcapit ano
ilos op
Ġlont ana
oph one
Ġenti ende
ĠTre ppe
ĠTer min
Ġincol p
Ġpris Ã£o
Pref iro
Ġbefre undet
occhi ata
igui Ã³
Ġhaunt ed
5 3
D oc
K ommen
S ub
s App
z ze
Ġa pete
on ica
on ym
ar g
Ġn ations
Ġb end
Ġb ai
al f
Ġdi rei
et tet
ve er
ti li
um es
end lich
ĠA frika
Ġel f
Ġpro vo
Ġsh am
ĠK ol
ĠK auf
iam os
Ġar gent
ĠP lease
ĠP lÃ¤ne
Ġ" Â¿
ĠH et
ĠH ose
ast re
Ġauf grund
Ġmo chte
hl ight
Ġbet rÃ¼
Ã¤t zt
Ġven ta
au ern
ĠRe ich
Ġom ni
Ġgef r
Ġvers ta
Ġoc chio
Vi v
Ġlle gue
rig ada
Ġmer da
Ġclass ical
Ġconse quences
Ġpop corn
Ã´ nia
Ġdiffer ently
angen e
Ġinterest s
Ent schuldigen
uri le
Ġhuman ity
Ġamiciz ia
Ġeduc aciÃ³n
Ġsla ap
Ġflu entemente
ĠmÃ¶glich erweise
ĠPh ara
Ġracc om
Ġayudar me
Ġjue ga
Ġbother ing
Ġpac iencia
Ġgelo ven
Ġsolu Ã§Ã£o
Ġsolu ciÃ³n
Ġheir ate
Ġcow ard
Ġencu entro
Ã³g ica
Ġcous cous
Ġincred ible
Ġwhe at
Ġbuiten land
Ġacus ado
Ġscho enen
Ġnegoc io
Ġinim igo
Mang ia
Ġzerst Ã¶rt
Ġsare bbero
ĠVen us
Ġengra Ã§ado
ĠWÃ¤ sche
ĠfranzÃ¶s ische
Ġsaper lo
End lich
ĠKraw atte
Ġirresp ons
D os
N emo
O uvi
P at
k ens
er ven
Ġa ti
Ġw ussten
Ġc enti
Ġn in
Ġto ast
Ġis lam
ta il
Ġz ahl
end iÃ³
Ġr ÃŃ
ten ti
Ġat hl
ij s
ĠT ues
op era
ĠR Ã¶
Ġho hen
Per Ã²
Ġten gas
Ġvor rÃł
Ġot timo
Est Ã£o
Ġass ured
Ġbl ond
Ġanc est
Ġaff atto
Ġaiut ata
War te
zie h
Ġang elo
Ġabs ence
rÃ¤ um
Ġvir am
Ġunivers idade
Ġgiorn ali
ĠSpra ch
Ġpun ta
Ġgegen seit
Ġll en
Ġeff ici
Ġjog a
Ġdoen Ã§a
Ġrela Ã§Ã£o
Ġgun sh
Ġfres ca
Ġagrad Ã¡vel
Ġcompet itive
Ġmort al
Ġaggi orn
Ġconsigli ato
Ġprend endo
ĠJac ke
Ġshout ed
Ġestad oun
Ġverbess ern
Ġrepla ced
ĠEntwick lung
ĠEhem ann
A pro
A bb
C orre
D igli
P ed
S ow
g Ã¼l
k rieg
Ġd ans
at isch
Ġp ak
Ġth or
Ġl or
ie uw
Ġdo d
id den
he ben
ir Ã¡
ent h
ĠS ing
Ġre pr
Ġsa ÃŁen
Ġsu um
Ġper ÃŃ
ess em
Ã© ria
Ġist ru
ui us
Ġso ap
Ġsp Ã¼r
ĠL ieder
ĠG olf
ore a
ĠE re
Qu a
Qu ase
Ġdel izi
ĠH itze
Ġdes erto
ĠD NA
Ġcas ados
Ġdass elbe
Ġpu ppy
ĠSch a
ĠSch atz
we isen
Ġop tion
Ġav vert
Ġdar aus
Ġpas to
Ġou vido
Ġvac a
Ġkind er
Ġcri mine
Ġliv ello
Ġtri fft
Ġalso f
pro ken
Ġpel ÃŃculas
Ġinst all
ĠMe xico
Pr end
Ġchar ges
Ġbew und
Ġinde ed
Ġpress ed
Ġlead s
Ġengine er
Ġfuri oso
Ġscient ist
Diz em
Ġorgull oso
ĠTex as
Ġtelefo on
Ġsonr isa
ĠChines isch
U t
a Ã§Ãµes
f d
u ÃŃ
Ġ utter
in form
Ġw akker
et ing
Ġes ager
Ġes erc
ti llo
Ġz ult
Ã¡ nt
Ġper p
ĠA c
Ġer l
Ġzu recht
ĠG rab
ĠE cke
ne hm
Ġhat h
ĠN agoya
Ġri vista
ĠR ock
Ġsc andal
Ġmir ar
Ġchi edendo
Ġess ay
ĠÃ¼ bere
ain ted
Ġkne es
Ġfal arei
Ġins ol
edi ato
Ġbis her
Ġmes mos
Ġdov ere
ĠweiÃŁ e
Ten Ã©s
isti u
tiv itÃł
fl Ã¤che
Ġkid na
Ġlev anta
Ġlim par
Ġfilm es
Ġpreoccup arti
Ġment indo
Ġgener ale
Ġsign ora
Ġll amo
Ġdecir me
Ġamb itious
Ġcul tiv
Wel chen
ĠSchl ange
ĠWhat sApp
Ġrisol to
Prefer irei
Ġras ch
Ġabbandon ato
Ġrelati ves
Ġerled igt
Ġscho on
Mus lims
Ġapplic ation
ĠquÃŃm ico
Ġambi ente
Ġguap a
ĠMeth ode
Ġpeda Ã§o
ĠJam al
×Ļ ×
incu enta
ĠFrancis co
Ġtred ici
mÃ¤h lich
C olo
W rite
b ran
f els
z art
Ġs lam
Ġth rown
Ġn ela
Ġb ero
Ġf ier
Ġf Ã¼t
Ġv im
he w
ĠMary s
Ġst ell
ĠL una
ier n
Ġda quele
ĠP sy
Ġex em
ĠH Ã¶r
Ġsta ff
ĠSch u
Ġtra pped
Ġent endi
Ġor aciÃ³n
Ġcont ente
Ãº p
pe kt
Ġges chenkt
ru h
Ġsto ppen
Ġcos to
Ġmet ade
Ġgen ieÃŁen
Ġvan avond
Ġcons ists
ub blica
Ġmen u
Ġsor g
Ġquer ido
Ġstr ateg
Ġgre go
Ġprop osed
Ġmod est
Ġgra y
Ġwieder sehen
Ġpag o
Ġaj ude
Ġmer k
Ġcontinu o
Ġinten ciÃ³n
Ġscri pt
Ġsom ente
rij f
Ġinst ant
Ġprote ggere
Ġpun ctual
Ġdev il
Ġsold ier
for ma
geb ung
Ve el
ĠGew issen
Ġabandon ar
Ġrimas ti
Ġayud arte
Ġriconos ciuto
Ġov viamente
stra ÃŁe
Ġdedic ated
Ġraggi ungere
Ġdeli vered
Ġshoot ing
ĠVert rag
ĠKer l
Ġstamp s
ĠkÃ¤mp fen
Ġprovid ed
Ġgeogra fia
Ġappreci ated
Ġspazz atura
Ġsina asapp
Ġexag ger
Ġborra cho
Ġsuppor tive
Ġcarr era
ĠSchacht el
B ent
F o
F rank
H ice
L ucy
P elo
r ichtig
y es
Ġw olf
Ġb elli
Ġg iacca
Ġo wes
ro k
ri fft
Ġla ggi
Ġque im
ver gon
Ġr ene
Ġr ush
Ġgo als
Ġne ug
Ġer s
Ġer it
Ġpar ent
Ã¶ hnen
Ġsch ade
ĠE ast
Ġam izade
Ġman ners
gl es
ĠT alent
Ġex er
Ġdis f
ont an
Ġor ient
Ġpri est
Ġmet a
Por ta
Ġdat ed
Ġsem elh
Ġsor row
Ġze it
Ġmus ul
Ġeven to
Ġind ign
Hab la
Ġprefer isco
Ġba irro
Ġcorre u
Ġcur ry
ĠGesch ichten
Ġpat ente
Ġcond izioni
Ġdev agar
Ġdivert endo
Ġstra at
ĠhÃ¶ flich
Deve mos
Ġfur ono
Ġcomplic ado
Ġdim issioni
Ġconhec em
Ã¤uf er
zent ri
Ġllo viendo
Ġaccus ato
Ġdific uldade
Ġcump ri
Ġquo que
Ġcontemp or
wesen heit
Ġersche int
ĠhÃº ng
Cono zco
Ġpobla ciÃ³n
Ġlaggi Ã¹
6 2
B ien
C iao
h mer
o te
ch tig
an st
Ġp anda
Ġp etro
Ġin ici
am ar
am pe
Ġde el
ir ÃŃa
ĠI m
Ġche iro
ag ing
ot ter
Ġsp ed
ĠG est
ĠR u
ĠD om
ĠD ia
Ġauf geben
ĠC ro
Ġsc ore
Ġor rib
Ġqual idade
Ġlas cerÃ²
Ġdr um
Ġbr inge
vel mente
Ġinv ito
Ġbene f
Ġesp ÃŃrito
Ġpra yed
Ġgan Ã³
Ġconse qu
Ġnem ici
uen os
Ġmusic ista
Ġcaf eter
Ġev itare
Ġsicher lich
Ġcul o
Ġocup ados
Wel cher
hou se
unter richt
Ġlad der
Ġfrequ ent
Ġlevant Ã³
Ġregret ted
Ġinvestig ation
Ġescri be
Ġmic ros
Ã¢nd ia
Ġschm utzig
ĠÃĸ l
Ġincom od
Ã¡nd ose
Ġaltern ative
Ġprevent ed
Ġbehaup tet
Ġsocied ad
Ġincorre ct
Sob ald
ppert utto
ĠSpazier gang
Ġacon sel
B esser
D ille
M es
M ed
M Ã¡s
O u
c ada
m itt
Ã ĸ
Ġf uss
te fli
Ġin k
Ġe ase
qu ia
Ġan nehmen
em us
ĠB ot
Ġab ajo
Ġnot ato
Ġsch rie
ĠE t
Ġfr Ã¶h
Ġex ig
ast rop
Ġri mar
Ġdis aster
Ġres em
Ġres cu
Ġter ce
Ġcol a
Ġfl ed
Ġpres enta
fen se
Ġaw esome
Ġmod ific
ĠBe gri
Ġpes ado
Ġsim b
ĠJapan er
Ġsou b
Sch Ã¶n
Ġkl ass
Ġtw ins
Ġeff ective
Ġpost ed
ĠcomeÃ§ ando
gem ein
Ġbeb Ã¨
Ġmass ive
ĠPh ilosoph
Ġpriv ato
Ġlead ing
isk y
ĠpolÃŃt icos
Ġlief de
ĠSchuld en
Ġherr scht
Ġhue vo
Ġsaud ades
Ġcontrat to
Ġcras hed
Ġleb end
Ġpoll ution
Ġarti ficial
Norm almente
Ġpean uts
ĠDis ney
Ġthor ough
tefli ka
% .
S agt
V andaag
k ul
k ung
u oso
Ġd ono
in ti
Ġp iss
Ġc ami
Ġe h
Ġdi vano
Ġo bras
Ġi lla
us al
id or
Ġch orando
Ġsu ele
Ġein zu
Ġr ia
Ġr ennen
ĠB reta
ĠA tem
est ellt
ach tig
ĠF els
Ġpro ven
Ã¶ ste
ĠG lauben
ier Ã²
Ġtr unk
Ġte cho
ĠK uh
op ed
ap or
ĠD ing
Ġcar cere
Ġho ffen
Ġmu Ã±
Ġsta vi
ĠV e
Ġcont ando
Ġfat ica
Ġvor bereitet
Ġcor por
Ġfal sche
Ġinc ons
Ġsen ior
Ġris ing
Ġsur ge
Ġze ven
Ġwat ers
Ġaiut ando
ĠPar tei
Ġesp oso
Ġsucc edere
Be vor
à¤ ®
Ġexc used
Ġce iling
ĠLie b
Ġpolit ico
Ġgener oso
Ġllam ada
Ġliber dade
âĢĿ ,
Ġveder li
Ġsex ta
Ve o
Ġlad ro
halt ung
Ġpec cato
Ġameric ani
ĠseÃ± al
Ġbetra chtet
ĠSund ays
Fac cia
Pol ice
ĠpÃ´ r
ĠHÃ¶ he
ĠSchlaf zimmer
ĠSchul ter
Ġled ig
Ġsaud ade
ĠGen ie
ĠpÃ¡g inas
Ġdesen vol
ĠKomm un
Ġlern te
Ġcommer ci
ĠErdbe ben
ĠtrÃ¡ fico
Ġempie za
Act ually
ĠKartoff eln
Ġpulch ra
Ġult ra
ĠReicht um
Ġwundersch Ã¶n
ĠNob el
9 0
B ene
V in
c esse
u za
Ġc incuenta
os h
qu illa
ĠM itarbeit
Ġque ijo
Ġver and
Ġer hielt
Ã³ l
ot ten
ul am
Ġlo pen
Ġcan Ã§Ã£o
Ġam ante
Ġpr ide
Qu anta
ĠT aten
ĠK eller
ĠP ublik
ĠR Ãºssia
Ġad ulto
Ġag osto
Ġpe Ã§a
Ġti pi
Ġaus gehen
ĠSt ief
Se veral
Ġinc rÃŃvel
Ġquer Ã©s
Ġvu estra
Ġhom o
Ġbit ch
Ġarri ba
Ġpot esse
Qui ere
ĠAn f
Ze g
els ius
Ġvic tory
Ġnue vas
Ġatt entamente
Ġdev oted
Ġconta cto
Ġconvers ando
Ġsens ible
Ġerk annte
Ġmill ions
Ġmenti ras
Av rebbe
Ġtrat Ã³
Ġens inou
Ġdivor zi
Ġaprend ido
Ġprocur ar
Ġevid ente
Ġconhec imento
Ġabitu ata
Ġgall ina
Ġindivid u
Ġromanz i
ĠJac Ã³
Vis it
Ġcamb iamento
ĠZwe ck
Ġinsp ir
Ġacept ar
Ġdesped ir
Dr ink
Ġcore ano
Ġtool s
okrat ie
Ġshado w
Ġthri lled
Ġespa Ã§o
Ġirgendwel che
T ente
c ur
e ben
m od
n itten
Ġd int
Ġm end
Ġm ate
Ġf lau
Ġv ib
un c
Ġin iti
Ġbe ib
im as
ĠS au
Ġge eft
Ġsch enken
ĠE U
Ġam en
ĠK uss
ĠK Ã¤lte
ast y
ĠSch lag
Ġcome Ã§o
fer t
ĠMaria e
Ġpers p
How ever
Ġbet rat
ĠÃ¼ber n
Ġass a
Don ald
Ġwait er
Ġrep aired
asc ar
Ġlar anja
Ġbas ura
Ġval ore
Ġmelhor ar
Ġpon y
Ġconhe cido
ĠBl Ã¤tter
Ġmem Ã³ria
Ġnad ando
atto lo
Ġsign s
Ġherm oso
Ġale gre
ÃŃt ulo
Ġcole gas
Ġlead ers
Ġbran ca
Fe ce
Ġdemand ed
Ġearn ed
WÃ¼r den
Ġbow l
Ġmensch liche
Ġvertra ut
Ġdeut lich
Ġguar ante
Ġreac tion
Ġconqu ist
Ġrabb it
ĠVern unft
D ad
I hm
S oc
S Äĥ
c ÃŃa
Ġd ati
ch tigkeit
Ġm essa
Ġl ugg
Ġb essere
Ġv otare
ed ig
Ġo bl
Ġqu antos
id elijk
ta al
Ġwas ted
Ġal qu
Ġsu f
Ã¼ g
Ã³ i
Ġas ust
ag ni
ac ob
Ġwe inte
Ġsp ost
uf act
Ġcan ades
ĠE int
ĠK unden
We iÃŁ
Ġda ppertutto
ĠP ech
Ġpre ced
Ã§ amos
Ġdes wegen
Ġad em
Ġgr itar
Ġgi ant
Ġra cco
Ġni hil
In cl
ang hai
Ġesc la
Ġpers a
Ġdr ama
ĠUn w
Ha ppy
Ġpol icial
Ġbus c
Ġva ig
Ġfind est
Ġste igen
Ġbest anden
Ġsig lo
War en
Ġrep lied
Ġasp etti
ĠBuch sta
Ġdisp osta
Ġpos izione
Ġgust Ã³
Ġnear est
Ġabsol ute
Ġorgan izz
Ð¾Ð ²
Ġdivor ci
Ġpeque Ã±os
Ġtelefon ato
Ġtranqu ilo
bur go
Ġschwar ze
Ã¯ n
ĠIst anbul
Ġtempest ade
ĠColom bia
ĠVeren igde
Ġlugg age
Ġcanades i
P arli
c idos
h us
l oc
Ġl Ã¼gt
un en
Ġin ex
Ġe bbe
Ġqu and
le b
Ġdo zen
ĠM id
ĠM ob
Ġch at
are te
Ġcon ci
Ġre ck
ess el
Ġas iento
Ġma xim
mp os
Ġte cl
Ġex tens
ĠH en
iz ada
Ġpre ven
Ġcomp ens
ĠN ation
Ġri fl
ĠZ i
Ġpass ing
Ġpri vile
Ġover d
Ġtalk ative
ĠUn g
Ġbr inqu
Ġsin n
kt ur
gr os
Ġrec ursos
ros ch
Ġste m
When ever
Ġfer ita
Ġesp ere
Ġdri ven
pre ch
rat ic
Ġwel chen
Ġdesc end
ortun ately
Ġstudent essa
Ġllam ado
Ġvert eld
Ġsecond s
Ġcorr upt
Ġfol gt
ĠSchl imm
ĠAnt worten
Ġgrow s
Ġpract ical
Ġmot ore
Ġviv ÃŃa
ĠStud ium
Ġcross ing
Ġtrasc orrere
Ġfrut os
Ġvre a
Ġtranqu il
Ġnewsp apers
Ġov unque
Ġpig ro
ĠlÃŃ der
Ã¶p fe
Ġgebrui kt
Ġdescobri u
Ġexplos ion
Ġdisgust ing
Ġps ic
Ġgeho ord
Ġprin cesa
ĠgÃ¤ be
Ġschif o
Ġintoxic ated
ĠincÃªnd io
B re
P ec
S en
S il
b elt
l ock
m Äĥ
Ġt entei
Ġd anno
Ġw ings
is ola
Ġn it
Ġl Ã¢
Ġb arn
it ation
ie i
Ġbe zeichnet
ri me
Ġre duce
Ġver re
Ã© cia
Ã³ vel
Ġpar ap
Ġest Ãł
ul ed
ĠK ioto
Ġpre gui
Ġpor terÃ²
Ġdes esper
Ġdis pre
Ġsol t
Ġpi el
Ġtra ins
Ġag es
ers chein
Ġro ken
Ġro lled
Ġinter rom
Ġten uto
ars h
cer am
cer tain
Ġve ÃŃa
ĠO h
Ġexp and
Ġbes o
Ġperson ally
tern acht
Ġprof undo
zi p
Ġint ende
pl ant
Ġaff asc
ĠMar co
Ġmil hÃµes
Ġgra b
Ġed uca
Ġrag ion
Ġsho e
ĠNe ues
Ġsub s
Ġext reme
Ġarm ed
Ġmem bri
Ġlight ning
Ġhi elo
Ġpast el
Ġdark ness
osi Ã§Ã£o
Ġitali ani
Ġpaint ings
Ġwann a
Ġdisappo int
gef allen
Ġalmo Ã§ar
Ġbege gnet
Ġsir ve
Ġtar ta
Ġrecomm ended
Ġrevol ution
Int ent
Ġabbi ano
Ġbreat hing
ÃŃss imo
Ġcapt ured
Ġentsch lossen
Ġpopula Ã§Ã£o
Ġdring end
Ġunglaub lich
ĠKonta kt
Ġachie ved
B ald
C onte
L u
L ang
P ad
v ist
y ers
Ġs ank
at ici
Ġf ida
Ġv ak
ed am
un ti
id ing
ol it
Ġch annel
Ġla utet
ĠI dio
Ġsu ena
Ġein st
ÃŃ ble
Ã© ct
Ġac ima
Ġpu tea
ĠSie g
Ġca ÃŃ
Ġir Ã©
ĠSt at
Ġvol ley
Ġpens Ã³
Ġcor retta
Ġap t
Ġven er
ĠAr ch
Ġsent endo
ĠGe halt
Ġmag na
Ġdisc rimin
Ġcri men
Ġmangi ano
ph Ã¤re
Ġref uge
à¤ Ĥ
Ġ- -
Nu lla
Ġparti u
Ġhin ten
Ðµ Ð»
Ġdivent Ã²
Ġpreocup es
ĠTÃ¼r en
erc ury
Ġscha fft
Av resti
Qualc osa
Ġdispia ciuto
Ġerf unden
usst est
Ġfro zen
ĠSonn ens
Ġpill s
esper ienza
Ġatrav Ã©s
Ġnecesit an
Ġren unci
Ġnegoc ios
gele gt
fÃ¤l le
Ġinclu de
ĠSchrift steller
Ġdauer te
Ġveter in
ĠEsper ant
Ġgemak kelijk
ĠperÃŃ odo
ĠEre ign
C har
G ute
R it
S prechen
V reau
c ure
g ain
l ish
r ale
r ados
u ppe
Ġs d
Ġm Ã¢
Ġm anda
Ġl ucht
as co
Ġb rengen
Ġf lies
el ben
Ġv ice
et ato
ie ÃŁt
ic y
Ġk re
Ġbe ars
ig end
ĠI ll
Ġsa iling
Ġst al
Ġj Ã¼ng
se h
Ġum ano
Ġpro beren
Ġpr endo
Ġpr essa
Ġpr Ã¡ct
Ġtr uc
ĠT en
iz aÃ§Ã£o
ĠD ruck
ĠC elsius
Ġwir kt
Ġpu edas
ze pt
In f
Ġcl ara
Ġfare te
ĠfÃ¼r s
omet er
Ġpri eten
Ġacc ons
Ġsor vete
Ġnight s
ÈĽ ele
ĠGer uch
tiv amente
ĠSchw imm
Ġstop s
Ġsenti mentos
Ġsenti mientos
Ġsegu ida
Ġperd a
Ġlim ited
Ġcho vendo
Ġform ed
Ġviol ino
Ġescre vendo
Ġjog ou
Ġverw enden
Ġbott les
Ġcaus ing
Ġsignific ant
Ġersch Ã¶pft
Ġayud Ã³
Should n
Ġpian ista
Ġcolt elli
ĠÃĸ ff
Ġcarp et
Ġremind s
Ġdisappe ar
ĠWill en
Ġeffect s
Ġaddorment ato
Ġschwe igen
uest as
ĠpÃ¡ss aros
Ġaccompl ish
ĠhÃ¶ch ste
ĠbÃª bado
Ġshel ter
ĠFlor ida
Ġsopport are
Ġvroe ger
9 9
C are
F ace
F rag
W on
c ora
e it
r ou
Ġc oca
Ġc acci
is l
Ġl ume
Ġv ine
un Äĥ
Ġin ÃŃcio
qu Ãª
Ġqu ia
Ġes ami
Ġdo ar
Ġk let
Ġse jam
Ġme z
ri ften
Ġno ble
ĠS Ã¼
Ġein sch
Ġr und
ĠB art
Ġj ene
Ġge vo
ab bia
Ġri vier
ĠR ing
Ġauf merksam
Ġsc ol
Ġad icion
Di xit
ĠZ will
Ġbo os
Ġchi use
Ġres ulta
Ġnoch mal
Ġour s
Ġpla c
Un de
Who ever
Ġinteress ieren
Ġhum ili
Ġans ioso
ph on
Ġmer ken
Ġgesch reven
ĠFe hl
Ġhabl ado
Ġperf ecto
Ġlasci armi
Ġret orn
Ġarr um
Ġtemp esta
Ver ge
Ġfollow s
graf ia
Ġvier am
Ex per
Ġsnow ing
Ġcans ados
Ġtick lish
Ġsuon ato
rouw d
Ġcomput adora
Ġagrad ec
Ġlevant ou
Ġestre lla
Ġaccomp an
Ġlangsam er
Ġsett led
Om nes
ĠmÃ¼s se
Ġvig il
ĠlÃ¡p iz
Ġsco ppi
Ġporto ghese
Ġvictim s
Ġassic ur
Quiz Ã¡
ĠTurk ish
Ġgasol ina
ĠSovi et
Ġprakt isch
' ,
C ad
D ank
d ays
m is
s ache
v inc
y os
â Ĥ
Ġa it
Ġd Ã¼n
in Äĥ
it ava
Ġin esper
ĠM and
ĠM ai
ir ma
um que
Ġque ix
ĠS uche
Ġz ak
Ġal gebra
Ġcon cept
Ġso fr
Ġher s
Ġsp une
uch er
her ia
Ġte ilen
ĠH umor
ĠN ancy
Ġri et
ĠD ienst
Ġauf zus
Ġcar ed
Ġad vers
Ġhel met
Ġpi ada
ze uge
In izi
Ġfat al
ick et
Ġpens Ã©
Ġbet re
ĠÃ¼ber qu
Ġap os
Ġover come
get an
Ġsor gen
Ġint r
ĠIn se
ik a
Ġestud io
Ġschw anger
Ġmiss es
scha ffen
Ġconsider ado
los en
Ġcop i
Ġnecess idade
Ġdesp acio
Ġswim s
Ġheart broken
Pr om
Ġsold ati
Ġweekend s
Ġcamp us
Ġscha ff
Ġvuel ve
Ġcomport amiento
Ġstat ue
Ġpier nas
Ġcanad iense
Ġschien a
Ã¶ff el
Ġapare ceu
Ġpropos ito
Ġhoc key
ĠFrÃ¼ chte
Ġgeze igt
Ġdeli ber
Ess es
Ġinstrum ent
ĠPrÃ¤sident en
Dav vero
Ġpessim istic
Ġmuchach o
Ġgebra ucht
Ġprevis to
Ġnod ded
Ġverber gen
Ġther ap
ĠVerantwort ung
Ġunwill ing
mind ed
Ġbenz ina
Ġskinn y
! ,
4 3
F rauen
c od
Ã Ħ
er ba
Ġw re
Ġc ens
Ġi am
Ġde utsch
Ġqu into
id ential
ver unt
est ell
ĠF ord
Ġum gebracht
out hern
Ġpro ved
Ġge hor
Ġsp illed
Ġtr anc
Ġman ual
ĠJ ung
Ġri b
ĠR uf
Ġget t
ug t
ĠC at
ĠC ha
Ġsc omm
sel ben
Ġsta vate
Ġsta bbed
Ġra ad
Ġfe ita
De ver
ang a
bre cher
Ġten e
Ãº a
Ġcer rar
Ġci Ãªncia
Ġav rai
Ġav velen
Ġback pack
Est ud
Ġinc ubi
ert os
Ġfl ir
Ġsor ri
Ġvisit ors
Ġconos cono
zu kommen
Ġcr isi
ĠY am
Ġtorn erÃł
Ġdiffic ili
Ġcorre cta
Ġscri ver
Ġber uh
Ġform s
Ġneg le
Ġsorpr ender
Ġdivert ito
Ġerk Ã¤l
ĠMa ul
Ġirgend wann
ĠSta ub
Ġextrem amente
ĠGew icht
Ġ200 6
Ġproduc tion
Ġau x
Ġmort os
inner st
Ġanci ano
Ġdestro y
Ġschwar zen
Ġwid ers
Ġincred ibly
Ġrelati vely
Ġadult s
Ġbesit zen
ĠHÃ¼ gel
Ġauss ieht
Ġverlang t
ĠSti ft
ĠDiskuss ion
ĠBak ir
udden ly
ĠTues day
F ammi
J esus
j an
j est
k in
an jas
Ġw es
Ġl ados
Ġg or
Ġe fic
Ġe igh
ti al
Ġme ist
Ġbe ating
Ġch ate
Ġal imentos
Ġsu bt
ĠB esser
Ġas eg
ot ic
Ġel Ã©ct
ĠF BI
Ġlo qui
Ġsch ein
ĠE w
Ġdu bbi
ĠT un
ei Ã§Ãµes
ĠJ etzt
ĠW ass
Ġpl atos
ĠC omo
era us
Ġmai ale
Ġvan ta
ĠUn recht
Ġbes uchte
Ġbl Ã¶d
Ġfam a
Ġste ak
lie ÃŁ
Ġsupp ly
Ġesp elho
Ġesp acio
Ġasp ecto
Ġsenti u
ĠNe bel
Ġcant ato
Ġwel ke
Li ke
Ġarriv Ã²
Ġhin unter
Pr endete
gem einen
Ġfol le
bes ch
ĠBild ung
ĠMil ano
Ġhic iera
Ġmotor ista
ĠPre ise
Ġrespond iÃ³
Ġpred ic
Ġpock ets
Ġgramm ar
Ġhina uf
Ġdescul pas
Ġculp able
Ġsatisfe ito
Ġalegr ia
Ġaccompl ished
Ph one
Ġmanif esta
Ġparlar ne
Ġhambur ger
Ġbate u
Ġerne ut
Ġejerc icio
Ġnostal gia
Ġneug ierig
R i
T rat
g le
h uis
p fl
Ġm alt
Ġw iped
Ġf iam
el ly
Ġo to
ĠM Ã©xico
im port
Ġal phabet
Ġver la
Ġle gt
Ġel en
Ġlo ving
Ġam ato
Ġpr ÃŃncipe
Ġdu ur
ĠH alt
Ġcomp ri
Ġmi lag
ĠD ann
Ġget rouwd
ĠC ome
Ġho he
Ġco ins
Ġtu ya
Ã³n ico
ĠSt r
Ġpass atem
Ġdec ent
Ġmor ava
Ġmen cion
Ġins pi
Ġquer es
Ġprof ondo
As ta
ĠMar te
Ġric che
Ġguard i
Ġexpect ations
Ġdurch s
Ġbas ic
Ġ19 5
Ġcomplet ed
Ġce go
Ġcook ie
Ġvin cerÃł
ĠEst Ã¡
Ġcra w
Ġnas ce
Ġsb aglia
orth y
Dit ele
Ġorgan ization
ĠKopf schmerzen
Ġbev endo
Ġfore head
Ġspieg ato
Ġpier na
Ġcuri osa
Ġvid ro
Ġjud g
Ġubria ca
Ġbeij ou
Ġstom aco
Ġpoem as
ĠWa ffe
Ġschne iden
Ġspra chen
Ġbewe isen
Ġladr Ã£o
Ġemple o
Ġrecib ir
ĠKore an
Ġpav imento
Ġscritt ore
Nat Ã¼rlich
Ġkil ogram
Ġesist ono
Ġeleph ant
Ġrazz ista
Ġintellig enti
Ġbeige bracht
Ġjewel ry
Ġgewin nt
A ca
A br
C ine
D el
P oi
P arlo
W ilt
Z ur
b on
b ag
c ente
l or
r up
r esso
u ali
Ġt ij
Ġa onde
Ġs onder
es cio
Ġc ag
Ġc az
Ġl entes
Tom a
Ġb erg
Ġg rij
Ġv lo
Ġla vo
Ġal ert
Ġst ores
Ã¼ ten
Ġli xo
Ġfor der
ÃŃ fica
Ġen gen
Ġest arei
est elle
Ġso gg
Ġsp an
Ġma id
ci osa
Th ink
Th ough
ĠE ing
ĠE hre
Ġsh ore
Ġsh ake
Ġdes gra
Ġpl ata
Ġcar n
Ġcar am
ho ven
Ġco al
our nal
iss imus
Ġbo ven
Ġcont ado
Ġpens am
Ġbra vi
ĠEr den
til iz
Ġconf ort
Ġfun ction
Ġaiut ate
ĠAn st
Ġric chi
ÃŃs ta
Ġzo veel
Ġstand en
Ge fÃ¤llt
Mar kku
Ġstar ken
Ġfilm s
ennt nisse
Ġvier zig
ĠSk ype
ĠFahr er
Ġplane jando
Ġpio v
Ġcup s
Ġtext ing
Ġsend ing
Ġusc ita
Ġtav ola
Ġhub o
Lav oro
ĠLi ppen
Ġritorn are
Ġactiv ity
Ġraggi ung
ĠFer ne
Ġviz inhos
Ġcostru ito
Ġorgul hoso
wind igkeit
Ġtraduc ciÃ³n
ĠAeg ypti
Ġincon ven
ĠKilomet er
Ġgevaarl ijk
6 7
C erto
E at
F ind
f rei
j ong
Ġ Å
er amente
Ġn ic
am keit
Ġi edere
ut ch
st Ã¤nde
ost ra
ĠB und
ĠB estes
ach st
ĠL ucy
ci are
ore i
Ġtr omb
ĠT am
ĠT anz
ĠK osten
âĢ ĺ
ĠP y
Ġex ists
ĠN ara
Ġdis ple
Ġvo ti
Ġvo ices
Ġtu yo
ont ane
Ġfat te
Ġav ut
Ġmai ores
Ġsal d
Ġsen Ã£o
Ġgl Ã¼ck
ĠIn sta
ĠGes chenke
Ġsupp lies
Ġvers p
Ġperm issÃ£o
Ġseg ret
Ġact s
Ġport as
Ġtrans p
Ġsegu ido
Ġsegu inte
ĠBr unnen
Ġadv anced
Ġaver mi
Ġmess aggi
ĠGr amm
EstÃ¡ is
Ġdeb emos
Ġucc isi
Ġpul ita
Ġhuman idade
Ġsb rig
ĠTh urs
Ġrespons Ã¡vel
Ġproc ura
Ġsn oring
Ġsotto valut
ĠUm welt
usst sein
Ġspar en
rich tet
bild ung
Ġbull et
Ġbeij o
ĠschlÃ¤ gt
can estro
Ġindust rial
Ġcommunic ation
Ġzelf s
Ġbabys itter
Ġcie co
ĠSchauspiel er
ĠEsp anha
ĠhÃ¤ss lich
ĠUkra ine
ĠverÃ¤r gert
G el
H ubo
I d
M oney
b ido
p ing
u ig
z ud
Ġ Ä
Ġt Ãª
Ġa id
Ġs ib
an so
Ġp eces
or rer
Ġl ut
it uto
Ġg ui
Ġg rau
Ġdi rige
ĠM ac
ĠM itt
ti ll
Ġbe bo
Ġla ughter
Ġhe il
Ġas se
de a
Ġso is
Ġwe gg
Ġge ef
Ã¶ te
Ġma k
ĠT Ã¼re
Ġri pro
Ġri queza
li p
Ġcas ino
Ġim am
Ġpi pe
Ġvo el
Ġser pi
ĠV iertel
Ġtu viera
Ġdem it
Ġpe z
ute te
int on
na hm
Ġcompr ender
Ġbra Ã§os
Ġsent ada
Ġvu estro
ĠRe volution
En quanto
Ġwoll test
Ġestud ia
Ġdorm iu
ĠY okohama
Ġcant idad
Ġhead ing
Ġstar ke
Ġlim ite
Ġsl im
Ġpassap orte
Ġoccup ate
ĠUnter stÃ¼t
Ġincontr ati
orre u
Ġhold s
Ġenfer m
Ġpain ful
Ġreci biÃ³
Ġerf reut
Ġved rÃ²
Ġbran ch
Ġcell phone
resp ect
Ġterrib ly
Ġtyp ical
Ġpei xes
Ġata que
Ġsaf ely
Ġdistingu ir
Ġperten ece
ĠWa ffen
Ġvegetari an
Ġtam anho
Ġmyster ious
Ġverme iden
ÃŃst ica
ĠZahn arzt
Ġemprest ar
Ġvlie gt
Esp ere
Ġdelight ed
Ved iamo
Ġrapid ly
Ġgeomet ria
Appar ently
Ġscom par
Ġautomob ili
Appre zzo
ĠPublik um
? ,
C le
S age
S cha
d atÄĥ
f et
ar Ã¡n
Ġp ays
Ġto que
ic l
ĠS Ã¼d
Ġre ward
Ã¡ c
Ġver ja
Ġver ga
ce is
Ġli et
Ġest at
Ġlo hnt
ĠL ate
ĠL ux
Ġsch arf
ĠE hr
Ġam mi
Ġfr en
Ġsh ining
Ġman ufact
ĠT au
Ġar ena
Ġ" Â¡
Ġex it
iz aciÃ³n
Ġac know
ĠN erven
Ã¼r zt
ĠC O
Ġim bro
ven ta
Ġag ent
Ġag ot
Ġco ppia
Ġesta blished
ici os
Ġlas cerÃł
Ġmet te
Ġfac ere
Ġmis teri
Ġint ends
ĠMar ch
Ġric os
Ġpag es
ĠAb schied
Su cc
Con se
rat to
Ġconhe cia
ĠBl att
fahr er
Ġarriv ate
Ġverdad eramente
Ġblo ed
Ġserv icio
Ġsens azione
ĠmÃºs ico
Pr onto
Ġsn ack
Ġens ina
Ġconosce vo
ĠGef allen
Ġesqu ina
Sal ve
Ġutilizz ato
Ġcondi Ã§Ãµes
Et was
Ġnecesit aba
Ġraggi unto
Dec id
Ġexcep tion
ĠSchwe igen
Ġdefe at
Ġpalla canestro
Ter min
Ġdevol ver
Ġdelici oso
Ġpati ents
Ġschen kte
Ġstun ned
B in
R uf
S ed
S uddenly
b ility
h y
k or
w urf
z inho
Ġt ome
Ġt ÃŃa
en cias
ch ens
on as
at zen
Ġc rem
Ġb row
Ġf ico
Ġf rog
el hos
Ġg la
Ġg orge
Ġv idas
Ġi js
Ġqu ot
Ġqu ise
Ġun known
em de
Ġz ond
ell s
Ġso p
ĠF lam
ab as
ci le
Ġsch ree
ĠE gip
her Ã²
Ġman che
ĠH iros
ĠC ong
ger Ãł
Ġimp azz
Di le
Äĥ ri
Mi entras
Ġlet ting
Ġsti le
fer enz
Ġfaz ia
Ġpod ido
Ġmet r
Ġson ido
Ġwa ard
Ġven ite
Ġkein es
ĠZe ug
Ġinf Ã¢ncia
Ġris ks
bo gen
ĠmÃ¶ ge
Ġou der
Ġaff ect
Ġmod elo
Ġrep ent
Ġchiam ando
Ġchiam erÃ²
Ġdecis amente
Ġbas is
laub nis
ĠTe pp
Ġdeix ei
Ġdesc anso
Ġinst al
Pro va
Ġcambi ado
ĠHand y
ĠFr ucht
Ġdra agt
Ġbor bol
Ġeinz iges
Ġgeb ouw
Ser ia
Ġenerg ÃŃa
Ġscre en
Ġpranz ato
Ġquar ter
Ġspavent ata
imi entos
Ġkno ck
Ġrie cht
Parl ate
Ġgebrui k
Ġara bo
Ġattemp ted
ĠHow ever
ĠKno pf
Ġengl ische
Ġscapp are
Ġciocc olato
Ġbegle iten
Ġadel ante
ĠLiter atur
Ġreno v
S it
b ant
b ten
b Ã¼cher
c it
j et
s es
er r
en ces
Ġm um
Ġn asty
ed nes
al ata
Ġqu iso
ĠM ode
Ġse pa
ir tiÃ³
il io
ĠB ab
Ġfor esta
Ã¤ ume
ul it
Ġdu er
ĠT Ã¶
ĠT aro
ĠK reu
ĠP at
ĠP et
ĠJ o
ĠN orte
ak ten
Ġmit ten
ont os
iss imi
po o
rei f
Ãī ste
ĠSt aten
ĠO rig
Ġdec re
ĠÃ¼ber t
Ġav remo
Ã¨ s
etz ung
Ġbl ocked
Ġbef ol
Ġconf ia
Ġpas ti
Ġimport ar
Ġou vindo
Ġdisc re
Ġbeg ra
Ġtrov ate
Ġunter wegs
Ġdist ancia
Ġkon ing
ĠSchw ert
Ġexc l
Ġloc ale
Does n
Ġpun ti
Ġimag em
Ġhaber lo
Ġrespons abilitÃł
Ex p
Ġbla ue
ĠSk la
ĠÃ¶ fter
Ġembar az
ĠKÃ¶n igin
Ġcoll abor
Ġusc endo
Ġcow s
Ġpian eta
Ġgere cht
Desp ite
Lie ber
zw ischen
Ġosc uro
Ġbutter f
Ġmiglior are
Ġculp ado
Ġsearch ing
Ġident ity
ĠMÃ¶glichkeit en
Ġvergo gna
Ġjun ior
Ġenfad ado
uest os
Ġattravers are
Ġesf uerzo
Ġregul arly
Ġmosqu ito
Ġfinanz i
Ġrobber y
Ġargom ento
Ġamist ad
Ġdetal hes
ĠGerÃ¤us ch
Ġprofond amente
D acÄĥ
I ll
M od
T rans
g al
s amen
z um
Ġt ore
Ġp ing
Ġb ore
Ġf olded
it ern
Ġi ps
Ġbe endet
Ġz un
Ġver ander
ac u
ĠF o
Ġzu zu
Ġsch ild
ĠE ine
ĠK redit
Ġdel iver
Ġhat s
Ġdes car
Ġcas tig
Ġad ven
Ġpu ro
Ġem bra
Ġtu as
Ġtu am
ĠZ oo
Ġpe in
Ġcu ar
itt y
ct us
Ġca uti
Ġten Ã©s
Ġlav ando
Ġdir t
Ġcor es
Ġtro cken
And Ã²
Ġcos ti
Ġmis schien
kt u
Ġger al
Ġger ente
Ġbest and
fic ato
ĠVer wand
Ġgel Ã¶st
Ġpic coli
Ġmom entos
Ġapr Ã¬
Ġph ones
Su as
ph ones
Ġvec ino
Ġred or
Ġdou Äĥ
sam keit
ĠVor stellung
Re ci
Ġinvit ata
Ġdet all
Ġacab Ã³
Ġtrat ando
Ġfotograf ie
Ġded it
Ab ito
Ġexpress ed
ĠMo ys
Ġodia va
ĠMund ial
Ġtes oro
ĠRep ubblica
Ġinfel iz
mÃ¤ ÃŁ
Ġpuzz le
ĠCr isto
Ġambul ance
Ġbegrij p
Ġlimpi ar
Ġoli ve
Ġverurs acht
ĠPhara oh
ĠInsta gram
. '
G es
h osa
h jong
n tet
t el
Ġm ata
Ġh orm
Ġc ier
Ġl inha
re o
Ġf ÄĥrÄĥ
Ġin qu
Ġo ber
Ġi g
ri am
and id
Ġcon g
ut lich
ver anno
st ore
la gt
Ġst ing
Ġst ude
Ġr ussa
Ġle ef
Ġer lauben
Ġen ch
Ġab ol
hr ten
Ġsp alle
Ġsch ief
Ġar co
Ġex hib
ĠW ut
Ġri vel
Ġpl ato
ord ert
Ġcu oco
Ġmo le
Ġor anges
Ġvis ion
Ġlet ti
ep e
Ġmin istro
ĠO ne
ĠÃ¼ bel
Ġci v
Ġwo oden
iti Ã³
Ġpol vo
Ġmen inas
Ġmis ter
ĠSp re
Si ate
Ġbar gain
ret t
Ġcre w
Ġhom ose
Ġarri verÃł
Ġbeg int
ĠBe vÃ¶lkerung
Ġdist rib
Ġcle ared
Ġerr ors
Ġsk ating
Ġchiam Ã²
Ġchiam armi
Ġbere itet
ĠBr itain
Ġkl as
Ġdesc ribed
Ġcontinu ou
Ġstar ved
ĠWo hl
Ġpat ria
Ġeinfach er
Ġlisten s
Ġpun ishment
Ġsorpr ese
Ġdream ing
Ðµ ÑĢ
Wel come
Ġpan ic
Ġsuon ando
ĠhÃ¶ chst
Ġtijd ens
Ġamer icanos
Ġtoc ou
Ġbaci are
Ġlengua je
ĠseÃ± ora
Ai ut
Ġeleg ante
Ġdistingu ere
Ġresign ed
Ġank le
ĠSchm etter
Ġurl are
Vert el
Scus ate
Ġcinqu enta
Ġvocabul ary
Ġsarc astic
Ġbeise bol
Ġconsape vole
Ġbeib ringen
Ġvolley ball
H alt
V idi
a an
k le
p ende
w Ã¤
Ġ Where
Ġt id
Ġa usste
in chen
Ġh y
Ġh os
Ġc ode
or al
Ġf ij
Ġto es
te va
Ġan genommen
ad et
ad ir
Ġun hÃ¶
ĠM osc
im pro
ĠS ic
Ġz en
Ġz ingen
Ġst anc
Ġst uk
Ġr ented
ĠB ord
ac ciato
ten ta
ĠL isa
Ġat rop
ĠP icasso
Ġwill kommen
ĠW i
Ġwor um
Ã¼r f
ĠC ity
ina wa
Ġtra ff
Ġor mai
Al ice
Ġcor bata
Ġmor ando
Ġmein st
Ġdar me
Ġapp assion
Ġbr oma
Ġhou ve
Ġinc ontro
Ġbl uff
Ġpres erv
min ister
ĠZeit schrift
Ġaff ection
Ġlle guÃ©
Ġcri es
Ġunter schied
sche idet
Ġdist r
Ġsim pl
Ġguard o
Ġgreat ly
Ġnoi oso
Ġsou be
Ġchiam ate
Ġang esehen
unk tion
Ġstup ide
Ġmem ories
Ġrit mo
gun te
Ġverdad eira
Ġstran gers
fel izmente
Ver zei
Ġsci are
Ġsed uta
Ġspos are
Ðµ ÑĤ
ĠÈĻ tiu
Ġdet est
ĠfÃ¼nf zehn
Ġsex o
Ġexpl or
Ġju z
Ġconven cido
Ġgun s
Ġchegar am
ĠWas ch
Ġcostum bre
itor io
Ġremo ve
Ġverschw unden
Ġincred ibile
Ġconsid ero
Ġsigui Ã³
Cons ider
ĠKr itik
wij l
Ġdecl ared
Ġmeas ures
Ġdistra cted
Ġec ce
ĠquÃŃm ica
ĠerfÃ¼ llt
lad ung
Ġverbra chte
Ġmezz anotte
lly wood
Ġreven ge
Ġsospe ch
Ġcami Ã³n
Aca bei
Ġgorge ous
ĠEgip to
B a
G an
H odie
K aum
M ant
c ement
h aram
m ord
Ġa e
in ent
es os
Ġh Ã¤ngen
Ġb ess
Ġv itt
ie ÃŁe
Ġk unst
ig lie
Ġre z
ur b
ur ado
Ġsu ave
Ġr endere
Ã¼ ÃŁen
ag ner
Ġen ig
hr lich
ĠF Ã¼r
Ġar mi
ĠH ast
Ġmi xed
ĠR is
sch uhe
Ġke ek
Ġem it
Ġtra er
Ġag enda
Ġna ils
ana an
Ġlas tim
Ġvor rebbero
Ġdr innen
acht ung
Ġben ed
Ġben venuto
Ġapp els
Ġinc ompet
Ġparl iamo
Ġinf orme
Ġprob able
Ġresp et
Ġbest ellt
Ġalt es
Ã¤n glich
Ġgef iel
Ġtun nel
ĠÃ® mp
Ġbic y
Ġba jar
Ġcontinu es
Ġmatt ino
Pod eria
gest anden
Ġcheck ing
Ġenter tain
Ġmur m
schuld igung
Ġirgend was
cch ier
Ġleid et
hand lung
Ġcli entes
Ġquebr ado
ĠBÃ¤ ren
lei hen
Ġearn s
Ġade cu
Ġmanc anza
Ġdess es
Ġanal ys
Ġsubst anti
Ġcarp enter
Ġinstrum ento
Ġvivi endo
Ġpoc as
ĠQue en
Ġrech az
ĠZa hlen
Ġadmin istr
Ġacostumbr ado
Ġremark able
Ġaburr ido
Ġheuti gen
Ġflas hlight
ĠKolle gen
Ġisrael itas
Ġrescu ed
ĠUnterstÃ¼t zung
Ġverja ard
J eden
U w
W Ã¤re
c emos
c ara
f eld
g he
k op
l ida
p ost
s ito
er lich
in co
Ġp owers
Ġc il
Ġc oro
Ġun to
Ġun certain
ĠM t
ĠM att
Ġk ar
Ġk rÃ¤
Ġand ern
Ġre ken
Ġsu co
Ġsu cco
Ġr am
Ġr ural
ĠA re
Ã¤ m
be kommen
Ġso w
ĠF urcht
ber ta
ĠG leiche
ĠT ugend
ist ische
Ġac co
Ġsol te
De utsch
tion em
Ġna hmen
ijn en
ĠSt ar
Ġdec ÃŃa
Ġpri mos
ru k
att utto
Ġ2 6
Ġpres enÃ§a
gr Ã¡
Ġgl anced
Ġste ckte
ĠVer fÃ¼
Ã¢ m
Ġdisc ount
ĠMar k
Sei en
Ġsar esti
Ġord em
Ġseg no
Ġerr ada
ott ed
Ġstor ie
ize it
Ġba il
Ġart ÃŃculo
ĠÐ ·
Ġstran iere
Ġpolit ici
ĠMe eres
Ent r
Ã©r d
Ġhi eld
ĠDan ia
Sp reek
Ġschwer er
Ġabri l
Ġimpegn ate
Ġquis iera
ĠBrief mar
Ġinj uries
wei le
Ġgez icht
Ġbal con
Ġgeg laubt
Ġcoc in
Ġadmit ir
Ġstim mte
Ġfortun ati
Ġmain tain
Ġbac io
Ġmanc ano
Ġpoem s
Ġnecesit amos
Ġtagli ato
ĠJac ob
Eg al
ĠEhe frau
ĠJos eph
Mam Ã¡
Ġsales man
Ġmanif est
Jam Ã¡s
Dev ono
Ġincor aggi
Ġoffici als
Ã¤nn ern
Ġbisc otti
ĠHon ig
ĠPull over
Ġapete ce
Ġoto Ã±o
1 00
A onde
M in
P ers
R ed
c ata
p Ã¤t
w orthy
Ġt one
Ġt iger
at tet
Ġc accia
as ant
Ġb ier
al to
Ġin ch
Ġin app
Ġqu ilo
Ġun p
Ġch u
Ġre tir
Ġver tig
Ã¤ s
Ġas as
ac ters
ind elijk
Ġtr ump
ĠH of
Ġauf stehen
ati vos
Ġmo ll
ars a
unt ur
Ġlie vel
Ġbef inden
Ġgre eted
Ġverd ure
Ġprop uesta
Ġgef Ã¼
Ġconos ciamo
gel assen
Ġesp Ã©c
Ġpes ad
Ġph ara
Ġgan ado
rat es
ĠBuch es
Ġsub way
Ġcontro vers
Ge w
Ġentre gar
Ġdep ri
Ġverste hst
Ġce ea
Ġmedic amento
son st
Ġcla ust
Ġlic et
Sab ÃŃa
Ġzich zelf
Ġgele erd
Ġclos ely
Deber ÃŃamos
Ġul tim
ĠRo bert
Â« Â¿
Ġdad urch
Ġmorrer am
Ġphys ics
Ġep is
Dite gli
Ġargu ed
Ġdispon ibile
Ġjapan ischen
Ġviz inho
Ġode ia
ĠrÃ¡p ida
Ġgrav ata
wes end
vvis o
HÃ¤t te
Ġimpres ion
Ġeingesch lafen
Existe m
ĠFab rik
Ġsimb olo
Ġsd rai
A ma
D ato
H um
O ÃŃ
c ond
l ig
o ter
o ce
p te
Ġa ant
Ġs gu
om bra
Ġp ista
Ġb oda
qu inho
us Ã£o
Ġha ble
ti ble
Ġbe enden
Ġcom ien
Ġwe ise
Ġum ani
ĠL ang
ĠG ip
ier an
her Ãł
Ġsh ah
Ġte ar
Ġar b
Ġar me
Ġac erc
ĠW ahn
ĠW ednes
Ġcomp orta
enn i
Ġdis like
Ġsol uc
Ġgr up
sch re
sch ap
Ġmit nehmen
iss Ãł
Me jor
Ġor aciones
og ar
Ġcl ube
Ġti ra
Ġcol ina
Ġges proken
Ġback ground
Est arÃ©
anz ia
Ġ1 000
wer fen
Ġbar be
Ġbest Ã¤
Ġlu ci
Ġvoor bij
Ġkon zentri
Ġsat ell
Ġvec inos
Ġmos ca
ĠGr unde
Ġpreoccup arsi
Ġsci vol
Ġvert elde
Ġchar acters
ĠfÃ¡cil mente
ster reich
Ġdiscuss ione
86 0
Ð¾Ð ³
Ġdocum entos
ĠFil me
Ġcast elo
Ġchair s
Ġul timi
Ġpermit ido
Ġpack ing
Ġembarrass ing
Ġyen es
bild et
tre ten
Ġpromet iÃ³
Ġinse cts
Ġtive mos
Ġcigar ettes
Ġanzi ana
Ġwit ch
Ġactiv ities
icion ado
zelf de
Ġconne ction
urte ilt
Ġbegrij pen
Ġonge veer
Ġasciug am
impress ed
ĠJew ish
Ġdisple ased
D ia
F O
F Ã¼
H alte
M ater
P la
l ingen
er f
Ġt ela
Ġt Ã¶ten
es is
Ġl anz
Tom e
el k
el ang
Ġdi eron
Ġun impressed
ĠÃ ¦
ri ga
ut us
Ġsa br
Ġper nas
Ġer as
ÃŃ dio
Ã¶ hne
ĠG as
Ġsch Ã¼tzen
Ġall mÃ¤hlich
ap ed
ĠestÃ¡ is
ĠD enken
Ġauf passen
Ġdis respect
Ġhel fe
Ġimp az
gi an
Ġent weder
In felizmente
Ġro vin
Ġnu bes
ide te
Ġcam pa
ĠO ma
Ġwo von
Ġpod rÃŃas
tig ung
iti u
Ġob ten
Ġger ettet
Ġgl im
Ġreg ist
ĠEr laubnis
Ġze e
Un ione
Ġvers pre
ĠAn na
Ġestar ÃŃa
Ġdist anza
Ġval id
Ġconhe ceu
ric t
Ã¤ll en
Ġhabit antes
Ġopp on
Ġtir ato
Ġarrabbi ate
ĠÈĻ tie
ĠGre at
Ġcamp os
Ġdiscuss ing
Ġcad ere
Ġroad s
Ġconven ient
Ġhinter lassen
Ġrigu arda
Ġnun quam
Ġgele gt
Ġfred da
Ġincre ÃŃble
Ġassist ance
Ġvot ar
Ġquar rel
Ġlett ura
ĠKan ada
ontro lle
Perd ÃŃ
ĠMad ag
Ġobject s
Ġingen uo
Ġfascin ated
Pap a
Ġfranz Ã¶sisch
Ġdeser ved
Ġobi ettivo
gewÃ¶hn lich
Ġyog a
Ġstrug gled
Ġbesta at
ĠpersÃ¶n lich
ĠlÃ¤ng st
ĠErinner ung
azi enda
Ġaufgew achsen
Ġtreas ure
Mes mo
I I
M on
O ff
c ento
h inter
j n
n issen
Ġa ur
Ġh ello
Ġw agen
at ra
Ġv illa
Ġe urer
et era
Ġk or
Ġbe ans
Ġch op
ent ito
ĠS hin
Ġz Ã¤hlt
Ġre ina
ur do
Ġj aren
Ġfor n
Ġfor z
Ġso ber
ink st
ab lo
ci ente
Wh ether
Qu eres
ĠT ak
ĠK op
Ġdel eted
ĠJ ul
Ġpl ot
ĠR Ã¤tsel
ĠC am
Ġke hrte
Ġna il
Ġaf ric
Ġpass ando
Ġpass age
Ġpass agem
Ġhet zelfde
Ġniet waar
ult ure
Ġapp el
Ġcap tur
Ġfac uldade
Ġ2 000
Ġbl anca
Ġvu elo
Ġhand en
Ġdov rÃł
Ġgew eld
Ġpic cole
Ġsegu e
Ġdro ga
aus to
Ge gen
Ge hst
ĠMutter sprach
Ġpreoccup i
Ġpaz za
Ġdra uf
Ġfall imento
Ġ201 0
Ġdeber ÃŃan
Ġopp osed
Ġverw irrt
Ġinvit ados
ĠGre en
ĠMit ternacht
Ġbot Ã³n
Ġmot el
ĠPh antasie
Far esti
fang s
Ġgentile zza
Ġthrow ing
Ġade qu
Ġservi Ã§o
cei ved
Ġfoc used
Ġarrog ante
ĠKre bs
Ġcarre tera
Ġbild en
Ġsne ak
Ġciocc olata
Ġjournal ist
Ġlitig are
Ġhiel ten
Ġrappres ent
Ġtart ar
Ye ah
Ġcuidad oso
Ġsoub esse
Ġlievel ings
ĠespÃ©c ie
Ġshah ada
E ng
N Ã¤ch
O gnuno
d ienst
f ire
s le
u ed
y ment
om st
Ġw ard
Ġl amenta
Ġf et
Ġg ij
Ġg ara
Ġqu ante
ic ional
ĠM c
and in
Ġque ira
ĠS icht
Ġz Ã¶
Ġal f
one te
Ã¼ m
il f
ĠB and
Ã³ is
Ġpar es
Ġel abor
ĠF ieber
ink el
Ġge geven
ow ing
ĠK ugel
ne as
Ġpre cious
co ol
gu ard
Ġdes istir
Ġsol ch
Ġvo bis
pr ints
ati ves
Ġent sp
ct ic
Ġfa x
Is s
ste ht
Ġbet alen
ru zione
Ġperson almente
ĠAr gum
Ġfl our
Ã©s semos
Ġmost ly
Ġaff il
cere bbe
imm y
Ġdist ant
Ġingl esa
Ġaj ed
ress ed
Ã¤r t
Ġconv inta
Ġble ef
Ġanswer ing
Ġadd icted
Ġ3 5
Ġnorm ally
Ġrad i
Ġbol ÃŃ
Ñģ Ñı
Ġbede ckt
Ġdisco ver
ensch w
Ġscre am
Ġcoll aps
ĠcÃ¡ r
ĠWind ows
ĠLo jban
Ġhil f
will ig
Ġaffair s
Asp etta
Ġanx iety
Ġosc uridad
Ġotten uto
Gl Ã¼ck
Ġbrasile iro
fÃ¤l tig
Ġpractic ing
ĠFol ge
Ġersche inen
verstÃ¤nd lich
Ġconden ado
fÃ¼hr ung
Ġchiar amente
Ġequip ment
Ġextraordin ary
ĠSus an
ĠLÃ¼ gner
Estu ve
Ġesqui ar
Ġvle es
Ġgetr ennt
Ġclin ic
Ov viamente
Ġverjaard ag
G lauben
P ret
T res
f ice
h otel
l ow
l ers
om be
ar an
Ġh yd
Ġc esta
Ġc ough
Ġn ass
Ġf assen
Ġto ate
ĠI acob
Ġal imento
ur ufen
Ġsa ia
Ġsa cer
Ġver li
Ġle bens
ĠB ir
ĠB ei
Ã¤ chen
ĠL Ã¼gen
ami entos
Ġma Ã±
ĠG lÃ¤
ĠE ig
ĠT u
ĠP fe
Ġex ager
Ġwor ries
Ġauf halten
ĠC al
sch lagen
sch auen
ati vi
iss et
Ġro l
ba u
anto or
Ġvis ible
Ġlet ras
Ġaus gesch
Ġaus einander
Ġop t
Ġesc utar
Ġve gan
Ġvor ige
Ġpod es
Ġfal sa
Ġnach denken
Ġbes tim
par te
vel o
Ġob t
Ġins ens
Ġsent Ã¬
Ġinto ler
itu tion
Ġaw fully
Ġstr umento
Ġwin s
Cu anto
Ġvers ion
Ġcerc Ã²
Ġbed ro
Ġwieder holen
Ġmangi Ã²
Ġguard ar
Ġsuper are
Ġhay as
Ġadm its
ĠBr ust
Ġba ja
Ġzie ken
ĠÐ º
Ġscri ps
Ġeinfach e
Ġcab ello
Ġdecir te
Ġpost c
Ġverw acht
Ġlic enÃ§a
Ġged uldig
Ġsuit able
Quer Ã©s
Ġgele zen
ĠFar ben
Ġscop rire
Ġcondu ctor
Ġcrede te
Ġlung hi
ĠEle kt
ĠCol umbus
ĠX X
Ġgroot ste
Ġdiret tamente
Ġconver tir
ĠlÃŃ nea
Ġcanc ro
Ġdiam ante
Ġrepe ated
Ġdisag re
ĠOk inawa
Ġrug by
Ġtratt ato
ĠâĢ ĭ
ĠRes pekt
Ġdelay ed
ĠHor iz
Ġaconse jÃ³
Ġconflic t
ĠVorte il
elligen z
Ġheirate te
Ġpassatem po
ĠTÃ¶ chter
H om
H urry
I rei
J ohann
R esta
S ing
b ora
f ish
k rÃ¤
Ġw isst
Ġp our
Ġl up
al og
et it
ad io
Ġi Phone
ic ar
Ġof icial
Ġr and
Ġne gl
ÃŃ b
ok t
Ġdu ck
op ter
ort al
ĠJ ames
ĠW Ã¼n
Ġdes agrad
ma ils
Ġdis miss
Ġad ver
ven to
ĠV ort
Ġtra uri
Ãī sta
Ġfa int
Ġdir itti
Ġspe elt
Ġav rebbero
Ġnach gedacht
Ġreal izar
Ġhand writ
Ġhab its
ender Ã²
Ġesper ado
Ġbest raft
Ġbuy s
ĠFre izeit
Ġvac as
iert os
Ġgef Ã¼hrt
Ġtie mpos
ges etzt
Ġcr ud
cher Ã²
Ġconv icted
Ġ19 4
Ġble eding
Ġdep orte
Ġhu ilen
ĠBl itz
ĠGesch w
zz ato
Ġbring ing
Ġerk ennt
Ġflo g
Ac onte
Ġveder le
Ġtriste za
Ġsalv ato
Ġscrit ta
Ġlem on
Ġdocum enti
ĠfrÃ¼h stÃ¼ck
Ġfool ed
ĠPoliz isten
Ġbede ut
ÑĢ Ð¸
Ġfault s
fle isch
Ġconhec emos
ĠGem Ã¤
Ġcoinc iden
Ġmoder ne
Ġherman as
ĠbenÃ¶ tigen
Ġscr isse
ĠFlÃ¼ gel
Ġcorp us
Ġdirgli elo
angu age
Ble ib
ĠMÃ¤r chen
Ġdefiniti vamente
ĠÃĦr zte
Ġsax ophone
Ġoor log
Ġbuck et
Ġweiger te
ĠBreta gna
Ġtecl ado
Ġeduca Ã§Ã£o
Ġtromb one
ĠVerfÃ¼ gung
Ġajed rez
3 3
E ÈĻti
L uck
M anten
h ava
i la
l ijke
v ado
Ġa ug
at eli
Ġb uf
Ġv Ãªm
Ġch erry
and ers
la im
end ung
ĠF uchs
Ã¶ ch
ĠW ild
Ġsc use
Ġsta gno
Ġimp lic
ĠV is
Ġmir ada
Ġqual itÃł
hl ten
ĠSt ation
ĠO fen
Ġben issimo
Ġbr ushed
ĠGe or
cis o
Ġgro ter
Ġconf ron
Ġpla cent
Ġverd es
ath y
ĠMar kku
Ġapr ess
Ġdoch ter
Ġcr isti
wor fen
Vor rebbero
Ġcontro lar
oud t
Ġrid ic
Ġtemp os
Ġprote ction
ĠAus lÃ¤nder
Ġpun ito
Ġimpress Ã£o
ĠEin stein
ĠEin ladung
Ġoffer to
Ġignor ant
Ġgeb acken
Ġfiz emos
Ġfabbr ica
Ġviv ido
Ġschlecht es
Ġrequ ested
Ġgebe urt
Ġtend rÃ¡
Ġpeace ful
Ġfantas mas
Ġbug ia
Ġarran ged
Ġcirc unst
Bu ona
ĠFrank rijk
Ġtar get
Ġtar jeta
Ġblau en
Ġdig ital
Ġbrill iant
Ġrifiut Ã²
ĠMor occo
Ġassass inato
Ġventi l
Ġmun icip
Ġcoinc idence
Ġconne cted
ĠCo okie
ĠVerb indung
ĠKap it
Ġlid ar
Ġfarmer s
Ġkompl iziert
Ġnause a
ĠSoc ken
ĠestÃºp ida
ĠtÄĥ u
ĠElef anten
ĠmÃ©to do
Ġerreich te
Colo que
ĠThurs day
D in
F ast
S w
S ure
U ni
c ula
c uff
u ze
w enden
y mp
Ġa chten
in fer
on ho
Ġp Äĥ
Ġth us
is ero
Ġn utz
Ġb art
Ġf ung
Ġg alax
Ġv amp
te vi
Ġe b
et hoven
Ġan ne
he iros
Ġk ilo
Ġbe hal
Ġal imenta
Ġr uft
Ã¤ hren
Ġpar al
Ġpar edes
se e
est ras
Ġsp ider
Ġat Ã¢t
av al
Ġda quela
Ġac asÄĥ
ib les
Ġpor quÃª
lo od
Ġgr as
Sie hst
sch reiben
Ġsta bil
Ġpu es
Ġco bra
Ġchi eda
ct ing
enti eri
Ġdec ise
Ġexp uls
Ġhab Ã©is
Ġresp ira
Ġmus h
Ġlle g
Ġfic am
An na
Wer den
Ġmer cy
wor king
ĠSe g
Ġtrans par
Ġcontro le
Ġadd ition
Ġvel hos
Ġcolle cted
Pro p
Ġstre am
Ġkom isch
Ã©r amos
Ġfall ito
Ġ201 5
Vole vano
Ġnom es
Ġrespons able
Ġreco ger
Ġprest ado
Ġspo on
Ġsle e
Ġinizi ando
Ġpick y
Ġemo tions
Ġobs essed
Ġjung er
Ð½ Ð¾
Ġcondu ce
Ġconfer enza
Ġjan elas
Ġrepar iert
Ġview s
ĠWohn zimmer
Ġbatter y
Ġner ves
Ġdefe ated
Ġdebt s
Ġtit olo
ĠnegÃ³ cios
Ġquin ze
Sup ongo
Ġannoi ato
Ġcoraggi oso
lÃ¤ss ig
zÃ¼ glich
ĠmÃŃn imo
Ġabgesch lossen
Ġfranco bo
Jos Ã©
Ġeurop Ã¤
Incl uso
ĠmaÃ± anas
F rau
H ar
L ond
O ut
S end
c rit
m Ã¼
p ap
s an
v ina
Ġt rei
en ing
Ġs barazz
in Ã²
ar abo
Ġw ag
Ġc ÃŃr
Ġn ick
Ġb ones
Ġe erst
Ġdi edi
Ġi Pad
ĠI D
ĠS ul
Ġz omb
ter ÃŃa
ver ai
Ġle kker
ĠA cht
Ġer hÃ¶
Ġso portar
ĠG a
av or
Ġman us
ĠT emp
Ġar ia
ĠN A
lo ge
Ġauf gestanden
ma ÃŁen
Di rei
Ġtra ge
Ġag arr
Ġcont amin
hl ess
Ġmin acci
Ġcol ores
Ġpass ati
Ġwo onde
Ġdr itten
Ġdar gli
Ġcap isci
Ġmis under
Ġger edet
omm ige
auf s
ĠEn kel
Ġaw ard
Ġimport Ã¢ncia
ĠVer mÃ¶gen
iert as
Ġdom us
ÈĻ it
Ġcount ing
ull en
Dies en
Ġleg go
Ġsenti vo
Ġschw immt
Ġfood s
ĠzurÃ¼ck kommen
atto li
Would n
Ġaconte Ã§a
Ġgol fe
Ġverm utlich
Ġeconom ia
Ġeconom ico
Ġpen al
elf de
Ġdet esta
ĠGed anke
Sar ai
Ġpick ing
Ġconosce va
Ð¾Ð ±
Ġcontr Ã¡rio
Tra bal
ĠMo zart
Ġfri go
Ġscre amed
Ġmult itud
Ġforeign ers
Contin ua
Ġtyp ho
Ġov vio
Ġdepart amento
ĠLi isa
Ġchieder lo
Ġsorprend iÃ³
Ġdesign ed
Ġcot ta
Ġchem istry
ĠLauf e
Ġpecun iam
Ġrisc ald
Ġphilosoph y
Ġottim ista
Ġgegenseit ig
ĠMob ilt
ĠYam ada
ĠRis iko
Ġbicy cles
A f
M ul
b Ã³
r Ã¬
z ier
Ġ ell
er ti
Ġt ende
Ġs ine
in ante
ch y
Ġc akes
Ġb ass
Ġb atta
Ġin und
ad el
Ġde uses
ĠM ik
ĠM angel
Ġk atten
Ġch ick
Ġver bo
Ġr ange
Ġr ostro
Ġle ather
ĠA ffen
Ã¤ umen
Ġen er
ui re
Ġab stra
Ġum ore
Ġum gehen
ier es
Ġsh aking
Ġdu idelijk
Es os
Ġex sp
Do ch
gu ed
ĠR ic
Ġcas arse
Ġpi etra
sch riften
Ġser i
Ġent ero
In ghilterra
Ġbu urt
Ġor ch
ang ed
Ġsind s
orm al
bl ado
Ġcam is
ĠO ze
ru ppen
Ġexp enses
ja ia
Ġvu ota
Ġaber to
Ġhand led
Ġconf usa
Ġverd uras
Ġmas k
Cu al
ath on
ath ed
Ġhor rÃŃvel
Ġmil itar
Ġpag ou
Ġpra yer
Ġhal en
zu bringen
sp ro
Ġhurt ing
Ġhung er
Ġverg isst
Ġnat uur
ĠPol onia
Ġserv ant
Ġeff ett
Ġnas ci
Re ce
Ġquick er
Aqu el
Sp iel
Ġveder ci
Ġtur b
Ġprison er
Ġnar anja
Ġaufge geben
Ġpiens an
Ġrespe k
ĠÃ®nt reb
Ġego ista
Ġego ÃŃsta
ĠGem ein
Ġportugu Ã©s
spra chen
Ġpian ist
lev ant
Ġteil nehmen
Ġcatt urato
Ġtast ed
Ġincol pare
ĠÃ¤hn elt
Ġclar amente
Ġverschied enen
Ġmulti ple
Bl ijf
Ġnervi oso
Ġenth usiastic
Ġuncon vinc
Ġalmor zar
ÃŃfic os
ĠFÃ¼hr erschein
ĠBeweg ung
ettbewer b
Ġorrib ile
Ġglim la
ĠâĢĭ âĢĭ
Ġmush room
k tiv
m eter
z el
z inha
Ġs its
Ġh arto
an til
Ġw elt
Ġp Ã©rd
Ġc Ã¢n
Ġun ic
ĠM Ã¤nnern
id dag
ĠÃ į
ay er
Ġal Ã©r
Ġcon n
Ġver bl
Ã¤ ub
ui riel
ot land
be eld
Ãª me
Ġpro ceed
ge k
Ġsp ontane
ab itudine
ĠE ver
ort ed
ast es
Ġri fle
Ġcar reg
Ġsta vamo
Ġtra jo
Ġra cis
De be
Ġbu ra
Ġvis o
we h
Ġaus ger
Ġres o
cer a
bi an
ari us
Ġ2 8
Ġbl ieben
Ġmis st
onder d
ĠRe isen
Ġmat Ã³
Ġinf ran
Ġreg nete
Ġarri vi
Ġaff itto
Ġprom esa
Ġvoor z
Ġcri ar
Ġunter richtet
Ġinteress ati
Ze ig
tag on
Ġ19 0
Mar k
leich en
Ġcred ito
Ġtemp lo
mar k
Ġucc ello
Ġdra wn
Ġimag ined
Ch issÃł
Ġverm isst
Ġdol ci
ĠmÃ©d icos
Ġscar f
Ð¸ Ð»
Ġvent anas
Ġcrit ical
Ġclos est
indi rizzo
ĠMo on
Ġbetra chten
Ġveloc itÃł
Ġfirm ato
ĠArm ut
Ġbee ilen
Ġrim ase
ĠlÃŃ qu
ĠEntsche id
Ġgrass a
Any one
Ġmut ual
Ġoccas ione
ĠPres idente
Ġparticip ate
Ġemple ados
Ġpubblic itÃł
Ġserp ente
Ale x
ĠBerl ino
Ġwein ig
Ġnipo te
Ġzond ag
ĠWednes day
ĠMadag ascar
A di
T aro
l it
l ong
l timamente
n ungen
Å «
Ñ ĳ
om odo
Ġp att
Ġc Ã¡n
Ġc idades
it Ã¤ten
Ġg ola
Ġto wer
Ġe ÈĻti
to t
Ġdo ble
ĠM art
st Ã¼cke
Ã¼ mmer
ĠB re
ÃŃ os
Ġab e
Ġel Ã©t
Ġso ph
ul si
ĠK al
ne cess
ĠP ona
Ġcost osa
ien es
ĠJ uni
ĠJ oe
gu ida
Ġmi ele
ĠD ies
Ġcas os
Ġauf gere
Ġcar i
La urie
ĠC entral
Ġsc ett
Ġsc olded
Ġout do
Ġho eft
Ġpi ante
ele gt
ĠV ene
ĠZ iele
iss ens
Ġent schied
Me g
Ġqual ified
Ġten ÃŃan
Ġbel as
Ġnow adays
Ġap ud
ert es
tim mung
Ġunder estim
Ġwr est
Ġvers ich
Ġpare ja
Ġesp ect
Ġfic aria
An cora
Ġtrov armi
Ġsucc essi
Ġol or
Ġsuper vis
Ġhabl es
Ġprepar a
Ġtorn ado
pro ble
Ġanni vers
Ã´ metros
Ġarriv al
Ġero e
Ġstudent en
Ġsun ny
Ġserv ants
Ġsagt est
Ġsold ado
Ġrad ical
Ġsb aglio
Ġange zogen
Ac est
Ġdic it
Ġchia cchier
ĠwÃ¼n scht
Ġhuis werk
ĠSpiel er
Ġapolog y
Ġpasse i
Ġschlie ÃŁt
Ġhabla ba
Ġobj etos
Ġmuse u
ĠSal at
ĠHung arian
Ġsuggest ing
ĠRa uch
ĠÃ¤nd ert
Ġanz usehen
Ġcapac idad
ĠprÃ³p rios
Ġspec chio
Ġcandid ato
Ġabbandon are
Ġsorprend ido
Ġcorret to
Spe ak
Ġpit ch
ĠAuss icht
Ġconclus ion
Ġapag ar
Ġmart edÃ¬
ĠSer bia
Ġpromo tion
Ġconvin cer
ĠvÄĥ zut
Ġkur ze
Ġproib ido
ĠDec ke
ĠNeu igkeiten
Ã¤tz chen
Ġgiusti zia
Ġswit ch
Ġentusias mo
Ġwechsel n
Ġcasual idad
Ġontb ijt
ĠHob by
ĠIrrt um
Ġledig lich
Ġzen uw
Ġtraff ico
E v
G isteren
W essen
b ab
g age
m acht
r Ã¡n
v ou
Ġs fr
in um
Ġm ica
Ġw aved
or ten
Ġb uff
Ġan scheinend
Ġi ra
Ġqu ind
ĠM ist
ĠM ater
ol es
Ġbe gangen
Ġbe ef
ir amente
Ġno le
Ġno od
Ġver Ã¶ff
Ġver Ã¤ndern
ÃŃ rit
Ã© ter
Ã¤ ger
Ġpar entes
ĠE very
ĠE iff
Ġfr ÃŃa
Ġfr uits
Ġpr eno
ĠT itan
Ġar qui
so le
Ġcost Ã³
ĠH an
ien er
Ġdes n
Ġpl Ã¡stico
ĠD ei
Ġdis to
Ġdis organ
Ġim it
Ġsta gione
ho ben
Ġpe pper
Ġaus g
Ġinter c
Ġmin us
Ġve hÃŃ
isch te
ĠÃ¼ber legen
Ġover he
Ġacc eler
Ġacc idents
Ġbl onde
Ġfavor iete
Ġfir me
Ġhand cuff
ĠVer stÃ¤nd
Ġou vidos
Ġpret endo
ĠwÃ¤ scht
gel open
Ma il
Ġhal ben
ph y
Ġtrans m
ĠHe bre
Ġ19 2
Ã¼t te
Ġtrou bles
Ġinten se
ĠGesch irr
Ġbiblio the
Ġcab in
Ġversch ill
Pot remmo
ĠEnt schuldigung
Ġverm ag
Ġconoc imiento
atic ally
ĠVers pÃ¤t
Ġali ke
Sc usa
Ġdez elfde
Ġspar are
Ġestu ve
Ġopportun ities
Ġnav ig
Komm st
ĠMill i
fre und
Ġtrasfer ito
Nun c
ugg le
ĠSchwe in
Ġsatisfe cho
Cl aro
Ġimbarazz ato
Ġcolon ial
Ġpeggi or
ĠFremd sprache
Ġassonn ato
Ġrecus ou
Ġgesam te
ĠkÃ¶st lich
Ġcafeter ia
ĠEint ritt
ĠTepp ich
H elen
O de
P ul
b Äĥ
c ura
f ree
g am
u co
v ato
Ã ģ
Ġ Yo
an cias
Ġc idad
Ġb Ã¡s
Ġb ona
el st
Ġv ij
ed ad
Ġin ge
Ġe ast
Ġun b
Ġk orre
Ġbe ab
Ġla c
Ġr Ã¼ck
Ġj en
Ġj ury
ass te
Ġpro ces
Ġge waschen
ĠL incoln
Ġma estra
ĠG ere
Ġcan al
Ġar chi
ĠH eraus
rui u
Ġsc usi
ven e
Ġser ving
ĠU FO
Me glio
Ġav reste
Ġav rete
ĠAl t
Ġgen Ã¼
Ġele zioni
Ġgrand chi
gan ta
asi ve
lie ÃŁen
Ġfer ido
ĠgroÃŁ artig
Ġunter st
Ġpes c
Ġleg end
Ġseg Ãºn
tiv ely
Con c
ĠÃ®n cer
Ġdro om
Ġhu ele
ĠschÃ¶n sten
Ġpat as
ric os
Ġlingu agem
Ġur ban
Ġprogr esso
aci fic
Ġliber ty
Ġecon Ã³m
Ġpiacc io
Ġtir es
Ġfair y
Ġster ven
Ġgrad ually
Ġgebe uren
Ġhar vest
Ġintent ar
Ġbehav i
Ġopportun itÃł
Dam it
Dam als
Ġacostum ado
Ġlift ed
WÃ¼r de
Ġschne it
Ġconcentr ate
Ġquant idade
Ġgelie hen
Ġobser ve
ĠDok ument
ĠDem okratie
Ġchim ica
Ġwink el
Ġinner halb
ĠDuits land
Ġreser va
ĠSchwei z
ĠGerÃ¼ cht
ĠBudd h
ĠKek se
Ġobed ecer
Ġquil Ã´metros
Ġnicio datÄĥ
Ġassa ult
ĠcÃ¡r cel
D ig
g ados
k arten
n it
s uch
v ind
á ¸
Ġd w
Ġd ama
es imo
Ġw isk
Ġc azz
Ġc oda
Ġl upo
Ġv este
Ġme x
Ġbe zig
ir mi
em or
end ing
ĠB auer
ĠA br
Ġpar ere
ui zen
Ġab orre
Ġso ort
Ġpro pr
Ġher ab
Ġher mos
ge fÃ¼hl
ab eth
ĠG ree
Ġcan n
Ġac id
ĠJ a
Ġcomp osition
gu ra
lo e
Ġmi x
ĠD us
ĠC ap
Ġsc ra
Ġad ot
Ġfe cha
Ġti es
Ġvor an
gh an
Ġfo glie
Ġav endo
Ġtro ppi
Ġben ven
di os
Ġacc um
Ġfac Äĥ
Ġele ven
Ġbra zos
Ġposs u
wer te
omm st
Ġreg ime
ĠEr f
ĠZeit ungen
ĠIn halt
Ġsec tion
Ġwin nen
Ġgra Ã§a
Ġph oned
Ġcontin ente
Ġschw ere
ĠÃ®n cÄĥ
Ġtorn ando
ĠBr and
Ġtri un
Ġpos itivo
eres ti
Ġcond ann
Ġnecess arily
Ġopin ioni
ator ia
Ġgest r
Ġpreocup ada
Ġprinci ples
ĠNew ton
Sh ut
Ac ab
Ġvie jos
Ġtravel s
Ġsepar ated
Sab emos
Ġfiz er
Ġbur gl
Ġinj ury
Ġbill ig
Ġappre zzo
Ġgenti li
Ġcomb attere
ĠUm gebung
Ġescuch a
Ġdisco very
Ġexpress Ã£o
Ġstim me
Ġcoll ina
ĠUnivers um
Ġense Ã±a
Fe ci
com ing
Ġconsci ence
Ġperman ecer
Ġunbe k
Ġinm ediato
Ġbewe gt
Ġcorret tamente
Ġtocc are
Ġalegr ÃŃa
Ġjump ing
Ġmuchach a
Ġdopp elt
Ġgebra uchen
Ġfiloso fia
Ġcuad ro
Ġerle bt
ĠHu hn
Ġverzei hen
Ġverand eren
Ġconci encia
Ġaccompan ied
Ġelen co
ĠunhÃ¶ flich
impro vviso
Ġvertig ini
ĠcÃ¡n cer
g ely
k Ã¤
p ot
u us
á ¹
er ne
er va
Ġt ui
Ġt asse
Ġm Ã¢n
Ġm iglia
Ġn ackt
Ġf ans
Ġv aria
Ġan unci
ad s
he u
ri ere
Ġla us
ur ando
ost os
Ġne at
ĠB ele
ell ner
ion a
Ġab use
Ġum sonst
Ġsp el
Ġcan ciones
Ġdu pÄĥ
[...]
