{
  "version": "1.0",
  "truncation": null,
  "padding": null,
  "added_tokens": [
    {
      "id": 0,
      "content": "<|endoftext|>",
      "single_word": false,
      "lstrip": false,
      "rstrip": false,
      "normalized": false,
      "special": true
    }
  ],
  "normalizer": null,
  "pre_tokenizer": {
    "type": "ByteLevel",
    "add_prefix_space": false,
    "trim_offsets": true,
    "use_regex": true
  },
  "post_processor": {
    "type": "ByteLevel",
    "add_prefix_space": true,
    "trim_offsets": false,
    "use_regex": true
  },
  "decoder": {
    "type": "ByteLevel",
    "add_prefix_space": true,
    "trim_offsets": true,
    "use_regex": true
  },
  "model": {
    "type": "BPE",
    "dropout": null,
    "unk_token": null,
    "continuing_subword_prefix": "",
    "end_of_word_suffix": "",
    "fuse_unk": false,
    "byte_fallback": false,
    "vocab": {
      "<|endoftext|>": 0,
      "!": 1,
      "\"": 2,
      "#": 3,
      "$": 4,
      "%": 5,
      "&": 6,
      "'": 7,
      "(": 8,
      ")": 9,
      "*": 10,
      "+": 11,
      ",": 12,
      "-": 13,
      ".": 14,
      "/": 15,
      "0": 16,
      "1": 17,
      "2": 18,
      "3": 19,
      "4": 20,
      "5": 21,
      "6": 22,
      "7": 23,
      "8": 24,
      "9": 25,
      ":": 26,
      ";": 27,
      "<": 28,
      "=": 29,
      ">": 30,
      "?": 31,
      "@": 32,
      "A": 33,
      "B": 34,
      "C": 35,
      "D": 36,
      "E": 37,
      "F": 38,
      "G": 39,
      "H": 40,
      "I": 41,
      "J": 42,
      "K": 43,
      "L": 44,
      "M": 45,
      "N": 46,
      "O": 47,
      "P": 48,
      "Q": 49,
      "R": 50,
      "S": 51,
      "T": 52,
      "U": 53,
      "V": 54,
      "W": 55,
      "X": 56,
      "Y": 57,
      "Z": 58,
      "[": 59,
      "\\": 60,
      "]": 61,
      "^": 62,
      "_": 63,
      "`": 64,
      "a": 65,
      "b": 66,
      "c": 67,
      "d": 68,
      "e": 69,
      "f": 70,
      "g": 71,
      "h": 72,
      "i": 73,
      "j": 74,
      "k": 75,
      "l": 76,
      "m": 77,
      "n": 78,
      "o": 79,
      "p": 80,
      "q": 81,
      "r": 82,
      "s": 83,
      "t": 84,
      "u": 85,
      "v": 86,
      "w": 87,
      "x": 88,
      "y": 89,
      "z": 90,
      "{": 91,
      "|": 92,
      "}": 93,
      "~": 94,
      "¡": 95,
      "¢": 96,
      "£": 97,
      "¤": 98,
      "¥": 99,
      "¦": 100,
      "§": 101,
      "¨": 102,
      "©": 103,
      "ª": 104,
      "«": 105,
      "¬": 106,
      "®": 107,
      "¯": 108,
      "°": 109,
      "±": 110,
      "²": 111,
      "³": 112,
      "´": 113,
      "µ": 114,
      "¶": 115,
      "·": 116,
      "¸": 117,
      "¹": 118,
      "º": 119,
      "»": 120,
      "¼": 121,
      "½": 122,
      "¾": 123,
      "¿": 124,
      "À": 125,
      "Á": 126,
      "Â": 127,
      "Ã": 128,
      "Ä": 129,
      "Å": 130,
      "Æ": 131,
      "Ç": 132,
      "È": 133,
      "É": 134,
      "Ê": 135,
      "Ë": 136,
      "Ì": 137,
      "Í": 138,
      "Î": 139,
      "Ï": 140,
      "Ð": 141,
      "Ñ": 142,
      "Ò": 143,
      "Ó": 144,
      "Ô": 145,
      "Õ": 146,
      "Ö": 147,
      "×": 148,
      "Ø": 149,
      "Ù": 150,
      "Ú": 151,
      "Û": 152,
      "Ü": 153,
      "Ý": 154,
      "Þ": 155,
      "ß": 156,
      "à": 157,
      "á": 158,
      "â": 159,
      "ã": 160,
      "ä": 161,
      "å": 162,
      "æ": 163,
      "ç": 164,
      "è": 165,
      "é": 166,
      "ê": 167,
      "ë": 168,
      "ì": 169,
      "í": 170,
      "î": 171,
      "ï": 172,
      "ð": 173,
      "ñ": 174,
      "ò": 175,
      "ó": 176,
      "ô": 177,
      "õ": 178,
      "ö": 179,
      "÷": 180,
      "ø": 181,
      "ù": 182,
      "ú": 183,
      "û": 184,
      "ü": 185,
      "ý": 186,
      "þ": 187,
      "ÿ": 188,
      "Ā": 189,
      "ā": 190,
      "Ă": 191,
      "ă": 192,
      "Ą": 193,
      "ą": 194,
      "Ć": 195,
      "ć": 196,
      "Ĉ": 197,
      "ĉ": 198,
      "Ċ": 199,
      "ċ": 200,
      "Č": 201,
      "č": 202,
      "Ď": 203,
      "ď": 204,
      "Đ": 205,
      "đ": 206,
      "Ē": 207,
      "ē": 208,
      "Ĕ": 209,
      "ĕ": 210,
      "Ė": 211,
      "ė": 212,
      "Ę": 213,
      "ę": 214,
      "Ě": 215,
      "ě": 216,
      "Ĝ": 217,
      "ĝ": 218,
      "Ğ": 219,
      "ğ": 220,
      "Ġ": 221,
      "ġ": 222,
      "Ģ": 223,
      "ģ": 224,
      "Ĥ": 225,
      "ĥ": 226,
      "Ħ": 227,
      "ħ": 228,
      "Ĩ": 229,
      "ĩ": 230,
      "Ī": 231,
      "ī": 232,
      "Ĭ": 233,
      "ĭ": 234,
      "Į": 235,
      "į": 236,
      "İ": 237,
      "ı": 238,
      "Ĳ": 239,
      "ĳ": 240,
      "Ĵ": 241,
      "ĵ": 242,
      "Ķ": 243,
      "ķ": 244,
      "ĸ": 245,
      "Ĺ": 246,
      "ĺ": 247,
      "Ļ": 248,
      "ļ": 249,
      "Ľ": 250,
      "ľ": 251,
      "Ŀ": 252,
      "ŀ": 253,
      "Ł": 254,
      "ł": 255,
      "Ń": 256,
      "er": 257,
      "Ġt": 258,
      "Ġa": 259,
      "en": 260,
      "Ġd": 261,
      "Ġs": 262,
      "in": 263,
      "ch": 264,
      "es": 265,
      "on": 266,
      "om": 267,
      "ar": 268,
      "Ġm": 269,
      "Ġh": 270,
      "an": 271,
      "Ġw": 272,
      "at": 273,
      "Ġp": 274,
      "Ġc": 275,
      "Ġth": 276,
      "is": 277,
      "or": 278,
      "Ġn": 279,
      "Ġl": 280,
      "as": 281,
      "Tom": 282,
      "ou": 283,
      "re": 284,
      "Ġb": 285,
      "Ġf": 286,
      "el": 287,
      "it": 288,
      "os": 289,
      "Ġg": 290,
      "Ġto": 291,
      "Ġv": 292,
      "ed": 293,
      "un": 294,
      "al": 295,
      "te": 296,
      "Ġin": 297,
      "Ġe": 298,
      "Ġdi": 299,
      "qu": 300,
      "Ġthe": 301,
      "am": 302,
      "ing": 303,
      "Ġo": 304,
      "et": 305,
      "Ġan": 306,
      "Ġis": 307,
      "ad": 308,
      "Ġi": 309,
      "Ġde": 310,
      "us": 311,
      "Ġqu": 312,
      "le": 313,
      "to": 314,
      "Ġy": 315,
      "Ġthat": 316,
      "Ġun": 317,
      "ie": 318,
      "Ġes": 319,
      "ro": 320,
      "Ġdo": 321,
      "ĠTom": 322,
      "ic": 323,
      "ĠM": 324,
      "'t": 325,
      "ll": 326,
      "ve": 327,
      "ia": 328,
      "id": 329,
      "he": 330,
      "ra": 331,
      "ich": 332,
      "Ġha": 333,
      "Ġyou": 334,
      "Ġk": 335,
      "ta": 336,
      "Ġse": 337,
      "ti": 338,
      "ol": 339,
      "ary": 340,
      "ere": 341,
      "Ġme": 342,
      "ĠÃ": 343,
      "Ġbe": 344,
      "ri": 345,
      "ir": 346,
      "Ġno": 347,
      "Ġand": 348,
      "um": 349,
      "Ġch": 350,
      "ent": 351,
      "im": 352,
      "ld": 353,
      "ig": 354,
      "and": 355,
      "em": 356,
      "Ġwas": 357,
      "ay": 358,
      "Ġla": 359,
      "ĠMary": 360,
      "Ġof": 361,
      "Ġque": 362,
      "Ġhe": 363,
      "ĠI": 364,
      "ĠS": 365,
      "are": 366,
      "Ġz": 367,
      "ter": 368,
      "Ġal": 369,
      "no": 370,
      "Ġcon": 371,
      "Ġre": 372,
      "Ã¡": 373,
      "ur": 374,
      "ut": 375,
      "ver": 376,
      "Ġcom": 377,
      "st": 378,
      "la": 379,
      "ost": 380,
      "Ġsa": 381,
      "Ã£": 382,
      "end": 383,
      "'s": 384,
      "Ġsu": 385,
      "Ġver": 386,
      "Ġein": 387,
      "Ġst": 388,
      "Ã£o": 389,
      "Ġwh": 390,
      "Ġr": 391,
      "Ġle": 392,
      "one": 393,
      "Ã¼": 394,
      "Ġgo": 395,
      "Ġper": 396,
      "ess": 397,
      "io": 398,
      "Ġne": 399,
      "il": 400,
      "ce": 401,
      "Ġche": 402,
      "ant": 403,
      "ĠB": 404,
      "icht": 405,
      "Ġj": 406,
      "Ġli": 407,
      "Ġfor": 408,
      "ĠA": 409,
      "oc": 410,
      "ke": 411,
      "Ġer": 412,
      "ÃŃ": 413,
      "Ã©": 414,
      "ould": 415,
      "Ã³": 416,
      "ht": 417,
      "ato": 418,
      "Ã¤": 419,
      "Non": 420,
      "Ġas": 421,
      "od": 422,
      "Ġpar": 423,
      "The": 424,
      "ag": 425,
      "se": 426,
      "Ġist": 427,
      "ly": 428,
      "Ġen": 429,
      "ui": 430,
      "ot": 431,
      "ell": 432,
      "ion": 433,
      "Ġab": 434,
      "ente": 435,
      "Ġon": 436,
      "Ich": 437,
      "Ġnicht": 438,
      "de": 439,
      "ĠÃ¨": 440,
      "hr": 441,
      "He": 442,
      "Ġel": 443,
      "ac": 444,
      "be": 445,
      "Ġdid": 446,
      "Ġnon": 447,
      "Ġest": 448,
      "pp": 449,
      "est": 450,
      "ass": 451,
      "ach": 452,
      "Ġso": 453,
      "ĠF": 454,
      "ind": 455,
      "ul": 456,
      "Ġwe": 457,
      "now": 458,
      "Ġum": 459,
      "Ġlo": 460,
      "Ġit": 461,
      "out": 462,
      "Ãª": 463,
      "Ġknow": 464,
      "ten": 465,
      "Ġdie": 466,
      "Ġhave": 467,
      "ith": 468,
      "ono": 469,
      "ens": 470,
      "ink": 471,
      "ud": 472,
      "ill": 473,
      "ate": 474,
      "Ġpro": 475,
      "Ġge": 476,
      "Ġher": 477,
      "ust": 478,
      "ge": 479,
      "Ġsp": 480,
      "Ġzu": 481,
      "Ã¶": 482,
      "ĠL": 483,
      "ami": 484,
      "ber": 485,
      "gen": 486,
      "Ġma": 487,
      "Ġwith": 488,
      "ab": 489,
      "ĠG": 490,
      "ado": 491,
      "ier": 492,
      "Ġnot": 493,
      "uch": 494,
      "Ġat": 495,
      "mp": 496,
      "ci": 497,
      "Ġwant": 498,
      "Ġhis": 499,
      "uf": 500,
      "ine": 501,
      "Th": 502,
      "ando": 503,
      "Ġsaid": 504,
      "ow": 505,
      "Ġil": 506,
      "Ġcan": 507,
      "Ġsch": 508,
      "ore": 509,
      "av": 510,
      "ĠE": 511,
      "Sami": 512,
      "az": 513,
      "Ġam": 514,
      "Wh": 515,
      "her": 516,
      "ĠÃ©": 517,
      "Ġfr": 518,
      "Ġpr": 519,
      "Ġsh": 520,
      "Qu": 521,
      "Ġuna": 522,
      "Ġtr": 523,
      "Ġder": 524,
      "ok": 525,
      "Ġthink": 526,
      "Ġdu": 527,
      "Ġdon": 528,
      "Ġall": 529,
      "Ġund": 530,
      "ij": 531,
      "Ġhas": 532,
      "Ġdidn": 533,
      "Ġman": 534,
      "gl": 535,
      "Ġte": 536,
      "ĠT": 537,
      "ann": 538,
      "Ġare": 539,
      "ĠK": 540,
      "Ãł": 541,
      "We": 542,
      "ome": 543,
      "up": 544,
      "Ġshe": 545,
      "Es": 546,
      "nd": 547,
      "âĢ": 548,
      "iam": 549,
      "ne": 550,
      "ocÃª": 551,
      "Ġdel": 552,
      "ĠnÃ£o": 553,
      "op": 554,
      "You": 555,
      "Ġda": 556,
      "ff": 557,
      "ap": 558,
      "ght": 559,
      "Ġar": 560,
      "all": 561,
      "so": 562,
      "che": 563,
      "Ġdas": 564,
      "ĠP": 565,
      "ben": 566,
      "Ġcost": 567,
      "oi": 568,
      "ei": 569,
      "Ġ\"": 570,
      "Ġthis": 571,
      "Ġex": 572,
      "ort": 573,
      "Ġus": 574,
      "Ġich": 575,
      "ĠH": 576,
      "ito": 577,
      "Mary": 578,
      "ese": 579,
      "Ġhim": 580,
      "va": 581,
      "ist": 582,
      "Ġhat": 583,
      "Ġmy": 584,
      "Ġden": 585,
      "She": 586,
      "iz": 587,
      "Ġthey": 588,
      "ai": 589,
      "Ġac": 590,
      "rui": 591,
      "Â¿": 592,
      "hn": 593,
      "Ġwill": 594,
      "'m": 595,
      "ien": 596,
      "Eu": 597,
      "ruire": 598,
      "ano": 599,
      "Ġcostruire": 600,
      "ĠJ": 601,
      "Io": 602,
      "ÃŁ": 603,
      "ard": 604,
      "ck": 605,
      "ast": 606,
      "ĠW": 607,
      "Ġsono": 608,
      "Ġpre": 609,
      "vo": 610,
      "ib": 611,
      "hing": 612,
      "Do": 613,
      "Ġcomp": 614,
      "Ġwhat": 615,
      "iamo": 616,
      "ec": 617,
      "Ġlike": 618,
      "Ġpor": 619,
      "co": 620,
      "Ġpara": 621,
      "go": 622,
      "ond": 623,
      "ĠestÃ¡": 624,
      "Ġwor": 625,
      "Ã§": 626,
      "per": 627,
      "Ġany": 628,
      "ora": 629,
      "gu": 630,
      "ung": 631,
      "Ġhad": 632,
      "It": 633,
      "ĠN": 634,
      "Ġdes": 635,
      "Ġsie": 636,
      "lo": 637,
      "chen": 638,
      "Ã²": 639,
      "aria": 640,
      "Ġri": 641,
      "enn": 642,
      "Ġyour": 643,
      "Ġpl": 644,
      "ak": 645,
      "Ġmi": 646,
      "Ġvi": 647,
      "Ġwould": 648,
      "ĠR": 649,
      "ĠD": 650,
      "mer": 651,
      "li": 652,
      "und": 653,
      "za": 654,
      "No": 655,
      "Ã¼r": 656,
      "ca": 657,
      "Ġcas": 658,
      "Ġget": 659,
      "Ġauf": 660,
      "Ġcar": 661,
      "Ġwar": 662,
      "La": 663,
      "lich": 664,
      "osa": 665,
      "ally": 666,
      "ought": 667,
      "Ġtold": 668,
      "ada": 669,
      "ug": 670,
      "ĠC": 671,
      "ha": 672,
      "ft": 673,
      "Ġsc": 674,
      "ÃŃa": 675,
      "Ġgoing": 676,
      "ger": 677,
      "ma": 678,
      "ade": 679,
      "Ġdis": 680,
      "Ġim": 681,
      ".\"": 682,
      "ight": 683,
      "Ġad": 684,
      "Ġsol": 685,
      "oss": 686,
      "Ġtim": 687,
      "Ġsich": 688,
      "Ġout": 689,
      "Ġwir": 690,
      "anno": 691,
      "ica": 692,
      "Ġdass": 693,
      "Ġho": 694,
      "Ġdoes": 695,
      "Ġmu": 696,
      "mo": 697,
      "Ġsi": 698,
      "Ġgr": 699,
      "Ġabout": 700,
      "Ġhel": 701,
      "Ġpi": 702,
      "sel": 703,
      "Er": 704,
      "Ġneed": 705,
      "Ġvo": 706,
      "Ġtod": 707,
      "ven": 708,
      "ata": 709,
      "They": 710,
      "oston": 711,
      "Ġtem": 712,
      "esto": 713,
      "Sie": 714,
      "oro": 715,
      "ĠBoston": 716,
      "sch": 717,
      "Ġmit": 718,
      "ue": 719,
      "ord": 720,
      "Ġsta": 721,
      "ho": 722,
      "ele": 723,
      "ren": 724,
      "ame": 725,
      "Ġimp": 726,
      "Ġby": 727,
      "Ġshould": 728,
      "'re": 729,
      "Ġwere": 730,
      "men": 731,
      "Ġvery": 732,
      "Ġser": 733,
      "ble": 734,
      "ice": 735,
      "'ll": 736,
      "Ġgi": 737,
      "'ve": 738,
      "Ġke": 739,
      "ina": 740,
      "me": 741,
      "ite": 742,
      "gn": 743,
      "Ġever": 744,
      "Ġtime": 745,
      "Ġpu": 746,
      "gi": 747,
      "Di": 748,
      "Ġeine": 749,
      "Ġem": 750,
      "ĠV": 751,
      "ĠSch": 752,
      "Ġup": 753,
      "ation": 754,
      "Ġtra": 755,
      "hen": 756,
      "Äĥ": 757,
      "Ġag": 758,
      "Ġco": 759,
      "Ġcome": 760,
      "Ġtu": 761,
      "Ġcould": 762,
      "Ã³n": 763,
      "uto": 764,
      "Ġra": 765,
      "ays": 766,
      "Ġone": 767,
      "ĠvocÃª": 768,
      "ong": 769,
      "ers": 770,
      "Ġisn": 771,
      "esta": 772,
      "Ġfe": 773,
      "Ġni": 774,
      "art": 775,
      "pr": 776,
      "ati": 777,
      "ante": 778,
      "amente": 779,
      "endo": 780,
      "Ġthought": 781,
      "ĠZ": 782,
      "Ġhere": 783,
      "Ġfrom": 784,
      "red": 785,
      "ido": 786,
      "El": 787,
      "VocÃª": 788,
      "vi": 789,
      "ĠU": 790,
      "Ġhelp": 791,
      "ran": 792,
      "ont": 793,
      "Ġwer": 794,
      "Ġbeen": 795,
      "fe": 796,
      "Ġdem": 797,
      "ÃĪ": 798,
      "ze": 799,
      "our": 800,
      "ry": 801,
      "Ġmir": 802,
      "iss": 803,
      "ĠSie": 804,
      "'d": 805,
      "Ġent": 806,
      "Ġsein": 807,
      "ked": 808,
      "Ġpe": 809,
      "ern": 810,
      "In": 811,
      "itÃł": 812,
      "Per": 813,
      "Ġuma": 814,
      "Ġhabe": 815,
      "Ġro": 816,
      "Ġesta": 817,
      "ba": 818,
      "den": 819,
      "What": 820,
      "Me": 821,
      "Ġdoesn": 822,
      "uss": 823,
      "po": 824,
      "Ã±": 825,
      "ale": 826,
      "Ġcu": 827,
      "ish": 828,
      "Ġmuch": 829,
      "Ã¡s": 830,
      "Die": 831,
      "Ġmo": 832,
      "Ġgu": 833,
      "Ġbo": 834,
      "De": 835,
      "Ik": 836,
      "ici": 837,
      "Das": 838,
      "ustr": 839,
      "ico": 840,
      "cc": 841,
      "tion": 842,
      "ayla": 843,
      "Ġpo": 844,
      "Mi": 845,
      "Ġcasa": 846,
      "Ġchi": 847,
      "Ġna": 848,
      "Ġmol": 849,
      "Ġwho": 850,
      "Ġbu": 851,
      "Ġbut": 852,
      "Ġlook": 853,
      "ack": 854,
      "Ġstud": 855,
      "Ġera": 856,
      "Ġor": 857,
      "anto": 858,
      "ous": 859,
      "Ġlos": 860,
      "Ġvis": 861,
      "itt": 862,
      "ero": 863,
      "Ġreally": 864,
      "ase": 865,
      "og": 866,
      "nt": 867,
      "ang": 868,
      "Ġqual": 869,
      "amos": 870,
      "rei": 871,
      "Ġcl": 872,
      "self": 873,
      "Ġlet": 874,
      "Ġti": 875,
      "Ġvon": 876,
      "we": 877,
      "Ġcont": 878,
      "ave": 879,
      "Ġmich": 880,
      "hl": 881,
      "Ġaus": 882,
      "Ġthem": 883,
      "orn": 884,
      "Ġdoing": 885,
      "This": 886,
      "alia": 887,
      "ree": 888,
      "Ġgood": 889,
      "Ġals": 890,
      "ita": 891,
      "Ġhapp": 892,
      "ct": 893,
      "Ġop": 894,
      "Ġthere": 895,
      "esso": 896,
      "ile": 897,
      "Ġu": 898,
      "wn": 899,
      "ana": 900,
      "Ġfat": 901,
      "Ġinter": 902,
      "ione": 903,
      "Ġnever": 904,
      "ĠAustr": 905,
      "Ġif": 906,
      "Ġevery": 907,
      "Ġlas": 908,
      "Ġpa": 909,
      "Ġsti": 910,
      "cia": 911,
      "Ho": 912,
      "Ġfin": 913,
      "bre": 914,
      "Ġtell": 915,
      "Ã¬": 916,
      "br": 917,
      "Ġkann": 918,
      "que": 919,
      "Ġeen": 920,
      "Ġca": 921,
      "thing": 922,
      "ijn": 923,
      "ohn": 924,
      "fer": 925,
      "ep": 926,
      "Ġjust": 927,
      "Ġres": 928,
      "Ġnu": 929,
      "Ġfare": 930,
      "Ġsind": 931,
      "Ġter": 932,
      "orm": 933,
      "Ãī": 934,
      "ide": 935,
      "Ġtal": 936,
      "Ġess": 937,
      "Il": 938,
      "Ġir": 939,
      "ken": 940,
      "Ġtut": 941,
      "Ġsome": 942,
      "Ġfa": 943,
      "Ġten": 944,
      "ĠSt": 945,
      "Ġthan": 946,
      "Ġesc": 947,
      "ĠMaria": 948,
      "ional": 949,
      "Ġmin": 950,
      "ound": 951,
      "ect": 952,
      "ose": 953,
      "ars": 954,
      "ento": 955,
      "cer": 956,
      "chÃ©": 957,
      "bl": 958,
      "Se": 959,
      "Ãº": 960,
      "Ġaf": 961,
      "Ġeinen": 962,
      "ute": 963,
      "lla": 964,
      "NÃ£o": 965,
      "enti": 966,
      "Ġta": 967,
      "ves": 968,
      "cht": 969,
      "pe": 970,
      "Ġcam": 971,
      "ĠfÃ¼r": 972,
      "Ġve": 973,
      "ĠO": 974,
      "Ġwork": 975,
      "Ã¹": 976,
      "Ġcol": 977,
      "Ġsua": 978,
      "Ġuns": 979,
      "elt": 980,
      "Ã¶n": 981,
      "isch": 982,
      "Ġcer": 983,
      "Ġpass": 984,
      "Ġje": 985,
      "ater": 986,
      "Ġpers": 987,
      "omet": 988,
      "Ġgot": 989,
      "âĢľ": 990,
      "ely": 991,
      "mente": 992,
      "Ġges": 993,
      "Ġhet": 994,
      "ahr": 995,
      "Ġihr": 996,
      "Al": 997,
      "ty": 998,
      "Ġpia": 999,
      "Ġdec": 1000,
      "Ġvor": 1001,
      "How": 1002,
      "ek": 1003,
      "Ġlav": 1004,
      "ĠÃ¼": 1005,
      "Is": 1006,
      "gh": 1007,
      "jo": 1008,
      "Ġvol": 1009,
      "ick": 1010,
      "ied": 1011,
      "Ġci": 1012,
      "ida": 1013,
      "etto": 1014,
      "Ġwhen": 1015,
      "bi": 1016,
      "Ġpri": 1017,
      "Ġos": 1018,
      "Ġeu": 1019,
      "Ġmolto": 1020,
      "Ġdir": 1021,
      "ved": 1022,
      "Ġspe": 1023,
      "ino": 1024,
      "Ġpens": 1025,
      "Ġwo": 1026,
      "ĠpiÃ¹": 1027,
      "ste": 1028,
      "use": 1029,
      "Ġmore": 1030,
      "ĠLayla": 1031,
      "Ġbet": 1032,
      "ried": 1033,
      "Ele": 1034,
      "Ġdr": 1035,
      "Lei": 1036,
      "Ġnaz": 1037,
      "Der": 1038,
      "Ġbel": 1039,
      "ĠAustralia": 1040,
      "Wir": 1041,
      "Ġsee": 1042,
      "Ġot": 1043,
      "âĢŀ": 1044,
      "Ġwie": 1045,
      "That": 1046,
      "Ġfo": 1047,
      "Ġtheir": 1048,
      "Ġfi": 1049,
      "Ġnazional": 1050,
      "Ġwanted": 1051,
      "ĠnazionalitÃł": 1052,
      "ĠÃ¼ber": 1053,
      "riend": 1054,
      "Ġstill": 1055,
      "Ġnow": 1056,
      "Ġproble": 1057,
      "Ġsay": 1058,
      "Ġcor": 1059,
      "Ġav": 1060,
      "Ġtro": 1061,
      "Ġhaben": 1062,
      "Ġfaz": 1063,
      "ett": 1064,
      "ain": 1065,
      "Ġhow": 1066,
      "Ġmor": 1067,
      "era": 1068,
      "Ġpod": 1069,
      "Ġback": 1070,
      "tig": 1071,
      "Ġwasn": 1072,
      "And": 1073,
      "ello": 1074,
      "Ġmai": 1075,
      "ure": 1076,
      "Ġet": 1077,
      "Ġwon": 1078,
      "Ġhome": 1079,
      "Ġaqu": 1080,
      "Ġoff": 1081,
      "Ġalle": 1082,
      "Ġqui": 1083,
      "Ã¨": 1084,
      "Ġmais": 1085,
      "Ġniet": 1086,
      "res": 1087,
      "anc": 1088,
      "Ġap": 1089,
      "ans": 1090,
      "Ġfav": 1091,
      "ult": 1092,
      "acht": 1093,
      "ru": 1094,
      "Ġben": 1095,
      "nen": 1096,
      "Le": 1097,
      "Ġmein": 1098,
      "Ġfar": 1099,
      "ras": 1100,
      "di": 1101,
      "Sono": 1102,
      "Ġmar": 1103,
      "Ġkne": 1104,
      "unt": 1105,
      "Ġsto": 1106,
      "mpre": 1107,
      "Ġsei": 1108,
      "Du": 1109,
      "Est": 1110,
      "Ġdar": 1111,
      "Ġapp": 1112,
      "osso": 1113,
      "Ġisso": 1114,
      "Ġnoch": 1115,
      "ĠAl": 1116,
      "Ġdies": 1117,
      "Ġcos": 1118,
      "Ġover": 1119,
      "ole": 1120,
      "int": 1121,
      "Ġmet": 1122,
      "Ġknew": 1123,
      "ura": 1124,
      "Ġquesto": 1125,
      "Ġgen": 1126,
      "ise": 1127,
      "alt": 1128,
      "Lui": 1129,
      "There": 1130,
      "ople": 1131,
      "Ġexp": 1132,
      "mi": 1133,
      "glio": 1134,
      "ob": 1135,
      "land": 1136,
      "der": 1137,
      "etz": 1138,
      "row": 1139,
      "ough": 1140,
      "Ġdich": 1141,
      "PerchÃ©": 1142,
      "ĠLe": 1143,
      "Ġmuito": 1144,
      "ede": 1145,
      "Ã¼ck": 1146,
      "anz": 1147,
      "Ġ1": 1148,
      "age": 1149,
      "Ġfal": 1150,
      "ari": 1151,
      "Ġtalk": 1152,
      "ori": 1153,
      "Ġvan": 1154,
      "Why": 1155,
      "Ġcap": 1156,
      "Ġacc": 1157,
      "Ġonly": 1158,
      "Ġloro": 1159,
      "iÃŁ": 1160,
      "Por": 1161,
      "Ġqualc": 1162,
      "Ġbin": 1163,
      "Ġass": 1164,
      "Ġsomet": 1165,
      "iti": 1166,
      "att": 1167,
      "Ġye": 1168,
      "ĠUn": 1169,
      "Ġwird": 1170,
      "Ġson": 1171,
      "bra": 1172,
      "Ġtoo": 1173,
      "Ġnach": 1174,
      "Ġcons": 1175,
      "Ġfac": 1176,
      "Ha": 1177,
      "gg": 1178,
      "na": 1179,
      "Ġcomo": 1180,
      "ub": 1181,
      "Ġbr": 1182,
      "gt": 1183,
      "ity": 1184,
      "Ġbes": 1185,
      "Ã¤t": 1186,
      "ody": 1187,
      "Ġpol": 1188,
      "Ġcompr": 1189,
      "rench": 1190,
      "ĠmÃ¡s": 1191,
      "Ġsal": 1192,
      "Ġfu": 1193,
      "par": 1194,
      "vel": 1195,
      "Ġtom": 1196,
      "ings": 1197,
      "Ġwa": 1198,
      "My": 1199,
      "Ġbus": 1200,
      "Ġele": 1201,
      "Tu": 1202,
      "vers": 1203,
      "Ġagain": 1204,
      "Ġpeople": 1205,
      "Ġhou": 1206,
      "Ġvai": 1207,
      "ĠFrench": 1208,
      "Ġdat": 1209,
      "Ġlot": 1210,
      "Ġva": 1211,
      "Ġeat": 1212,
      "Ġsem": 1213,
      "ĠHa": 1214,
      "ĠJohn": 1215,
      "ady": 1216,
      "Ġessere": 1217,
      "Ġai": 1218,
      "Ġandare": 1219,
      "Ġinc": 1220,
      "Ġ2": 1221,
      "Ġperson": 1222,
      "Ġlie": 1223,
      "Pens": 1224,
      "Ġven": 1225,
      "Ãīl": 1226,
      "Ġseem": 1227,
      "ving": 1228,
      "Ġdei": 1229,
      "ment": 1230,
      "hi": 1231,
      "Ġbra": 1232,
      "Ġih": 1233,
      "ommen": 1234,
      "Ġhappen": 1235,
      "Ġmal": 1236,
      "ert": 1237,
      "Ġvero": 1238,
      "ola": 1239,
      "vete": 1240,
      "ĠAr": 1241,
      "elo": 1242,
      "ella": 1243,
      "Ġdone": 1244,
      "ali": 1245,
      "ying": 1246,
      "Ġfl": 1247,
      "Ġbl": 1248,
      "Ġmen": 1249,
      "Ġmis": 1250,
      "au": 1251,
      "bbe": 1252,
      "Ġtake": 1253,
      "Ã§Ã£o": 1254,
      "Ġlast": 1255,
      "Ġob": 1256,
      "ende": 1257,
      "Ġtre": 1258,
      "eren": 1259,
      "Ġspeak": 1260,
      "Ġsomething": 1261,
      "Ġdetto": 1262,
      "get": 1263,
      "eld": 1264,
      "Ġbef": 1265,
      "wo": 1266,
      "ĠSp": 1267,
      "Ġtoday": 1268,
      "oso": 1269,
      "Ġour": 1270,
      "ful": 1271,
      "rit": 1272,
      "Ġdur": 1273,
      "Ġsor": 1274,
      "Ġposs": 1275,
      "Was": 1276,
      "Ġsehr": 1277,
      "Ġins": 1278,
      "Ġcosa": 1279,
      "tim": 1280,
      "other": 1281,
      "Ġfind": 1282,
      "onder": 1283,
      "je": 1284,
      "Ġpres": 1285,
      "Ġsm": 1286,
      "edo": 1287,
      "tern": 1288,
      "Ġfriend": 1289,
      "iene": 1290,
      "Ġright": 1291,
      "body": 1292,
      "Ġnew": 1293,
      "oney": 1294,
      "Ġsent": 1295,
      "Ġinto": 1296,
      "ng": 1297,
      "Ġmake": 1298,
      "Ġsuo": 1299,
      "Ġide": 1300,
      "Lo": 1301,
      "bt": 1302,
      "Ġfam": 1303,
      "edi": 1304,
      "Ġcall": 1305,
      "Ġanything": 1306,
      "Ġtempo": 1307,
      "xt": 1308,
      "Ġday": 1309,
      "Ġnie": 1310,
      "Ġasked": 1311,
      "Ġeste": 1312,
      "Ġmio": 1313,
      "Ġdiff": 1314,
      "pt": 1315,
      "Ġsin": 1316,
      "oman": 1317,
      "Ġnur": 1318,
      "Ġwhy": 1319,
      "Ã¶r": 1320,
      "Ġquer": 1321,
      "emos": 1322,
      "ni": 1323,
      "Ġway": 1324,
      "biamo": 1325,
      "ĠGe": 1326,
      "Ġfavor": 1327,
      "Ġlei": 1328,
      "Ã©s": 1329,
      "Ġsure": 1330,
      "Ġwent": 1331,
      "Ġsoll": 1332,
      "Ġmoney": 1333,
      "Ġhier": 1334,
      "Ġfazer": 1335,
      "iel": 1336,
      "Ġmach": 1337,
      "Si": 1338,
      "ool": 1339,
      "Don": 1340,
      "Â¡": 1341,
      "anza": 1342,
      "Ġsen": 1343,
      "gli": 1344,
      "Ġlong": 1345,
      "Ġable": 1346,
      "Ġplay": 1347,
      "ance": 1348,
      "ways": 1349,
      "Ġreal": 1350,
      "Maria": 1351,
      "man": 1352,
      "Ela": 1353,
      "kt": 1354,
      "able": 1355,
      "Ġthree": 1356,
      "ja": 1357,
      "Ġmia": 1358,
      "ated": 1359,
      "heit": 1360,
      "Ġmight": 1361,
      "Ġsempre": 1362,
      "bro": 1363,
      "chte": 1364,
      "Ġenc": 1365,
      "Ġbis": 1366,
      "Ãªs": 1367,
      "uno": 1368,
      "Ġhouse": 1369,
      "Ġother": 1370,
      "Ġger": 1371,
      "ire": 1372,
      "Ġihn": 1373,
      "ela": 1374,
      "Ġvu": 1375,
      "Ġalways": 1376,
      "Ġknows": 1377,
      "fen": 1378,
      "ggi": 1379,
      "Ġdin": 1380,
      "was": 1381,
      "Ġparl": 1382,
      "Ġmade": 1383,
      "ga": 1384,
      "Dove": 1385,
      "Ġhop": 1386,
      "gr": 1387,
      "Ġplan": 1388,
      "Ã³s": 1389,
      "Ġmehr": 1390,
      "Ġerano": 1391,
      "Ġzijn": 1392,
      "ĠcosÃ¬": 1393,
      "Ġqualcosa": 1394,
      "uc": 1395,
      "pa": 1396,
      "oth": 1397,
      "ena": 1398,
      "ĠÃł": 1399,
      "Ġrec": 1400,
      "cis": 1401,
      "Ġgl": 1402,
      "Ġwell": 1403,
      "Ġvisit": 1404,
      "Ġanc": 1405,
      "Ġaber": 1406,
      "arn": 1407,
      "ĠRe": 1408,
      "igen": 1409,
      "wer": 1410,
      "Ġsolo": 1411,
      "Ġweek": 1412,
      "Ġschool": 1413,
      "Ġfir": 1414,
      "Ġfil": 1415,
      "Ġsays": 1416,
      "Ġlan": 1417,
      "Ġwerden": 1418,
      "Ġmat": 1419,
      "Ġkein": 1420,
      "Ġgrand": 1421,
      "urn": 1422,
      "ĠZe": 1423,
      "Ġprof": 1424,
      "ĠâĢŀ": 1425,
      "Ġlui": 1426,
      "Ġmany": 1427,
      "Ġfranc": 1428,
      "omm": 1429,
      "hor": 1430,
      "ents": 1431,
      "Ġviel": 1432,
      "Ġvost": 1433,
      "Did": 1434,
      "Ġinf": 1435,
      "iÃ³n": 1436,
      "zo": 1437,
      "ados": 1438,
      "Ġhand": 1439,
      "adre": 1440,
      "Ġbetter": 1441,
      "ros": 1442,
      "amo": 1443,
      "00": 1444,
      "itu": 1445,
      "Ġancora": 1446,
      "Ġstay": 1447,
      "eder": 1448,
      "auf": 1449,
      "lease": 1450,
      "Ġafter": 1451,
      "Ġprob": 1452,
      "Ġhab": 1453,
      "Ġgut": 1454,
      "Ġbefore": 1455,
      "ĠEn": 1456,
      "Ġbook": 1457,
      "Ġwouldn": 1458,
      "Ġunder": 1459,
      "zi": 1460,
      "Ġlik": 1461,
      "esse": 1462,
      "Ġaw": 1463,
      "orrow": 1464,
      "Ġwhere": 1465,
      "Ġmes": 1466,
      "Ġint": 1467,
      "Ġfoi": 1468,
      "Ġfatto": 1469,
      "Ġris": 1470,
      "gan": 1471,
      "stand": 1472,
      "ss": 1473,
      "ĠkÃ¶n": 1474,
      "olo": 1475,
      "Ġimmer": 1476,
      "Ġbro": 1477,
      "Ella": 1478,
      "do": 1479,
      "Ġreg": 1480,
      "Ġwenn": 1481,
      "ces": 1482,
      "ĠEr": 1483,
      "Ġwait": 1484,
      "Ġchild": 1485,
      "ibt": 1486,
      "osto": 1487,
      "Ã§a": 1488,
      "Ġalg": 1489,
      "Ġvez": 1490,
      "Ġold": 1491,
      "Noi": 1492,
      "Ġstr": 1493,
      "Ġste": 1494,
      "Ġsur": 1495,
      "Ġmeu": 1496,
      "ester": 1497,
      "rem": 1498,
      "Ġques": 1499,
      "ender": 1500,
      "Ġheb": 1501,
      "Ġmag": 1502,
      "til": 1503,
      "Ã©m": 1504,
      "Ġnos": 1505,
      "iste": 1506,
      "unca": 1507,
      "Wie": 1508,
      "Ġsus": 1509,
      "Ġgre": 1510,
      "Ġgro": 1511,
      "Ġpiace": 1512,
      "Ġfeel": 1513,
      "uro": 1514,
      "Ġeinem": 1515,
      "Ġetwas": 1516,
      "Ġdella": 1517,
      "beit": 1518,
      "Ġdown": 1519,
      "Ġdov": 1520,
      "Ġbar": 1521,
      "ret": 1522,
      "Ġconf": 1523,
      "asi": 1524,
      "Ġcou": 1525,
      "Ġinv": 1526,
      "pl": 1527,
      "If": 1528,
      "Com": 1529,
      "Ġpas": 1530,
      "mal": 1531,
      "bo": 1532,
      "Ġcal": 1533,
      "Ġschon": 1534,
      "cho": 1535,
      "Ġproblem": 1536,
      "Ġquando": 1537,
      "ĠweiÃŁ": 1538,
      "zen": 1539,
      "Ġbelie": 1540,
      "segn": 1541,
      "Ġfun": 1542,
      "ĠMens": 1543,
      "Ġresp": 1544,
      "rio": 1545,
      "Ġwants": 1546,
      "Ġcre": 1547,
      "min": 1548,
      "gar": 1549,
      "Ġmuss": 1550,
      "Ġstart": 1551,
      "ĠFran": 1552,
      "igo": 1553,
      "day": 1554,
      "Ġwonder": 1555,
      "eri": 1556,
      "Ġlove": 1557,
      "Ġhimself": 1558,
      "Ġesper": 1559,
      "Ġze": 1560,
      "Ġnost": 1561,
      "Ġfel": 1562,
      "Ġprobab": 1563,
      "ige": 1564,
      "Let": 1565,
      "Ġgew": 1566,
      "Ġhom": 1567,
      "Ġbit": 1568,
      "Ġwat": 1569,
      "Ġik": 1570,
      "Ġseu": 1571,
      "ini": 1572,
      "anti": 1573,
      "Ġfirst": 1574,
      "Ġao": 1575,
      "Ġdos": 1576,
      "Ġzur": 1577,
      "Ġput": 1578,
      "Ġcare": 1579,
      "Ġzw": 1580,
      "Ġnada": 1581,
      "Ġpart": 1582,
      "Ġmus": 1583,
      "Ġeven": 1584,
      "ner": 1585,
      "Ġmust": 1586,
      "Ġbest": 1587,
      "ava": 1588,
      "ĠZeit": 1589,
      "Ġbuy": 1590,
      "Ġkeine": 1591,
      "Ġpal": 1592,
      "Are": 1593,
      "Ġleft": 1594,
      "Ġlavoro": 1595,
      "Ġlife": 1596,
      "Ġhard": 1597,
      "Ġalt": 1598,
      "fic": 1599,
      "Ġnext": 1600,
      "Ġmay": 1601,
      "Ġposso": 1602,
      "etzt": 1603,
      "geria": 1604,
      "rau": 1605,
      "Ġused": 1606,
      "ara": 1607,
      "Ġalla": 1608,
      "Ġwur": 1609,
      "ank": 1610,
      "As": 1611,
      "ons": 1612,
      "lie": 1613,
      "ised": 1614,
      "Ã¤n": 1615,
      "ĠIn": 1616,
      "ista": 1617,
      "ennad": 1618,
      "Ġzum": 1619,
      "ĠGes": 1620,
      "Ġaren": 1621,
      "ittle": 1622,
      "Ġroom": 1623,
      "Ġimport": 1624,
      "Ġestava": 1625,
      "Ġsupp": 1626,
      "Ġwr": 1627,
      "ĠVer": 1628,
      "ppo": 1629,
      "Ġvia": 1630,
      "Ġpla": 1631,
      "Penso": 1632,
      "ĠmÃ¶": 1633,
      "Ġou": 1634,
      "Ġgli": 1635,
      "Ġcouldn": 1636,
      "Ġarri": 1637,
      "zione": 1638,
      "Can": 1639,
      "Ġlittle": 1640,
      "Voi": 1641,
      "Ã¼n": 1642,
      "Ġyears": 1643,
      "Ġsia": 1644,
      "Ġtele": 1645,
      "chi": 1646,
      "Ġauch": 1647,
      "ĠFre": 1648,
      "ors": 1649,
      "Ġsec": 1650,
      "rie": 1651,
      "lam": 1652,
      "Ġverd": 1653,
      "Ten": 1654,
      "Mennad": 1655,
      "Ġtomorrow": 1656,
      "Ġdire": 1657,
      "idad": 1658,
      "assen": 1659,
      "ontr": 1660,
      "Ġquesta": 1661,
      "When": 1662,
      "Ġom": 1663,
      "Ġleave": 1664,
      "âĢĵ": 1665,
      "ima": 1666,
      "ingu": 1667,
      "Ġdisse": 1668,
      "Un": 1669,
      "Ġjob": 1670,
      "Ġvac": 1671,
      "tet": 1672,
      "Ġdog": 1673,
      "Ġhast": 1674,
      "Tod": 1675,
      "Ġinsegn": 1676,
      "ĠBer": 1677,
      "ider": 1678,
      "Ġ/": 1679,
      "Ã¢": 1680,
      "Ġteach": 1681,
      "Ġstato": 1682,
      "bia": 1683,
      "Ġwin": 1684,
      "let": 1685,
      "Ġmas": 1686,
      "Ġdein": 1687,
      "iert": 1688,
      "Ġhai": 1689,
      "Ġread": 1690,
      "ĠquÃ©": 1691,
      "Ġeiner": 1692,
      "Ġnight": 1693,
      "Ġmuy": 1694,
      "leep": 1695,
      "ĠsÃ£o": 1696,
      "ies": 1697,
      "Ġbre": 1698,
      "ffe": 1699,
      "ores": 1700,
      "Ġask": 1701,
      "Ġeverything": 1702,
      "Ġgel": 1703,
      "igli": 1704,
      "ein": 1705,
      "ĠWe": 1706,
      "ready": 1707,
      "gte": 1708,
      "isten": 1709,
      "Ġalready": 1710,
      "Ġsobre": 1711,
      "Ġprobably": 1712,
      "amb": 1713,
      "Ġprop": 1714,
      "Ġpic": 1715,
      "So": 1716,
      "Ġsig": 1717,
      "tor": 1718,
      "Wenn": 1719,
      "osed": 1720,
      "bal": 1721,
      "Ġtiene": 1722,
      "udo": 1723,
      "Ġhatte": 1724,
      "Hij": 1725,
      "Man": 1726,
      "ive": 1727,
      "Ġgef": 1728,
      "Ġtodo": 1729,
      "bar": 1730,
      "uer": 1731,
      "Ġidea": 1732,
      "Ġtutto": 1733,
      "Ġmost": 1734,
      "ys": 1735,
      "Ġaff": 1736,
      "cere": 1737,
      "Questo": 1738,
      "Ġnichts": 1739,
      "aten": 1740,
      "Ġpret": 1741,
      "Cu": 1742,
      "Ġtook": 1743,
      "Ġmom": 1744,
      "Ġdan": 1745,
      "Ġsaw": 1746,
      "igh": 1747,
      "Ġmeine": 1748,
      "irl": 1749,
      "Ġbene": 1750,
      "En": 1751,
      "Ġgive": 1752,
      "Ġtwo": 1753,
      "Ġdav": 1754,
      "inda": 1755,
      "Ġminha": 1756,
      "Ġlearn": 1757,
      "Ġant": 1758,
      "Ġlibro": 1759,
      "bst": 1760,
      "Ġpot": 1761,
      "ister": 1762,
      "ily": 1763,
      "Ġihm": 1764,
      "Ġdelle": 1765,
      "lio": 1766,
      "gua": 1767,
      "Ein": 1768,
      "ible": 1769,
      "Ġconos": 1770,
      "keit": 1771,
      "Ġdal": 1772,
      "eft": 1773,
      "erv": 1774,
      "Ġvers": 1775,
      "Ġpare": 1776,
      "Ġwurde": 1777,
      "ĠEngl": 1778,
      "ane": 1779,
      "Ġlive": 1780,
      "Ġsel": 1781,
      "ath": 1782,
      "Ġemp": 1783,
      "Ġthings": 1784,
      "lau": 1785,
      "Ġseine": 1786,
      "urt": 1787,
      "ence": 1788,
      "orto": 1789,
      "Ġprom": 1790,
      "gio": 1791,
      "Ġcame": 1792,
      "Ġhij": 1793,
      "ĠJap": 1794,
      "lia": 1795,
      "Ġdisc": 1796,
      "Ġhappy": 1797,
      "Ġtun": 1798,
      "Ġandate": 1799,
      "ieder": 1800,
      "ĠwÃ¤": 1801,
      "inha": 1802,
      "Che": 1803,
      "iche": 1804,
      "Ġmed": 1805,
      "ungen": 1806,
      "ĠIt": 1807,
      "Ġdom": 1808,
      "Ġbeg": 1809,
      "Ġsw": 1810,
      "Ġoc": 1811,
      "Ġaiut": 1812,
      "Vo": 1813,
      "Ġfer": 1814,
      "Ġmeet": 1815,
      "Qui": 1816,
      "Ġtodos": 1817,
      "ually": 1818,
      "Ġwoll": 1819,
      "rebbe": 1820,
      "anda": 1821,
      "Ġcerc": 1822,
      "ĠMar": 1823,
      "ĠAn": 1824,
      "ĠÃ®": 1825,
      "ĠPar": 1826,
      "Ġlu": 1827,
      "ĠCh": 1828,
      "Ġbei": 1829,
      "very": 1830,
      "Ġhor": 1831,
      "gel": 1832,
      "Ġandiamo": 1833,
      "..": 1834,
      "War": 1835,
      "Ġhope": 1836,
      "Ġquello": 1837,
      "Vi": 1838,
      "Ġoder": 1839,
      "Where": 1840,
      "mos": 1841,
      "Ġgio": 1842,
      "Ġwal": 1843,
      "Ġrem": 1844,
      "Ġyet": 1845,
      "th": 1846,
      "Ġmod": 1847,
      "iro": 1848,
      "Ci": 1849,
      "Ġhanno": 1850,
      "Ġgirl": 1851,
      "Ġhacer": 1852,
      "Ġnel": 1853,
      "Ġfriends": 1854,
      "kommen": 1855,
      "Layla": 1856,
      "Âł": 1857,
      "Ġmil": 1858,
      "vid": 1859,
      "onte": 1860,
      "Ġesp": 1861,
      "Ġbelieve": 1862,
      "Ġkind": 1863,
      "ischen": 1864,
      "Esta": 1865,
      "Ġvado": 1866,
      "Ġsing": 1867,
      "hre": 1868,
      "Vai": 1869,
      "Ġavete": 1870,
      "Ġrel": 1871,
      "Ġaway": 1872,
      "Ġvole": 1873,
      "cha": 1874,
      "Ġfound": 1875,
      "ting": 1876,
      "Ġprecis": 1877,
      "Ġvisto": 1878,
      "Ġvanno": 1879,
      "Ġrep": 1880,
      "tain": 1881,
      "imm": 1882,
      "Ġtutti": 1883,
      "osta": 1884,
      "Va": 1885,
      "Who": 1886,
      "Ġdri": 1887,
      "ange": 1888,
      "Ġwerde": 1889,
      "toy": 1890,
      "Ġset": 1891,
      "Ġalles": 1892,
      "Het": 1893,
      "Sei": 1894,
      "Ġaqui": 1895,
      "Ġgra": 1896,
      "ik": 1897,
      "Ġnum": 1898,
      "Andiamo": 1899,
      "undo": 1900,
      "ĠÃ©l": 1901,
      "Ġdrink": 1902,
      "idade": 1903,
      "Ġaut": 1904,
      "nte": 1905,
      "Ġwish": 1906,
      "ieren": 1907,
      "Este": 1908,
      "Ġvida": 1909,
      "Quando": 1910,
      "Ġbir": 1911,
      "Ġsabe": 1912,
      "almente": 1913,
      "Ġtie": 1914,
      "Ġneeds": 1915,
      "Ġfather": 1916,
      "qui": 1917,
      "Ġestud": 1918,
      "itar": 1919,
      "Ġshow": 1920,
      "ian": 1921,
      "Ġlle": 1922,
      "Pu": 1923,
      "Ã©n": 1924,
      "ĠwÃ¼r": 1925,
      "essen": 1926,
      "ÈĽ": 1927,
      "vis": 1928,
      "iger": 1929,
      "ciÃ³n": 1930,
      "Qual": 1931,
      "edes": 1932,
      "Ġsoon": 1933,
      "Ġown": 1934,
      "Ġchildren": 1935,
      "Ġhappened": 1936,
      "Ġasp": 1937,
      "Ġunderstand": 1938,
      "Ġvoor": 1939,
      "Ġenough": 1940,
      "Ġalgo": 1941,
      "aro": 1942,
      "Ġcat": 1943,
      "Ġela": 1944,
      "este": 1945,
      "ĠKind": 1946,
      "Ġgrande": 1947,
      "inc": 1948,
      "Ġfic": 1949,
      "Ġgave": 1950,
      "Ġbec": 1951,
      "Los": 1952,
      "Ġdiz": 1953,
      "ock": 1954,
      "more": 1955,
      "Ġdoor": 1956,
      "Ġgibt": 1957,
      "Ġjo": 1958,
      "An": 1959,
      "Ġplann": 1960,
      "QuÃ©": 1961,
      "Ġtrov": 1962,
      "Ġscu": 1963,
      "Ġnuo": 1964,
      "Andate": 1965,
      "ĠgroÃŁ": 1966,
      "Vado": 1967,
      "Ġcri": 1968,
      "Ġbeing": 1969,
      "Ġunter": 1970,
      "Ġdorm": 1971,
      "Ġheeft": 1972,
      "Ġfra": 1973,
      "ges": 1974,
      "Ã±o": 1975,
      "ivers": 1976,
      "ÈĻ": 1977,
      "Ġverl": 1978,
      "Every": 1979,
      "ather": 1980,
      "Ġinteress": 1981,
      "ĠMenschen": 1982,
      "cil": 1983,
      "Ġlun": 1984,
      "Ġanymore": 1985,
      "Ġoften": 1986,
      "Ġsar": 1987,
      "ĠmÃ¼": 1988,
      "Ġestar": 1989,
      "Ġbad": 1990,
      "Ġgem": 1991,
      "arly": 1992,
      "Ġparte": 1993,
      "Ġbed": 1994,
      "Ġvoglio": 1995,
      "bbiamo": 1996,
      "ested": 1997,
      "aar": 1998,
      "sche": 1999,
      "Ġgehen": 2000,
      "hne": 2001,
      "Ġric": 2002,
      "imo": 2003,
      "Ġsame": 2004,
      "Ġmachen": 2005,
      "esterday": 2006,
      "ĠBe": 2007,
      "Ġwithout": 2008,
      "Ġneeded": 2009,
      "Ġwieder": 2010,
      "Ġfue": 2011,
      "Ġbem": 2012,
      "Ġtried": 2013,
      "orno": 2014,
      "Ġave": 2015,
      "Ġword": 2016,
      "Ze": 2017,
      "Ġdecid": 2018,
      "Ġuno": 2019,
      "Ġlooked": 2020,
      "ario": 2021,
      "aby": 2022,
      "als": 2023,
      "Ġcount": 2024,
      "ull": 2025,
      "sten": 2026,
      "atur": 2027,
      "Please": 2028,
      "ident": 2029,
      "Ġmangi": 2030,
      "Ġpag": 2031,
      "Ġend": 2032,
      "Loro": 2033,
      "Ġru": 2034,
      "ingen": 2035,
      "Ġherself": 2036,
      "Ġdeve": 2037,
      "isa": 2038,
      ".âĢľ": 2039,
      "tra": 2040,
      "cause": 2041,
      "ĠhÃ¤t": 2042,
      "All": 2043,
      "Ġsleep": 2044,
      "Dies": 2045,
      "ische": 2046,
      "Ġtroppo": 2047,
      "Ġbist": 2048,
      "Ġbecause": 2049,
      "Ġdue": 2050,
      "inn": 2051,
      "Ġheard": 2052,
      "Ã¶s": 2053,
      "ĠIs": 2054,
      "usta": 2055,
      "Ã±os": 2056,
      "ĠÃ¡": 2057,
      "Ġpes": 2058,
      "Ġtraba": 2059,
      "edere": 2060,
      "Ġdist": 2061,
      "Ġsim": 2062,
      "Ġproblema": 2063,
      "Ã¤ch": 2064,
      "ĠkÃ¶nnen": 2065,
      "Ġprima": 2066,
      "Ġapr": 2067,
      "Ġora": 2068,
      "Ġprofess": 2069,
      "30": 2070,
      "Come": 2071,
      "ĠTag": 2072,
      "issen": 2073,
      "rig": 2074,
      "Vanno": 2075,
      "Ġsoldi": 2076,
      "ĠEs": 2077,
      "Ġcin": 2078,
      "ÃŃas": 2079,
      "Ġingl": 2080,
      "ip": 2081,
      "Ġlate": 2082,
      "elle": 2083,
      "Ġwater": 2084,
      "vent": 2085,
      "Ġph": 2086,
      "Ġtrabal": 2087,
      "Ġsucc": 2088,
      "Ġthing": 2089,
      "aciÃ³n": 2090,
      "Ġwatch": 2091,
      "Chi": 2092,
      "Os": 2093,
      "Ġnunca": 2094,
      "Ġlavor": 2095,
      "les": 2096,
      "ĠAb": 2097,
      "Ġaan": 2098,
      "Ġpode": 2099,
      "Ġparlare": 2100,
      "Ma": 2101,
      "ioni": 2102,
      "Ġord": 2103,
      "ĠÃº": 2104,
      "cio": 2105,
      "ijk": 2106,
      "ĠGer": 2107,
      "Ġpra": 2108,
      "Ġcle": 2109,
      "gether": 2110,
      "Ġmont": 2111,
      "olog": 2112,
      "Ġvoi": 2113,
      "ÃŃs": 2114,
      "Te": 2115,
      "ĠpuÃ²": 2116,
      "Ġfre": 2117,
      "Ġaj": 2118,
      "Ġdoch": 2119,
      "azione": 2120,
      "landa": 2121,
      "Ġhal": 2122,
      "Ġsagen": 2123,
      "selves": 2124,
      "Ġtua": 2125,
      "ress": 2126,
      "esen": 2127,
      "ogno": 2128,
      "tag": 2129,
      "Ġind": 2130,
      "ucht": 2131,
      "hal": 2132,
      "Ġwrong": 2133,
      "uter": 2134,
      "Ġstudi": 2135,
      "Ġguard": 2136,
      "Ġtogether": 2137,
      "Ġaround": 2138,
      "Warum": 2139,
      "oco": 2140,
      "ĠDe": 2141,
      "Las": 2142,
      "Ġbisogno": 2143,
      "Ne": 2144,
      "eden": 2145,
      "eten": 2146,
      "Ġyear": 2147,
      "ins": 2148,
      "Ġquestion": 2149,
      "ĠAlgeria": 2150,
      "zt": 2151,
      "Ã¤nd": 2152,
      "Ġhum": 2153,
      "zu": 2154,
      "ital": 2155,
      "Ġans": 2156,
      "old": 2157,
      "iter": 2158,
      "Ġleg": 2159,
      "Ġyesterday": 2160,
      "NÃ³s": 2161,
      "eno": 2162,
      "Ġparty": 2163,
      "Ġmel": 2164,
      "Ġban": 2165,
      "rib": 2166,
      "Ġpero": 2167,
      "Ġsurpr": 2168,
      "Ġboth": 2169,
      "ple": 2170,
      "Ġconc": 2171,
      "ssen": 2172,
      "cul": 2173,
      "Ġsiete": 2174,
      "ace": 2175,
      "Ġprov": 2176,
      "Ti": 2177,
      "iÃ³": 2178,
      "ĠPro": 2179,
      "dio": 2180,
      "Ġspre": 2181,
      "uchen": 2182,
      "Ġpreoc": 2183,
      "eta": 2184,
      "Ġtan": 2185,
      "Ġvuole": 2186,
      "king": 2187,
      "Ġnothing": 2188,
      "Hai": 2189,
      "pped": 2190,
      "ĠJahr": 2191,
      "Ġworld": 2192,
      "Ġheute": 2193,
      "ĠsÄĥ": 2194,
      "ical": 2195,
      "âĢĻ": 2196,
      "Ġliv": 2197,
      "Ġopen": 2198,
      "pre": 2199,
      "Ġencontr": 2200,
      "Ã§o": 2201,
      "Ġlangu": 2202,
      "Ġsuoi": 2203,
      "Ġcr": 2204,
      "Wo": 2205,
      "On": 2206,
      "Ġsic": 2207,
      "Ġrich": 2208,
      "raid": 2209,
      "vere": 2210,
      "amen": 2211,
      "Wer": 2212,
      "uld": 2213,
      "St": 2214,
      "aram": 2215,
      "Ġmother": 2216,
      "Ġkeep": 2217,
      "Ġentr": 2218,
      "du": 2219,
      "Su": 2220,
      "Ã¤r": 2221,
      "Ġpadre": 2222,
      "Ġperm": 2223,
      "Ġganz": 2224,
      "agt": 2225,
      "Ġgeh": 2226,
      "Ġexpect": 2227,
      "Ġtry": 2228,
      "Ġtak": 2229,
      "Ġstarted": 2230,
      "ĠHaus": 2231,
      "entes": 2232,
      "Ġseg": 2233,
      "Ġgente": 2234,
      "Ġgreat": 2235,
      "Ġmind": 2236,
      "Ġsupposed": 2237,
      "Ġpron": 2238,
      "Ġries": 2239,
      "ĠGeld": 2240,
      "Ġfig": 2241,
      "Ġpesso": 2242,
      "Ġol": 2243,
      "hren": 2244,
      "amento": 2245,
      "Ġafraid": 2246,
      "una": 2247,
      "gra": 2248,
      "Ġhot": 2249,
      "Ġwi": 2250,
      "ĠjÃ¡": 2251,
      "mas": 2252,
      "Ġmorn": 2253,
      "Ġplanning": 2254,
      "Ġturn": 2255,
      "Ġerr": 2256,
      "Ġlikely": 2257,
      "Ġlooking": 2258,
      "uti": 2259,
      "Ġjetzt": 2260,
      "Ġletter": 2261,
      "omas": 2262,
      "Ġpretty": 2263,
      "Ġname": 2264,
      "Ġsab": 2265,
      "Ġanyone": 2266,
      "Ġmorning": 2267,
      "ĠMond": 2268,
      "uta": 2269,
      "Ġmundo": 2270,
      "Ġga": 2271,
      "His": 2272,
      "asc": 2273,
      "ĠmÃ¶chte": 2274,
      "ph": 2275,
      "Ġmer": 2276,
      "Ġsum": 2277,
      "ĠJapan": 2278,
      "Yo": 2279,
      "Ġbig": 2280,
      "mand": 2281,
      "hora": 2282,
      "Ġfrancese": 2283,
      "Ġlon": 2284,
      "Ġkon": 2285,
      "ĠLeben": 2286,
      "Ġbought": 2287,
      "mpo": 2288,
      "Ġbusy": 2289,
      "Ġtrad": 2290,
      "Ġdurch": 2291,
      "fici": 2292,
      "ember": 2293,
      "ĠArbeit": 2294,
      "uda": 2295,
      "isti": 2296,
      "ene": 2297,
      "vero": 2298,
      "Ġsagte": 2299,
      "ether": 2300,
      "Questa": 2301,
      "Ġlooks": 2302,
      "ador": 2303,
      "Ġsuper": 2304,
      "Era": 2305,
      "orta": 2306,
      "Ġ20": 2307,
      "Ġact": 2308,
      "Ãªn": 2309,
      "Be": 2310,
      "iera": 2311,
      "Ãµ": 2312,
      "omen": 2313,
      "ĠBerber": 2314,
      "ÃŃn": 2315,
      "gni": 2316,
      "Eles": 2317,
      "lic": 2318,
      "utter": 2319,
      "Ġnoi": 2320,
      "Ġfelt": 2321,
      "Ġref": 2322,
      "ommt": 2323,
      "Have": 2324,
      "ffen": 2325,
      "Ġseen": 2326,
      "Mein": 2327,
      "ished": 2328,
      "Ġcontin": 2329,
      "Ġgesch": 2330,
      "tiv": 2331,
      "unde": 2332,
      "Ġsk": 2333,
      "Ġalone": 2334,
      "ĠFe": 2335,
      "ona": 2336,
      "ĠSchw": 2337,
      "osp": 2338,
      "Ġestaba": 2339,
      "cher": 2340,
      "Ġhaven": 2341,
      "Ġdiese": 2342,
      "wor": 2343,
      "Ġlost": 2344,
      "Ġgan": 2345,
      "arte": 2346,
      "Ġsiamo": 2347,
      "Ġimpar": 2348,
      "Ġabbiamo": 2349,
      "Ġhabl": 2350,
      "Ġenjo": 2351,
      "ĠFrau": 2352,
      "fr": 2353,
      "Ġed": 2354,
      "Ġtanto": 2355,
      "Ġsou": 2356,
      "Ġport": 2357,
      "Ġnella": 2358,
      "Ġstop": 2359,
      "ili": 2360,
      "asse": 2361,
      "els": 2362,
      "Ġgar": 2363,
      "Ġplace": 2364,
      "arlo": 2365,
      "unden": 2366,
      "ĠgiÃł": 2367,
      "Ġdiver": 2368,
      "Estou": 2369,
      "Ġwhich": 2370,
      "Ġrag": 2371,
      "Con": 2372,
      "ĠSe": 2373,
      "Ġshouldn": 2374,
      "Ġtiempo": 2375,
      "ets": 2376,
      "Ġhour": 2377,
      "Ġsenti": 2378,
      "ĠestÃ£o": 2379,
      "Ġkill": 2380,
      "ĠwÃ¼rde": 2381,
      "ott": 2382,
      "Ġglau": 2383,
      "Ġay": 2384,
      "Ġviele": 2385,
      "Ã¼h": 2386,
      "Ġchiam": 2387,
      "Ġconv": 2388,
      "Ġsue": 2389,
      "Ġestou": 2390,
      "car": 2391,
      "rat": 2392,
      "Ġeas": 2393,
      "Ġvic": 2394,
      "Ġmie": 2395,
      "ugh": 2396,
      "most": 2397,
      "?âĢľ": 2398,
      "vol": 2399,
      "Ġtuo": 2400,
      "Sta": 2401,
      "Ġstor": 2402,
      "esser": 2403,
      "Ġmijn": 2404,
      "Ġdia": 2405,
      "Hab": 2406,
      "Ġbien": 2407,
      "Ġschw": 2408,
      "omani": 2409,
      "klich": 2410,
      "sp": 2411,
      "Ġwhether": 2412,
      "ffee": 2413,
      "vor": 2414,
      "Ġuse": 2415,
      "Ġkle": 2416,
      "Ġquanto": 2417,
      "Ġteacher": 2418,
      "Ġnaar": 2419,
      "Ġelse": 2420,
      "Ġprepar": 2421,
      "inge": 2422,
      "Vor": 2423,
      "Ġsho": 2424,
      "Ġcalled": 2425,
      "unto": 2426,
      "Ġclass": 2427,
      "Ġlar": 2428,
      "Ġanim": 2429,
      "Ġantes": 2430,
      "Ġeuch": 2431,
      "ria": 2432,
      "Ã¡n": 2433,
      "Ãµes": 2434,
      "Ġtenho": 2435,
      "Ġzo": 2436,
      "ĠaquÃŃ": 2437,
      "ĠY": 2438,
      "aba": 2439,
      "aring": 2440,
      "ared": 2441,
      "Ġfast": 2442,
      "ÃŁen": 2443,
      "Ġthr": 2444,
      "Ġdeine": 2445,
      "Ġtrans": 2446,
      "rad": 2447,
      "Ġmucho": 2448,
      "Cosa": 2449,
      "col": 2450,
      "arde": 2451,
      "iden": 2452,
      "estra": 2453,
      "ĠÃ®n": 2454,
      "esa": 2455,
      "essa": 2456,
      "etta": 2457,
      "Ġfoto": 2458,
      "Ġhay": 2459,
      "Ġprefer": 2460,
      "ald": 2461,
      "hos": 2462,
      "kes": 2463,
      "immer": 2464,
      "inci": 2465,
      "ize": 2466,
      "Ġvacanza": 2467,
      "Ġio": 2468,
      "its": 2469,
      "Ġauto": 2470,
      "ball": 2471,
      "Ġuntil": 2472,
      "Ġniente": 2473,
      "ited": 2474,
      "Gli": 2475,
      "Ġcomm": 2476,
      "à¤": 2477,
      "Ġconse": 2478,
      "omp": 2479,
      "jor": 2480,
      "enta": 2481,
      "ctor": 2482,
      "Ġbeh": 2483,
      "Ġwhile": 2484,
      "jar": 2485,
      "Ġlikes": 2486,
      "Ġsegu": 2487,
      "ĠMann": 2488,
      "Ġtrying": 2489,
      "Ġmiss": 2490,
      "Ġmarried": 2491,
      "Ġtorn": 2492,
      "Ġmac": 2493,
      "hlen": 2494,
      "zie": 2495,
      "ĠWelt": 2496,
      "Ġperd": 2497,
      "Ġremember": 2498,
      "cion": 2499,
      "Pre": 2500,
      "Ġexc": 2501,
      "Ġthese": 2502,
      "Que": 2503,
      "Ġbere": 2504,
      "hmen": 2505,
      "eira": 2506,
      "Ġseems": 2507,
      "iet": 2508,
      "rab": 2509,
      "Ġgeht": 2510,
      "Ġperf": 2511,
      "Ġpop": 2512,
      "Ġthir": 2513,
      "Ġready": 2514,
      "Ġthrough": 2515,
      "Ġang": 2516,
      "Ġey": 2517,
      "Ġeach": 2518,
      "Ġvolta": 2519,
      "Ġlang": 2520,
      "ign": 2521,
      "ĠAmer": 2522,
      "zia": 2523,
      "act": 2524,
      "Ġdecis": 2525,
      "Ġpiacere": 2526,
      "Ġmonth": 2527,
      "Am": 2528,
      "Ġeso": 2529,
      "Ġgetting": 2530,
      "Ġfew": 2531,
      "Ġdiffic": 2532,
      "Ġgusta": 2533,
      "Ã¤l": 2534,
      "Ã¶rt": 2535,
      "ĠsÃ³": 2536,
      "Ġocc": 2537,
      "used": 2538,
      "Ġgek": 2539,
      "Ġdavvero": 2540,
      "Ġamig": 2541,
      "ĠNe": 2542,
      "erg": 2543,
      "ume": 2544,
      "Ġtalking": 2545,
      "Ġton": 2546,
      "allen": 2547,
      "inter": 2548,
      "ĠBuch": 2549,
      "Ġella": 2550,
      "Ġbas": 2551,
      "Ġparents": 2552,
      "Ġdrei": 2553,
      "Ġdove": 2554,
      "Ġtot": 2555,
      "ugar": 2556,
      "ations": 2557,
      "Ġragaz": 2558,
      "Ġscuola": 2559,
      "inho": 2560,
      "laub": 2561,
      "Ġadm": 2562,
      "Sem": 2563,
      "ama": 2564,
      "uk": 2565,
      "Ġoggi": 2566,
      "Dov": 2567,
      "eln": 2568,
      "Ġanother": 2569,
      "con": 2570,
      "Ġstata": 2571,
      "ĠFl": 2572,
      "ĠFreund": 2573,
      "Ġ-": 2574,
      "amm": 2575,
      "ther": 2576,
      "glich": 2577,
      "izz": 2578,
      "Ġlasci": 2579,
      "Ġeinmal": 2580,
      "ĠTe": 2581,
      "Ġquier": 2582,
      "ule": 2583,
      "Ġbitte": 2584,
      "enden": 2585,
      "Ġuit": 2586,
      "ĠHe": 2587,
      "ellen": 2588,
      "ual": 2589,
      "Ġrest": 2590,
      "Ġfarlo": 2591,
      "pi": 2592,
      "Ġ19": 2593,
      "unk": 2594,
      "Ġearly": 2595,
      "ĠBr": 2596,
      "elli": 2597,
      "Ġseinen": 2598,
      "bri": 2599,
      "Ġzwei": 2600,
      "ition": 2601,
      "Ġcomplet": 2602,
      "Ġihre": 2603,
      "Ġsat": 2604,
      "ular": 2605,
      "adas": 2606,
      "Ġcomer": 2607,
      "Ġdays": 2608,
      "Ġstand": 2609,
      "ĠEnglish": 2610,
      "Ġpay": 2611,
      "Ġmadre": 2612,
      "adil": 2613,
      "lu": 2614,
      "Ġdre": 2615,
      "etti": 2616,
      "ĠperchÃ©": 2617,
      "Ġabs": 2618,
      "ĠHer": 2619,
      "Ġthinks": 2620,
      "Ġpiano": 2621,
      "Ġwaren": 2622,
      "Je": 2623,
      "Ġble": 2624,
      "Ġbic": 2625,
      "ĠhÃ¡": 2626,
      "Ġdro": 2627,
      "Ġsuch": 2628,
      "Ġfamily": 2629,
      "ĠtÃ£o": 2630,
      "Ġgiorno": 2631,
      "Ġtired": 2632,
      "ced": 2633,
      "hÃ£": 2634,
      "essuno": 2635,
      "eter": 2636,
      "Ġhigh": 2637,
      "tem": 2638,
      "aus": 2639,
      "Ġainda": 2640,
      "Ġret": 2641,
      "Ġsub": 2642,
      "Ġtri": 2643,
      "Ġfood": 2644,
      "Ġpou": 2645,
      "Ġrisp": 2646,
      "Ġpuede": 2647,
      "Sto": 2648,
      "Ġcontro": 2649,
      "Ġquero": 2650,
      "Hast": 2651,
      "ĠMonday": 2652,
      "Ġdisp": 2653,
      "Ġfavore": 2654,
      "Ġboy": 2655,
      "Voglio": 2656,
      "gue": 2657,
      "Ġval": 2658,
      "ĠzurÃ¼ck": 2659,
      "Ġgesagt": 2660,
      "Ġquite": 2661,
      "Ġfalar": 2662,
      "ĠÂ¿": 2663,
      "Ġandr": 2664,
      "atz": 2665,
      "tete": 2666,
      "amp": 2667,
      "ĠhÃ¤tte": 2668,
      "aron": 2669,
      "ized": 2670,
      "Ġalgum": 2671,
      "Ge": 2672,
      "ĠGerman": 2673,
      "uÃŁ": 2674,
      "osse": 2675,
      "Ġdieses": 2676,
      "cle": 2677,
      "cess": 2678,
      "oh": 2679,
      "Ġhaving": 2680,
      "Ġmelhor": 2681,
      "Ġvec": 2682,
      "Ġentre": 2683,
      "Ġsehen": 2684,
      "Ġvou": 2685,
      "urch": 2686,
      "orgen": 2687,
      "Mar": 2688,
      "rÃ¤": 2689,
      "auti": 2690,
      "Ġrun": 2691,
      "Ġsoc": 2692,
      "ped": 2693,
      "Ġba": 2694,
      "richt": 2695,
      "Ġits": 2696,
      "Ġyoung": 2697,
      "hnen": 2698,
      "leich": 2699,
      "udar": 2700,
      "tive": 2701,
      "ler": 2702,
      "ban": 2703,
      "Ġwind": 2704,
      "Ġhear": 2705,
      "Ġbom": 2706,
      "ined": 2707,
      "Ġexper": 2708,
      "Ġwirklich": 2709,
      "har": 2710,
      "âĢĶ": 2711,
      "ats": 2712,
      "Ġminut": 2713,
      "Ġnulla": 2714,
      "Ġface": 2715,
      "Ġnome": 2716,
      "oud": 2717,
      "Ġworking": 2718,
      "Ġpon": 2719,
      "usa": 2720,
      "Ġred": 2721,
      "Thomas": 2722,
      "Ġalmost": 2723,
      "Ġcant": 2724,
      "Ġbeauti": 2725,
      "Ġstup": 2726,
      "scha": 2727,
      "Ġcoming": 2728,
      "Ġvir": 2729,
      "une": 2730,
      "Ġwel": 2731,
      "Ġart": 2732,
      "\".": 2733,
      "Ġhead": 2734,
      "Ġpap": 2735,
      "Ġtelef": 2736,
      "ates": 2737,
      "vano": 2738,
      "ĠlÃ¡": 2739,
      "Ġcuando": 2740,
      "Ġloc": 2741,
      "emand": 2742,
      "Ġsusp": 2743,
      "Dan": 2744,
      "Ġmacht": 2745,
      "ason": 2746,
      "ardo": 2747,
      "Does": 2748,
      "atoe": 2749,
      "rank": 2750,
      "Ġdam": 2751,
      "Como": 2752,
      "Ġchance": 2753,
      "Ġdann": 2754,
      "ĠCan": 2755,
      "Ġanswer": 2756,
      "Ġpoder": 2757,
      "ondo": 2758,
      "Ġlanguage": 2759,
      "led": 2760,
      "Ġohne": 2761,
      "Ġdep": 2762,
      "Sch": 2763,
      "indo": 2764,
      "erte": 2765,
      "Ġsitu": 2766,
      "allo": 2767,
      "rer": 2768,
      "Ġhu": 2769,
      "Ġpos": 2770,
      "ious": 2771,
      "Ġunivers": 2772,
      "Ãºn": 2773,
      "Ġsembra": 2774,
      "Ġdeix": 2775,
      "Ġselbst": 2776,
      "omo": 2777,
      "Ġzie": 2778,
      "ceu": 2779,
      "Ġext": 2780,
      "May": 2781,
      "iblio": 2782,
      "Ġgerade": 2783,
      "Ġbrother": 2784,
      "bor": 2785,
      "Ġdell": 2786,
      "ks": 2787,
      "Ġmul": 2788,
      "Ġalso": 2789,
      "Ġmyself": 2790,
      "bero": 2791,
      "Ġadesso": 2792,
      "Ġcountry": 2793,
      "iono": 2794,
      "Avete": 2795,
      "Ġdef": 2796,
      "arla": 2797,
      "Ġconhe": 2798,
      "ula": 2799,
      "Ġbeautiful": 2800,
      "Ġsul": 2801,
      "ĠMal": 2802,
      "ĠEuro": 2803,
      "Ġnem": 2804,
      "Ġporta": 2805,
      "onia": 2806,
      "Ġesse": 2807,
      "Ġdecided": 2808,
      "has": 2809,
      "Ġyo": 2810,
      "atoeba": 2811,
      "antes": 2812,
      "Ġmim": 2813,
      "iten": 2814,
      "Ihr": 2815,
      "Ġtarde": 2816,
      "armi": 2817,
      "Ġarm": 2818,
      "idente": 2819,
      "Ġcorre": 2820,
      "fl": 2821,
      "fach": 2822,
      "ĠmÃ¼ssen": 2823,
      "Ġthose": 2824,
      "Ġkommt": 2825,
      "Ġabb": 2826,
      "ps": 2827,
      "test": 2828,
      "avo": 2829,
      "Ã¼t": 2830,
      "endere": 2831,
      "ĠBl": 2832,
      "Ġkl": 2833,
      "Ġconsider": 2834,
      "ĠEl": 2835,
      "iapp": 2836,
      "VocÃªs": 2837,
      "Ġkid": 2838,
      "Ġverste": 2839,
      "Ġenjoy": 2840,
      "Ġmomento": 2841,
      "Ġadv": 2842,
      "Ġsomeone": 2843,
      "Estoy": 2844,
      "Ġstudy": 2845,
      "pero": 2846,
      "orte": 2847,
      "Ġeveryone": 2848,
      "Ġcred": 2849,
      "china": 2850,
      "Ġpoco": 2851,
      "arti": 2852,
      "Ġanche": 2853,
      "Ġcur": 2854,
      "ilt": 2855,
      "Ġcold": 2856,
      "itted": 2857,
      "Ġcercare": 2858,
      "Ġdif": 2859,
      "Ġtrou": 2860,
      "Ġallow": 2861,
      "ged": 2862,
      "Ġhurt": 2863,
      "Ġdesc": 2864,
      "agen": 2865,
      "of": 2866,
      "Ġtudo": 2867,
      "Ġgerne": 2868,
      "Ġsit": 2869,
      "Ġmesmo": 2870,
      "entro": 2871,
      "Ġmigli": 2872,
      "Ġplease": 2873,
      "Ġweren": 2874,
      "Ġinsegnare": 2875,
      "Ġfort": 2876,
      "ggio": 2877,
      "Ġging": 2878,
      "ĠsÃ©": 2879,
      "Ġhasn": 2880,
      "ative": 2881,
      "Ġmem": 2882,
      "pro": 2883,
      "los": 2884,
      "Ġpenso": 2885,
      "ĠHause": 2886,
      "if": 2887,
      "Abbiamo": 2888,
      "Ist": 2889,
      "eg": 2890,
      "Ġcontinu": 2891,
      "ugen": 2892,
      "ĠÐ": 2893,
      "Ġlavorare": 2894,
      "ction": 2895,
      "Ġsurprised": 2896,
      "Ġvita": 2897,
      "Ġinten": 2898,
      "Ġsap": 2899,
      "uth": 2900,
      "esehen": 2901,
      "ating": 2902,
      "Ġthemselves": 2903,
      "Ġmista": 2904,
      "Ġsettim": 2905,
      "eda": 2906,
      "Meine": 2907,
      "eres": 2908,
      "ial": 2909,
      "Ġseemed": 2910,
      "Ġdomani": 2911,
      "arei": 2912,
      "vam": 2913,
      "ĠvocÃªs": 2914,
      "nis": 2915,
      "Ġdieser": 2916,
      "ĠGesch": 2917,
      "Ġquem": 2918,
      "Nunca": 2919,
      "itas": 2920,
      "Ġkan": 2921,
      "Ġarr": 2922,
      "Ġcarro": 2923,
      "Li": 2924,
      "Ġchange": 2925,
      "Ġporque": 2926,
      "Ġadd": 2927,
      "ones": 2928,
      "Ġcose": 2929,
      "Ġpuedo": 2930,
      "arÃ¡": 2931,
      "Ġwollte": 2932,
      "ĠÃ¤": 2933,
      "Ġstar": 2934,
      "Ġtimes": 2935,
      "Ġanni": 2936,
      "Ġaver": 2937,
      "Ã´": 2938,
      "Ġkam": 2939,
      "Ġscri": 2940,
      "Ġimm": 2941,
      "Ġinform": 2942,
      "gunt": 2943,
      "uck": 2944,
      "Ġwen": 2945,
      "Ġwaiting": 2946,
      "ĠWo": 2947,
      "Ġce": 2948,
      "Posso": 2949,
      "Ġnad": 2950,
      "Ġlev": 2951,
      "liche": 2952,
      "Ġlim": 2953,
      "Ġkommen": 2954,
      "ĠwÃ¤re": 2955,
      "Ġqua": 2956,
      "atto": 2957,
      "Ġgiorn": 2958,
      "Ġdou": 2959,
      "itte": 2960,
      "Ġpict": 2961,
      "ordo": 2962,
      "aste": 2963,
      "Ãºs": 2964,
      "Ġdice": 2965,
      "ither": 2966,
      "estaur": 2967,
      "ĠAuto": 2968,
      "Ġkeinen": 2969,
      "Ã³mo": 2970,
      "Siete": 2971,
      "Ġagora": 2972,
      "ennen": 2973,
      "idos": 2974,
      "Ã¤hr": 2975,
      "sa": 2976,
      "Ġmeglio": 2977,
      "Ġaspett": 2978,
      "Ġqualcuno": 2979,
      "Ġmatt": 2980,
      "Isso": 2981,
      "Ġmos": 2982,
      "upt": 2983,
      "Ġhora": 2984,
      "fahr": 2985,
      "Ġsom": 2986,
      "Ġbesser": 2987,
      "nam": 2988,
      "Ġbamb": 2989,
      "cept": 2990,
      "Ġwife": 2991,
      "wh": 2992,
      "Ġdever": 2993,
      "Ġcry": 2994,
      "Ġhoje": 2995,
      "Ġrid": 2996,
      "Ġcho": 2997,
      "Ġbreak": 2998,
      "Ġmeinen": 2999,
      "Ġgost": 3000,
      "Ġfeliz": 3001,
      "ĠdÃŃa": 3002,
      "ĠIch": 3003,
      "Ġrain": 3004,
      "Ġanos": 3005,
      "Ġstudiare": 3006,
      "Would": 3007,
      "Ġpersona": 3008,
      "Ġglad": 3009,
      "rij": 3010,
      "Ã±ana": 3011,
      "ussia": 3012,
      "Ġtemp": 3013,
      "Ġdele": 3014,
      "Ã¼ber": 3015,
      "Ġtruth": 3016,
      "Ġhung": 3017,
      "Ġmad": 3018,
      "ĠschÃ¶n": 3019,
      "Ġpat": 3020,
      "ĠMus": 3021,
      "Ã¤d": 3022,
      "Ġmorgen": 3023,
      "Ġeinfach": 3024,
      "Ġsenhor": 3025,
      "Ġsl": 3026,
      "ĠMutter": 3027,
      "Tut": 3028,
      "uso": 3029,
      "Ġgeen": 3030,
      "Ġliving": 3031,
      "bol": 3032,
      "iness": 3033,
      "Ġarriv": 3034,
      "Ġfine": 3035,
      "Ġseiner": 3036,
      "Ġrit": 3037,
      "Ġcomputer": 3038,
      "Your": 3039,
      "ĠpaÃŃs": 3040,
      "ently": 3041,
      "For": 3042,
      "peranto": 3043,
      "Ġcui": 3044,
      "Ġbiblio": 3045,
      "heiro": 3046,
      "Ġfosse": 3047,
      "Ġcop": 3048,
      "Ġdenn": 3049,
      "Nu": 3050,
      "Ġnue": 3051,
      "adt": 3052,
      "fÃ¼": 3053,
      "Ġgone": 3054,
      "Ġvedere": 3055,
      "via": 3056,
      "uen": 3057,
      "Ġonce": 3058,
      "esti": 3059,
      "Ġhosp": 3060,
      "Ġlange": 3061,
      "da": 3062,
      "ernen": 3063,
      "ortun": 3064,
      "Ġtrain": 3065,
      "enda": 3066,
      "izi": 3067,
      "alo": 3068,
      "Ġlives": 3069,
      "cup": 3070,
      "oma": 3071,
      "Ġbesch": 3072,
      "Als": 3073,
      "oun": 3074,
      "ker": 3075,
      "iso": 3076,
      "Some": 3077,
      "Ġmess": 3078,
      "Ġparece": 3079,
      "Ġogni": 3080,
      "Ġfilm": 3081,
      "Ġglaube": 3082,
      "ric": 3083,
      "ĠIr": 3084,
      "Ġhair": 3085,
      "Ġcase": 3086,
      "Ġpel": 3087,
      "Ġvel": 3088,
      "Im": 3089,
      "itos": 3090,
      "ĠNach": 3091,
      "yo": 3092,
      "Ġpessoas": 3093,
      "Ġsaber": 3094,
      "ward": 3095,
      "Ġyourself": 3096,
      "Ġlugar": 3097,
      "Ġphone": 3098,
      "vos": 3099,
      "hm": 3100,
      "Ġnice": 3101,
      "ĠAng": 3102,
      "gend": 3103,
      "Quanto": 3104,
      "Ġcook": 3105,
      "Ġsape": 3106,
      "Ad": 3107,
      "Ġtien": 3108,
      "alth": 3109,
      "lÃ¤": 3110,
      "asser": 3111,
      "Ã¶ren": 3112,
      "Ġcolle": 3113,
      "Ġvin": 3114,
      "Ġinst": 3115,
      "Ġqualche": 3116,
      "Ġdoctor": 3117,
      "Ġkiss": 3118,
      "Ã³nde": 3119,
      "ĠKinder": 3120,
      "Ġmacchina": 3121,
      "hlt": 3122,
      "Ġhaar": 3123,
      "ush": 3124,
      "ĠGr": 3125,
      "gangen": 3126,
      "Ġieri": 3127,
      "Ġthen": 3128,
      "aum": 3129,
      "gun": 3130,
      "Ġirm": 3131,
      "usted": 3132,
      "cial": 3133,
      "Ġschn": 3134,
      "ught": 3135,
      "Pro": 3136,
      "Ġmejor": 3137,
      "Ġago": 3138,
      "Ġlisten": 3139,
      "Ġverdad": 3140,
      "ief": 3141,
      "EstÃ¡": 3142,
      "Ġamico": 3143,
      "Ġstran": 3144,
      "Diese": 3145,
      "Ġsenza": 3146,
      "Ġdifficult": 3147,
      "Ġandre": 3148,
      "ufen": 3149,
      "Ġdiffer": 3150,
      "Ġwrit": 3151,
      "ĠprÃ³": 3152,
      "Ġsince": 3153,
      "Ã¡rio": 3154,
      "Ġdiesem": 3155,
      "mar": 3156,
      "Ð¾": 3157,
      "Ġmeeting": 3158,
      "Ġpolice": 3159,
      "Ġmale": 3160,
      "Da": 3161,
      "CuÃ¡": 3162,
      "rai": 3163,
      "ĠIhnen": 3164,
      "ilo": 3165,
      "Ġtrue": 3166,
      "Ġaconte": 3167,
      "Ġero": 3168,
      "ĠâĢĵ": 3169,
      "Quem": 3170,
      "zz": 3171,
      "not": 3172,
      "Ġcond": 3173,
      "enas": 3174,
      "Ġzus": 3175,
      "Ġdied": 3176,
      "geben": 3177,
      "Ġcomprar": 3178,
      "Todos": 3179,
      "Ġcompan": 3180,
      "ungs": 3181,
      "Ġwissen": 3182,
      "Ġcambi": 3183,
      "vie": 3184,
      "Ġstate": 3185,
      "Fadil": 3186,
      "Ġstudent": 3187,
      "Ġdalla": 3188,
      "Ġvest": 3189,
      "Ġpersone": 3190,
      "Ġconst": 3191,
      "ape": 3192,
      "Ġdress": 3193,
      "Ġja": 3194,
      "Ġcoisa": 3195,
      "atta": 3196,
      "Ġpelo": 3197,
      "Ġnerv": 3198,
      "Ġbibliote": 3199,
      "ĠFranz": 3200,
      "...": 3201,
      "Ġtrabajo": 3202,
      "Ġinterested": 3203,
      "ĠLie": 3204,
      "Ġfut": 3205,
      "bb": 3206,
      "imos": 3207,
      "Ġgesehen": 3208,
      "Ġimportant": 3209,
      "utt": 3210,
      "Tengo": 3211,
      "lim": 3212,
      "ette": 3213,
      "Will": 3214,
      "angen": 3215,
      "press": 3216,
      "friend": 3217,
      "ennis": 3218,
      "ambi": 3219,
      "Ġanderen": 3220,
      "Ġstre": 3221,
      "ĠEst": 3222,
      "Ã¼s": 3223,
      "Ġpai": 3224,
      "Ġfrat": 3225,
      "vir": 3226,
      "Ġreason": 3227,
      "ĠSpra": 3228,
      "Ġdinero": 3229,
      "Ġlingu": 3230,
      "halten": 3231,
      "At": 3232,
      "Ġmens": 3233,
      "Ġverg": 3234,
      "Ġcab": 3235,
      "Ġatt": 3236,
      "Ġhours": 3237,
      "Ġdizer": 3238,
      "Ġtengo": 3239,
      "Ġhon": 3240,
      "Ġhem": 3241,
      "Ġsmall": 3242,
      "ĠsarÃł": 3243,
      "Ġeyes": 3244,
      "Her": 3245,
      "Ġversch": 3246,
      "estro": 3247,
      "ude": 3248,
      "Ġsister": 3249,
      "Ġeasy": 3250,
      "Ġgemacht": 3251,
      "Ġped": 3252,
      "Ġblo": 3253,
      "entos": 3254,
      "ts": 3255,
      "Ã¤ll": 3256,
      "Ġsprechen": 3257,
      "Ġamigos": 3258,
      "Ġhace": 3259,
      "Ġwoman": 3260,
      "ĠVater": 3261,
      "Ġbag": 3262,
      "Ġsemana": 3263,
      "Ġgust": 3264,
      "Ġprote": 3265,
      "tima": 3266,
      "arsi": 3267,
      "Ġpreoccup": 3268,
      "Ġmon": 3269,
      "Ġbooks": 3270,
      "schaft": 3271,
      "Ġpross": 3272,
      "Ġaveva": 3273,
      "si": 3274,
      "ĠfÃ¼": 3275,
      "Ġdoll": 3276,
      "Ġhospital": 3277,
      "Ġanybody": 3278,
      "Ġmatter": 3279,
      "Ġlivro": 3280,
      "Hanno": 3281,
      "ists": 3282,
      "ĠlÃ¬": 3283,
      "ĠTV": 3284,
      "resti": 3285,
      "Ġparti": 3286,
      "Ġnecess": 3287,
      "Ġmenos": 3288,
      "Ġkom": 3289,
      "ĠKaby": 3290,
      "ĠaÃ±os": 3291,
      "ÃŁe": 3292,
      "ĠSami": 3293,
      "Ġseus": 3294,
      "Ġfum": 3295,
      "Ġkonnte": 3296,
      "Ġpolit": 3297,
      "Ġdort": 3298,
      "Ġland": 3299,
      "Cre": 3300,
      "Ġletz": 3301,
      "arm": 3302,
      "Tell": 3303,
      "Ġvive": 3304,
      "Algeria": 3305,
      "Des": 3306,
      "inguÃ©m": 3307,
      "Ġwalk": 3308,
      "ines": 3309,
      "ĠLib": 3310,
      "Ġur": 3311,
      "Ġexact": 3312,
      "Siamo": 3313,
      "Ġoffice": 3314,
      "Um": 3315,
      "Ġhebben": 3316,
      "Ġamici": 3317,
      "Ãªncia": 3318,
      "Ġalc": 3319,
      "ĠMe": 3320,
      "etter": 3321,
      "otare": 3322,
      "Ġhoras": 3323,
      "Ġnego": 3324,
      "Ġimportante": 3325,
      "ÃŃo": 3326,
      "Ġusually": 3327,
      "ĠdifÃŃ": 3328,
      "Ġacho": 3329,
      "rage": 3330,
      "Ġign": 3331,
      "Ġpaz": 3332,
      "Ġtermin": 3333,
      "ĠAus": 3334,
      "iones": 3335,
      "Ġsick": 3336,
      "Ġpassap": 3337,
      "Ġsil": 3338,
      "Ġwahr": 3339,
      "Ġmeus": 3340,
      "Ġangry": 3341,
      "ake": 3342,
      "Ġlived": 3343,
      "Ġamigo": 3344,
      "Ã¶sisch": 3345,
      "ense": 3346,
      "Ġlonger": 3347,
      "usto": 3348,
      "Ġgioc": 3349,
      "Ġnuovo": 3350,
      "Ġoft": 3351,
      "Ġsorry": 3352,
      "Ġment": 3353,
      "chten": 3354,
      "Ġcoffee": 3355,
      "Ġandere": 3356,
      "Ġdinner": 3357,
      "ka": 3358,
      "Ġtw": 3359,
      "Ġveramente": 3360,
      "Ġber": 3361,
      "Ġforg": 3362,
      "Ġqueria": 3363,
      "Ġmusic": 3364,
      "hrer": 3365,
      "Ġneces": 3366,
      "Ġimparare": 3367,
      "Ġnat": 3368,
      "igkeit": 3369,
      "Ġkannst": 3370,
      "ammen": 3371,
      "ĠâĢĶ": 3372,
      "ĠMensch": 3373,
      "Ġrece": 3374,
      "port": 3375,
      "ĠmaÃ±ana": 3376,
      "mt": 3377,
      "Ġvom": 3378,
      "ĠPol": 3379,
      "ander": 3380,
      "Ġvogl": 3381,
      "Ġeines": 3382,
      "Ġavere": 3383,
      "Wat": 3384,
      "Pod": 3385,
      "ĠTatoeba": 3386,
      "Ġdesp": 3387,
      "Hay": 3388,
      "Ġsunt": 3389,
      "ÈĽi": 3390,
      "Ġdijo": 3391,
      "Ġmangiare": 3392,
      "Ġpouco": 3393,
      "Ġnoite": 3394,
      "ĠmÃ£": 3395,
      "Ġdurante": 3396,
      "ured": 3397,
      "Ġlibr": 3398,
      "gia": 3399,
      "ended": 3400,
      "Ġfelice": 3401,
      "Ġair": 3402,
      "Ġgosta": 3403,
      "Ġprogr": 3404,
      "lichen": 3405,
      "Ġfez": 3406,
      "anta": 3407,
      "ades": 3408,
      "aix": 3409,
      "ĠHand": 3410,
      "ĠPl": 3411,
      "ira": 3412,
      "ĠBras": 3413,
      "ppe": 3414,
      "fel": 3415,
      "Ġhands": 3416,
      "Ġgener": 3417,
      "Ġdrive": 3418,
      "Ġfesta": 3419,
      "Ġvide": 3420,
      "ump": 3421,
      "agli": 3422,
      "Ġform": 3423,
      "Ġvostro": 3424,
      "Ġpun": 3425,
      "Ġmean": 3426,
      "Ġrestaur": 3427,
      "Ġsign": 3428,
      "ĠdifÃŃcil": 3429,
      "gione": 3430,
      "Ġllam": 3431,
      "Ġquel": 3432,
      "Ġopin": 3433,
      "ild": 3434,
      "Ġimpress": 3435,
      "Ġtonight": 3436,
      "oca": 3437,
      "Ġgegen": 3438,
      "!âĢľ": 3439,
      "Ġfoll": 3440,
      "Ġherm": 3441,
      "arÃŃa": 3442,
      "Ġonde": 3443,
      "istor": 3444,
      "Ġcaf": 3445,
      "Ġdevo": 3446,
      "ichtig": 3447,
      "Ġseinem": 3448,
      "Onde": 3449,
      "?\"": 3450,
      "Ell": 3451,
      "Ġnam": 3452,
      "Ġhelfen": 3453,
      "Ġbek": 3454,
      "ject": 3455,
      "Ġneg": 3456,
      "aci": 3457,
      "Ġmiei": 3458,
      "Ġlhe": 3459,
      "ennt": 3460,
      "Ġfinished": 3461,
      "ĠProble": 3462,
      "ĠThe": 3463,
      "Ġmij": 3464,
      "llo": 3465,
      "anni": 3466,
      "Ġprim": 3467,
      "ĠEin": 3468,
      "Ġeles": 3469,
      "zza": 3470,
      "ĠEg": 3471,
      "Ġsound": 3472,
      "Ġbecome": 3473,
      "Ġbat": 3474,
      "ouw": 3475,
      "Ġletto": 3476,
      "ness": 3477,
      "Ġoccup": 3478,
      "Vu": 3479,
      "arto": 3480,
      "blic": 3481,
      "Ġlat": 3482,
      "Ġandato": 3483,
      "ĠAbend": 3484,
      "Ġstan": 3485,
      "Ġpossib": 3486,
      "Ġtent": 3487,
      "Ġll": 3488,
      "iento": 3489,
      "Ã¢n": 3490,
      "Ver": 3491,
      "Ġlight": 3492,
      "Ġdeb": 3493,
      "uten": 3494,
      "Ġinterest": 3495,
      "cco": 3496,
      "zzo": 3497,
      "ani": 3498,
      "Ġqued": 3499,
      "Ġtuoi": 3500,
      "Ġhotel": 3501,
      "Ġtinha": 3502,
      "rÃł": 3503,
      "Ġmeiner": 3504,
      "Ġ5": 3505,
      "Ġprofessor": 3506,
      "sam": 3507,
      "igt": 3508,
      "Ġya": 3509,
      "Ġwearing": 3510,
      "Ġpassaporto": 3511,
      "ľber": 3512,
      "ĠrÃ¡": 3513,
      "Ã§Ãµes": 3514,
      "Ġgol": 3515,
      "ĠGl": 3516,
      "Ġtipo": 3517,
      "arl": 3518,
      "arth": 3519,
      "ĠSchule": 3520,
      "Ġsci": 3521,
      "ughter": 3522,
      "ĠSon": 3523,
      "Ġschnell": 3524,
      "Ġmakes": 3525,
      "Ġsettimana": 3526,
      "Ġchang": 3527,
      "Ġple": 3528,
      "Ġhin": 3529,
      "Ġdinheiro": 3530,
      "gent": 3531,
      "ĠAugen": 3532,
      "Ã±a": 3533,
      "ator": 3534,
      "cto": 3535,
      "Ġviol": 3536,
      "Ġsy": 3537,
      "aggio": 3538,
      "Ġspend": 3539,
      "Ġtue": 3540,
      "ĠFranzÃ¶sisch": 3541,
      "Ġswim": 3542,
      "Ġhablar": 3543,
      "ĠIrlanda": 3544,
      "Waar": 3545,
      "Ġ3": 3546,
      "reich": 3547,
      "ĠatÃ©": 3548,
      "Ġpresent": 3549,
      "where": 3550,
      "Ġforgot": 3551,
      "Ġtelevis": 3552,
      "inen": 3553,
      "chter": 3554,
      "ĠÃºl": 3555,
      "eli": 3556,
      "otto": 3557,
      "kel": 3558,
      "ales": 3559,
      "ullie": 3560,
      "ÃŃvel": 3561,
      "Kann": 3562,
      "erra": 3563,
      "isse": 3564,
      "Ġpronto": 3565,
      "Ġdegli": 3566,
      "ios": 3567,
      "Ġcannot": 3568,
      "Ġweg": 3569,
      "Ġsorpr": 3570,
      "Ġcra": 3571,
      "Ġsiempre": 3572,
      "Ġrius": 3573,
      "Ġnorm": 3574,
      "Ġtrabalho": 3575,
      "Ġatten": 3576,
      "aden": 3577,
      "Ġucc": 3578,
      "Ġlater": 3579,
      "Ġfell": 3580,
      "Ġquella": 3581,
      "Ġestoy": 3582,
      "Ġexam": 3583,
      "ohann": 3584,
      "ĠFr": 3585,
      "Ġtodas": 3586,
      "Ent": 3587,
      "ĠheiÃŁ": 3588,
      "ckt": 3589,
      "loss": 3590,
      "ĠestÃ¡n": 3591,
      "Ġnovo": 3592,
      "ĠBÃ¼": 3593,
      "Isto": 3594,
      "vate": 3595,
      "ache": 3596,
      "Ġessen": 3597,
      "ĠWasser": 3598,
      "ago": 3599,
      "ĠReg": 3600,
      "Una": 3601,
      "Ġkauf": 3602,
      "Ġescre": 3603,
      "Ġtrouble": 3604,
      "Ġfollow": 3605,
      "Quiero": 3606,
      "eso": 3607,
      "Ġriesco": 3608,
      "Ġristor": 3609,
      "Ġjemand": 3610,
      "bei": 3611,
      "Ġmaar": 3612,
      "sta": 3613,
      "ĠnÃ³s": 3614,
      "Ġdev": 3615,
      "ĠVor": 3616,
      "erem": 3617,
      "Ġpresto": 3618,
      "Ġdoubt": 3619,
      "Ġbring": 3620,
      "Ġvoleva": 3621,
      "hol": 3622,
      "ĠNiger": 3623,
      "Ġcity": 3624,
      "Ġtoda": 3625,
      "Ġsun": 3626,
      "Ġpul": 3627,
      "Ġserv": 3628,
      "ĠfrancÃªs": 3629,
      "Ġale": 3630,
      "antas": 3631,
      "Ã©r": 3632,
      "Ġconta": 3633,
      "ĠHund": 3634,
      "Ġgleich": 3635,
      "Ġbeste": 3636,
      "Ġpromised": 3637,
      "Ġconvers": 3638,
      "ĠLand": 3639,
      "Ġaccident": 3640,
      "ower": 3641,
      "Ġhombre": 3642,
      "Ġlassen": 3643,
      "Ã¼nf": 3644,
      "ism": 3645,
      "Ġgosto": 3646,
      "Ġcir": 3647,
      "ĠUnter": 3648,
      "Ġafterno": 3649,
      "Ġsollte": 3650,
      "Ġhabit": 3651,
      "Ġnumber": 3652,
      "cum": 3653,
      "Ġperso": 3654,
      "Ġdecir": 3655,
      "ket": 3656,
      "Ġeff": 3657,
      "Ġdiesen": 3658,
      "erd": 3659,
      "ions": 3660,
      "gna": 3661,
      "Ġdifferent": 3662,
      "itto": 3663,
      "ĠZimmer": 3664,
      "jer": 3665,
      "Ġmedic": 3666,
      "Ã§as": 3667,
      "side": 3668,
      "Ġedi": 3669,
      "Ġpie": 3670,
      "Ġafternoon": 3671,
      "Ã¡t": 3672,
      "ossa": 3673,
      "ĠStadt": 3674,
      "Ġdivert": 3675,
      "Ġamb": 3676,
      "Ġfab": 3677,
      "Ġliber": 3678,
      "cen": 3679,
      "Ġev": 3680,
      "Ġfire": 3681,
      "arten": 3682,
      "uff": 3683,
      "Ġheart": 3684,
      "ween": 3685,
      "Ġficar": 3686,
      "reste": 3687,
      "Ġplaying": 3688,
      "ahre": 3689,
      "hin": 3690,
      "Ġesto": 3691,
      "Ġquiero": 3692,
      "Ġsens": 3693,
      "ĠInd": 3694,
      "Ġran": 3695,
      "Ġtres": 3696,
      "Ġbecame": 3697,
      "atos": 3698,
      "Ġvert": 3699,
      "Ġsix": 3700,
      "jos": 3701,
      "Ġsed": 3702,
      "Ġstory": 3703,
      "pido": 3704,
      "ĠmÃºs": 3705,
      "Ġsicher": 3706,
      "Ġniemand": 3707,
      "bens": 3708,
      "uri": 3709,
      "Ġcarta": 3710,
      "Ġcane": 3711,
      "Ġfid": 3712,
      "Ġerk": 3713,
      "Ġcitt": 3714,
      "ĠcafÃ©": 3715,
      "Ġarbeit": 3716,
      "Ġcertain": 3717,
      "quer": 3718,
      "ichte": 3719,
      "Ġagainst": 3720,
      "Ġdra": 3721,
      "ĠChr": 3722,
      "achen": 3723,
      "Meu": 3724,
      "ĠfÃ¡": 3725,
      "ĠhabÃŃa": 3726,
      "Ġwhole": 3727,
      "Ġlaw": 3728,
      "uit": 3729,
      "Ġfall": 3730,
      "Ġorder": 3731,
      "uild": 3732,
      "Ġweil": 3733,
      "net": 3734,
      "ĠLeute": 3735,
      "ement": 3736,
      "Ġill": 3737,
      "agu": 3738,
      "Ġschle": 3739,
      "Ġlunch": 3740,
      "HÃ¡": 3741,
      "Ġgab": 3742,
      "Ġalto": 3743,
      "irt": 3744,
      "Ã¼cklich": 3745,
      "Ġclean": 3746,
      "Ġfree": 3747,
      "Ġzal": 3748,
      "Ġate": 3749,
      "ĠUhr": 3750,
      "itting": 3751,
      "orden": 3752,
      "Ġmigliore": 3753,
      "Ġbon": 3754,
      "Ġjog": 3755,
      "Ġmodo": 3756,
      "Ġcul": 3757,
      "ĠJohann": 3758,
      "Ġ201": 3759,
      "uo": 3760,
      "Ġvostri": 3761,
      "ambÃ©m": 3762,
      "xi": 3763,
      "Ġhomem": 3764,
      "Ġsuspect": 3765,
      "Ãªm": 3766,
      "yp": 3767,
      "ison": 3768,
      "Ġbor": 3769,
      "Ġid": 3770,
      "ĠNo": 3771,
      "Ġserious": 3772,
      "Ġdream": 3773,
      "Ġforget": 3774,
      "Ġocup": 3775,
      "Ġbehind": 3776,
      "ĠMon": 3777,
      "Ġnas": 3778,
      "entemente": 3779,
      "Ġbri": 3780,
      "Ġspos": 3781,
      "Ġcontra": 3782,
      "Pr": 3783,
      "Ġspent": 3784,
      "Ġimag": 3785,
      "Ġsagt": 3786,
      "Ġtennis": 3787,
      "Ġrealmente": 3788,
      "Ġtown": 3789,
      "Re": 3790,
      "Ġquick": 3791,
      "cias": 3792,
      "Ġwindow": 3793,
      "Ġsecret": 3794,
      "Ġsea": 3795,
      "ures": 3796,
      "estre": 3797,
      "ĠtrÃªs": 3798,
      "Ġmeinem": 3799,
      "ediat": 3800,
      "gas": 3801,
      "Ġpost": 3802,
      "graf": 3803,
      "Ġhi": 3804,
      "Ġworden": 3805,
      "Ġsicuro": 3806,
      "Ġhaber": 3807,
      "Ġamor": 3808,
      "Ġlegg": 3809,
      "ted": 3810,
      "Dieses": 3811,
      "arebbe": 3812,
      "Ġgehe": 3813,
      "Everyone": 3814,
      "Ġnostri": 3815,
      "Ġhuman": 3816,
      "Ġturned": 3817,
      "KÃ¶n": 3818,
      "Ġerw": 3819,
      "Ġcomprato": 3820,
      "Ã¤dchen": 3821,
      "Ġsah": 3822,
      "Ġsold": 3823,
      "ĠTok": 3824,
      "Ġrad": 3825,
      "iu": 3826,
      "Ġindi": 3827,
      "utsch": 3828,
      "To": 3829,
      "itz": 3830,
      "lain": 3831,
      "Ġwil": 3832,
      "Ġdeber": 3833,
      "Ġvostra": 3834,
      "Ġsb": 3835,
      "Ġcuid": 3836,
      "ased": 3837,
      "Ġbetween": 3838,
      "Ġsummer": 3839,
      "Ġtable": 3840,
      "Ġresult": 3841,
      "Ġbusiness": 3842,
      "ser": 3843,
      "Ġmand": 3844,
      "Ġecon": 3845,
      "frica": 3846,
      "Ġpiacc": 3847,
      "hler": 3848,
      "Maybe": 3849,
      "Ch": 3850,
      "eto": 3851,
      "book": 3852,
      "less": 3853,
      "zy": 3854,
      "Ġviene": 3855,
      "Ġaprender": 3856,
      "ior": 3857,
      "chio": 3858,
      "Ġopp": 3859,
      "itori": 3860,
      "aya": 3861,
      "Ġverdade": 3862,
      "Ġexactly": 3863,
      "Em": 3864,
      "air": 3865,
      "ĠmÃŃ": 3866,
      "Ġmano": 3867,
      "Wann": 3868,
      "cri": 3869,
      "Ġchar": 3870,
      "ĠDan": 3871,
      "Ġdoen": 3872,
      "uche": 3873,
      "ĠNacht": 3874,
      "oni": 3875,
      "Ġsond": 3876,
      "Ġstra": 3877,
      "Aqu": 3878,
      "Ġgest": 3879,
      "Dat": 3880,
      "Ġange": 3881,
      "ĠGod": 3882,
      "cy": 3883,
      "room": 3884,
      "ĠAuf": 3885,
      "oren": 3886,
      "Ġwollen": 3887,
      "Ġsigni": 3888,
      "Ġdamit": 3889,
      "Ġzusammen": 3890,
      "gest": 3891,
      "ince": 3892,
      "Ven": 3893,
      "Ġeinz": 3894,
      "ĠItalia": 3895,
      "Ġhelped": 3896,
      "Ðµ": 3897,
      "lar": 3898,
      "Ã©d": 3899,
      "Ġcomprare": 3900,
      "Ġtest": 3901,
      "Ġdeath": 3902,
      "Ġdanger": 3903,
      "cra": 3904,
      "timo": 3905,
      "Ġestudi": 3906,
      "ader": 3907,
      "orth": 3908,
      "Ġreturn": 3909,
      "ĠTh": 3910,
      "Ġdaughter": 3911,
      "eiro": 3912,
      "Ġdemasi": 3913,
      "Ġpaura": 3914,
      "Ġzou": 3915,
      "Ġeating": 3916,
      "erÃł": 3917,
      "Ġliked": 3918,
      "ĠGiapp": 3919,
      "Ġtutte": 3920,
      "imento": 3921,
      "ĠGiappone": 3922,
      "ever": 3923,
      "Ġcada": 3924,
      "ius": 3925,
      "Ġflo": 3926,
      "ĠJahre": 3927,
      "Ġaltro": 3928,
      "Ġnessuno": 3929,
      "Ġanno": 3930,
      "ĠSom": 3931,
      "ĠJohannes": 3932,
      "Ġmoet": 3933,
      "Ġrelig": 3934,
      "cken": 3935,
      "Ġwrite": 3936,
      "work": 3937,
      "zÃ¤": 3938,
      "ĠtambÃ©m": 3939,
      "Ġswe": 3940,
      "isto": 3941,
      "Ġencontrar": 3942,
      "isc": 3943,
      "ages": 3944,
      "ĠSa": 3945,
      "essi": 3946,
      "izza": 3947,
      "Ġfuori": 3948,
      "Ġhealth": 3949,
      "Ġvisitato": 3950,
      "Vorrei": 3951,
      "Ġfull": 3952,
      "Ġbroke": 3953,
      "Ġcompany": 3954,
      "Has": 3955,
      "Ġjeden": 3956,
      "Ġhistor": 3957,
      "Ġdit": 3958,
      "isas": 3959,
      "Ġoffer": 3960,
      "azz": 3961,
      "Ġnog": 3962,
      "erÃ²": 3963,
      "Ġdivent": 3964,
      "Ġignor": 3965,
      "Ġsof": 3966,
      "Vole": 3967,
      "ĠcÄĥ": 3968,
      "ram": 3969,
      "Ð°": 3970,
      "lag": 3971,
      "agn": 3972,
      "Ġviaggio": 3973,
      "ĠIslam": 3974,
      "Ġgestern": 3975,
      "Ġsche": 3976,
      "ched": 3977,
      "Ġkilled": 3978,
      "âĢĿ": 3979,
      "ĠRoman": 3980,
      "son": 3981,
      "ĠLond": 3982,
      "ĠlÃ¤": 3983,
      "Ġrecht": 3984,
      "Para": 3985,
      "arÃ©": 3986,
      "Ġahora": 3987,
      "ema": 3988,
      "Ġgover": 3989,
      "agna": 3990,
      "ĠgehÃ¶rt": 3991,
      "Ġpast": 3992,
      "Ġmaking": 3993,
      "Ġarrab": 3994,
      "aut": 3995,
      "ĠEsperanto": 3996,
      "icos": 3997,
      "Ġgran": 3998,
      "ĠMÃ¤dchen": 3999,
      "Ġglass": 4000,
      "Ã¤lt": 4001,
      "bus": 4002,
      "Ġnom": 4003,
      "Ġprendere": 4004,
      "zeit": 4005,
      "Ġstupid": 4006,
      "Ġhungry": 4007,
      "Ġeigen": 4008,
      "Ġpreocup": 4009,
      "Ġsondern": 4010,
      "enh": 4011,
      "Ġaman": 4012,
      "Ġkept": 4013,
      "Ġcamera": 4014,
      "Could": 4015,
      "leicht": 4016,
      "izo": 4017,
      "ience": 4018,
      "fol": 4019,
      "oking": 4020,
      "innen": 4021,
      "ieg": 4022,
      "Ġdesde": 4023,
      "ants": 4024,
      "Ġapart": 4025,
      "ragen": 4026,
      "Ġprinci": 4027,
      "Ġappena": 4028,
      "Eine": 4029,
      "hes": 4030,
      "qua": 4031,
      "Ar": 4032,
      "Ġleav": 4033,
      "Ġtrust": 4034,
      "Ġbast": 4035,
      "ager": 4036,
      "Our": 4037,
      "Ġko": 4038,
      "igent": 4039,
      "Ġspesso": 4040,
      "Sembra": 4041,
      "otros": 4042,
      "band": 4043,
      "iglia": 4044,
      "Dieser": 4045,
      "arme": 4046,
      "Ġvier": 4047,
      "Pot": 4048,
      "egn": 4049,
      "erta": 4050,
      "imes": 4051,
      "Ġsong": 4052,
      "Ġbuild": 4053,
      "Ġvolte": 4054,
      "Ġcent": 4055,
      "iled": 4056,
      "ĠBrie": 4057,
      "Ġagree": 4058,
      "Ġguy": 4059,
      "ĠciÃ²": 4060,
      "Ġweekend": 4061,
      "Ġgeb": 4062,
      "Ġcrian": 4063,
      "Ġactually": 4064,
      "Ġless": 4065,
      "rot": 4066,
      "guÃ©m": 4067,
      "Ġnear": 4068,
      "Ġpossible": 4069,
      "rim": 4070,
      "Ã¡vel": 4071,
      "uder": 4072,
      "tions": 4073,
      "Ġfrase": 4074,
      "Ġallowed": 4075,
      "Ġmovie": 4076,
      "Mijn": 4077,
      "ches": 4078,
      "ament": 4079,
      "ĠserÃ¡": 4080,
      "Alle": 4081,
      "000": 4082,
      "Ã¤llt": 4083,
      "Ġdead": 4084,
      "Ġihren": 4085,
      "inted": 4086,
      "ielen": 4087,
      "ĠcomeÃ§": 4088,
      "ĠWahr": 4089,
      "ibus": 4090,
      "Ġvista": 4091,
      "Ġdeveria": 4092,
      "Ã¦": 4093,
      "Ġhate": 4094,
      "Devo": 4095,
      "Ġminutes": 4096,
      "Ġamic": 4097,
      "Ġteam": 4098,
      "hrt": 4099,
      "Ġrespons": 4100,
      "Ġmove": 4101,
      "ĠÃºn": 4102,
      "Ġfacendo": 4103,
      "Ġdovuto": 4104,
      "Ġnoche": 4105,
      "pping": 4106,
      "Ġvoll": 4107,
      "Ġeverybody": 4108,
      "Ġtir": 4109,
      "Ġese": 4110,
      "Ġsieht": 4111,
      "Ġsecond": 4112,
      "wa": 4113,
      "Ġlernen": 4114,
      "iben": 4115,
      "Tenho": 4116,
      "Ġarrabbi": 4117,
      "erei": 4118,
      "bs": 4119,
      "Ġtaking": 4120,
      "Ġalgun": 4121,
      "ĠkÃ¶nnte": 4122,
      "Ġreading": 4123,
      "ĠEnt": 4124,
      "opf": 4125,
      "Ġhalf": 4126,
      "Ġpicture": 4127,
      "ount": 4128,
      "Ex": 4129,
      "ning": 4130,
      "Ġpela": 4131,
      "Ġles": 4132,
      "Ya": 4133,
      "ring": 4134,
      "Ġrom": 4135,
      "Ġsuccesso": 4136,
      "Ġpalav": 4137,
      "Ġdifer": 4138,
      "achte": 4139,
      "Bitte": 4140,
      "rop": 4141,
      "Ġstava": 4142,
      "Ġpreso": 4143,
      "ĠcittÃł": 4144,
      "Ġthirty": 4145,
      "rum": 4146,
      "Ġverw": 4147,
      "Ġnor": 4148,
      "Ġdois": 4149,
      "Ġstayed": 4150,
      "Ġvenire": 4151,
      "Ġvuoi": 4152,
      "Ġwords": 4153,
      "ĠOK": 4154,
      "Ġpensa": 4155,
      "Ġbla": 4156,
      "edÃ¬": 4157,
      "Ġmoment": 4158,
      "Ġdavon": 4159,
      "Ġdato": 4160,
      "onde": 4161,
      "isf": 4162,
      "ĠTÃ¼r": 4163,
      "Ġaiutare": 4164,
      "Ġsola": 4165,
      "Ġpaid": 4166,
      "ĠNew": 4167,
      "ciamo": 4168,
      "gem": 4169,
      "ĠSk": 4170,
      "Ġamica": 4171,
      "Ġoutside": 4172,
      "Go": 4173,
      "Ġverm": 4174,
      "Wel": 4175,
      "Ġcorr": 4176,
      "Sh": 4177,
      "Sp": 4178,
      "Ġcut": 4179,
      "Ġmilit": 4180,
      "Ġstation": 4181,
      "Ã¶ÃŁ": 4182,
      "ieron": 4183,
      "rÃ²": 4184,
      "Ġrot": 4185,
      "ÃŃamos": 4186,
      "Ġassim": 4187,
      "orso": 4188,
      "Ġeconom": 4189,
      "fall": 4190,
      "Ġdiment": 4191,
      "Ġpreciso": 4192,
      "ĠlÃŃn": 4193,
      "Ġworried": 4194,
      "Ġdentro": 4195,
      "Ġsnow": 4196,
      "Pe": 4197,
      "Ġsulla": 4198,
      "ania": 4199,
      "llen": 4200,
      "ĠmÃ£e": 4201,
      "ĠmÃºsica": 4202,
      "Ġdol": 4203,
      "Ġknown": 4204,
      "Ġhasta": 4205,
      "Ġvostre": 4206,
      "Ġconcer": 4207,
      "Ac": 4208,
      "sst": 4209,
      "uft": 4210,
      "remmo": 4211,
      "Ġvend": 4212,
      "Ġreco": 4213,
      "ernt": 4214,
      "Ġdemasiado": 4215,
      "Ġgern": 4216,
      "vamo": 4217,
      "yer": 4218,
      "Ġvie": 4219,
      "ilmente": 4220,
      "Ġcaso": 4221,
      "Ġcaff": 4222,
      "Ġpen": 4223,
      "ĠToms": 4224,
      "Ġbeb": 4225,
      "ĠestÃ¡s": 4226,
      "Ġwohl": 4227,
      "Ġfol": 4228,
      "ĠFrancia": 4229,
      "ĠfÃ¡cil": 4230,
      "ics": 4231,
      "Ġmulher": 4232,
      "ĠÈĻ": 4233,
      "Ġsugg": 4234,
      "Ġjap": 4235,
      "Ġinvit": 4236,
      "Ġquestions": 4237,
      "ĠGermania": 4238,
      "elen": 4239,
      "urs": 4240,
      "elf": 4241,
      "!\"": 4242,
      "Ġtravel": 4243,
      "atro": 4244,
      "Ġamo": 4245,
      "Ġchiesto": 4246,
      "ron": 4247,
      "ĠÃłs": 4248,
      "Ġprecisa": 4249,
      "Ġfight": 4250,
      "ardi": 4251,
      "Ġprimer": 4252,
      "Ġcav": 4253,
      "Ġmusst": 4254,
      "cl": 4255,
      "ÑĤ": 4256,
      "Not": 4257,
      "ĠStra": 4258,
      "erc": 4259,
      "arse": 4260,
      "Ġhadn": 4261,
      "Ġluck": 4262,
      "cep": 4263,
      "Ġallein": 4264,
      "zioni": 4265,
      "oria": 4266,
      "Ġbase": 4267,
      "Ġano": 4268,
      "Nos": 4269,
      "Ġgame": 4270,
      "Ellos": 4271,
      "yed": 4272,
      "Ġjullie": 4273,
      "Ġforma": 4274,
      "Ġloved": 4275,
      "Ġgetan": 4276,
      "fte": 4277,
      "ĠcaffÃ¨": 4278,
      "Ġbirth": 4279,
      "Ġgets": 4280,
      "ostr": 4281,
      "Ġgoes": 4282,
      "Ġcomes": 4283,
      "Ġcomida": 4284,
      "These": 4285,
      "Vamos": 4286,
      "ĠKa": 4287,
      "ases": 4288,
      "ĠKat": 4289,
      "ismo": 4290,
      "Ġwaar": 4291,
      "Ġproprio": 4292,
      "zion": 4293,
      "ational": 4294,
      "ĠamanhÃ£": 4295,
      "unge": 4296,
      "eth": 4297,
      "Ġfront": 4298,
      "Ġtalked": 4299,
      "inar": 4300,
      "Ġrap": 4301,
      "Ġnotte": 4302,
      "Ġscared": 4303,
      "ĠJahren": 4304,
      "Ġschwer": 4305,
      "Ser": 4306,
      "Ġragione": 4307,
      "Ġstudents": 4308,
      "Ġprest": 4309,
      "Ġabsol": 4310,
      "Dit": 4311,
      "Ġunser": 4312,
      "Ġcidade": 4313,
      "Ġdest": 4314,
      "Ġquiere": 4315,
      "Gu": 4316,
      "auft": 4317,
      "adi": 4318,
      "Ġspo": 4319,
      "Ġcans": 4320,
      "ĠSprache": 4321,
      "ican": 4322,
      "Ġsepar": 4323,
      "Ġtras": 4324,
      "reiben": 4325,
      "Ġintell": 4326,
      "Ġdet": 4327,
      "Ġequi": 4328,
      "ĠOr": 4329,
      "Ġstanno": 4330,
      "ĠGre": 4331,
      "Ġmismo": 4332,
      "ĠWahrheit": 4333,
      "oli": 4334,
      "Ġfeeling": 4335,
      "Ġveder": 4336,
      "ĠglÃ¼cklich": 4337,
      "ime": 4338,
      "Ġwirst": 4339,
      "ham": 4340,
      "Ġsabia": 4341,
      "ĠCanada": 4342,
      "enza": 4343,
      "Ġutil": 4344,
      "Ġfing": 4345,
      "Ġverk": 4346,
      "Ġcoisas": 4347,
      "Ġosped": 4348,
      "ities": 4349,
      "Ġveel": 4350,
      "pen": 4351,
      "Ġrela": 4352,
      "Ġsafe": 4353,
      "Ġacab": 4354,
      "Ġseit": 4355,
      "Ġproc": 4356,
      "ye": 4357,
      "Ġcla": 4358,
      "isen": 4359,
      "Ġod": 4360,
      "ues": 4361,
      "Ġascol": 4362,
      "Ġgenitori": 4363,
      "Vou": 4364,
      "Ġtall": 4365,
      "Ġpark": 4366,
      "Ġabri": 4367,
      "illa": 4368,
      "Ġcabe": 4369,
      "gui": 4370,
      "Ġsn": 4371,
      "Ġabbia": 4372,
      "Ġlen": 4373,
      "Ġincontr": 4374,
      "Ġnostre": 4375,
      "Pare": 4376,
      "Ġimpegn": 4377,
      "Ġworks": 4378,
      "avÃŃa": 4379,
      "schied": 4380,
      "ror": 4381,
      "ĠBes": 4382,
      "esc": 4383,
      "unque": 4384,
      "Precis": 4385,
      "emi": 4386,
      "Ġdela": 4387,
      "Ġfix": 4388,
      "Ġworked": 4389,
      "Nie": 4390,
      "Ã«": 4391,
      "Nobody": 4392,
      "ĠtÃªm": 4393,
      "Ġball": 4394,
      "Ġborn": 4395,
      "fter": 4396,
      "ils": 4397,
      "inta": 4398,
      "Ġeng": 4399,
      "Ġgeben": 4400,
      "Ġsera": 4401,
      "Ġquesti": 4402,
      "Ġvino": 4403,
      "Hoe": 4404,
      "Ġvolt": 4405,
      "CÃ³mo": 4406,
      "pra": 4407,
      "Ġthinking": 4408,
      "ciuto": 4409,
      "ym": 4410,
      "Ġhund": 4411,
      "Ġcarri": 4412,
      "ĠWort": 4413,
      "rote": 4414,
      "Ġadmitted": 4415,
      "dig": 4416,
      "Ġlic": 4417,
      "Ġdej": 4418,
      "Ġserve": 4419,
      "Ġproblems": 4420,
      "Ġnatur": 4421,
      "Ġwalked": 4422,
      "Ġaffari": 4423,
      "uw": 4424,
      "Ġidi": 4425,
      "vas": 4426,
      "glie": 4427,
      "fi": 4428,
      "Ġbeim": 4429,
      "Ġglaub": 4430,
      "tige": 4431,
      "ctober": 4432,
      "etro": 4433,
      "ĠGed": 4434,
      "Ġkids": 4435,
      "uni": 4436,
      "annt": 4437,
      "Ġdenke": 4438,
      "Ġavuto": 4439,
      "tivo": 4440,
      "rios": 4441,
      "hip": 4442,
      "Ġdot": 4443,
      "orre": 4444,
      "etzen": 4445,
      "idi": 4446,
      "Ġprodu": 4447,
      "Ġessa": 4448,
      "ĠrÃ¡pido": 4449,
      "ffer": 4450,
      "Ġnostro": 4451,
      "Ġpiacciono": 4452,
      "ĠYou": 4453,
      "tire": 4454,
      "Ġrather": 4455,
      "Ġposto": 4456,
      "uÃ©s": 4457,
      "ĠFahr": 4458,
      "Ġconoc": 4459,
      "Ġamiche": 4460,
      "Ġalong": 4461,
      "Ġbegan": 4462,
      "Ġpan": 4463,
      "Ã©is": 4464,
      "icile": 4465,
      "Ġcamp": 4466,
      "Yanni": 4467,
      "ster": 4468,
      "Ġgoed": 4469,
      "Ġforte": 4470,
      "arle": 4471,
      "Ġmolti": 4472,
      "ĠOctober": 4473,
      "Ġcheck": 4474,
      "gentina": 4475,
      "Ġsever": 4476,
      "iclet": 4477,
      "iers": 4478,
      "Po": 4479,
      "Ġstanza": 4480,
      "Ġsentito": 4481,
      "Ġalguma": 4482,
      "usste": 4483,
      "Ġgute": 4484,
      "Sab": 4485,
      "Ġcuc": 4486,
      "ef": 4487,
      "gehen": 4488,
      "Ġdisa": 4489,
      "Ġescola": 4490,
      "Haben": 4491,
      "anten": 4492,
      "Ġcloth": 4493,
      "ork": 4494,
      "Ġged": 4495,
      "acc": 4496,
      "Ġcerte": 4497,
      "Ġstudying": 4498,
      "Ġbrought": 4499,
      "andon": 4500,
      "Ġfive": 4501,
      "Ġmill": 4502,
      "tigo": 4503,
      "Ġimporta": 4504,
      "pois": 4505,
      "Ġpaar": 4506,
      "Ġplane": 4507,
      "Oh": 4508,
      "umen": 4509,
      "Ġweiter": 4510,
      "Ġdeinen": 4511,
      "rÃŃa": 4512,
      "Ġcum": 4513,
      "Ġleben": 4514,
      "Ġverb": 4515,
      "Ġenter": 4516,
      "Ġapenas": 4517,
      "Ġvas": 4518,
      "Ġsell": 4519,
      "ĠKle": 4520,
      "Ġterri": 4521,
      "ĠProblem": 4522,
      "Ġusted": 4523,
      "Ġlingua": 4524,
      "Ġpoint": 4525,
      "Ġexpected": 4526,
      "rÃ¼": 4527,
      "Ġmistake": 4528,
      "Cuando": 4529,
      "Ġcinco": 4530,
      "Ġextra": 4531,
      "way": 4532,
      "ĠÃľber": 4533,
      "Gra": 4534,
      "Ġtur": 4535,
      "ĠfÃ¼nf": 4536,
      "Ġsand": 4537,
      "Ġdeal": 4538,
      "Ġattra": 4539,
      "ĠprÃ³x": 4540,
      "Ġgaan": 4541,
      "Ġshort": 4542,
      "ĠMin": 4543,
      "Ġcarne": 4544,
      "Ġsqu": 4545,
      "Ġfiz": 4546,
      "ĠStati": 4547,
      "Sar": 4548,
      "bed": 4549,
      "ĠasÃŃ": 4550,
      "Ġsoz": 4551,
      "Ġcomigo": 4552,
      "lafen": 4553,
      "Ġstai": 4554,
      "Ġsag": 4555,
      "ĠFehler": 4556,
      "wort": 4557,
      "idas": 4558,
      "ĠdÃŃas": 4559,
      "amil": 4560,
      "Ġagre": 4561,
      "Ġleast": 4562,
      "Ġorgan": 4563,
      "Ġmid": 4564,
      "ĠnÃ¤ch": 4565,
      "Ġcoche": 4566,
      "Ġdifficile": 4567,
      "Ġamiciz": 4568,
      "ĠRussia": 4569,
      "Ġsapere": 4570,
      "isco": 4571,
      "Ġfabbr": 4572,
      "Ġhit": 4573,
      "arden": 4574,
      "Ġmur": 4575,
      "ĠmÃ©d": 4576,
      "ĠAlger": 4577,
      "Ġnews": 4578,
      "Ġsteht": 4579,
      "Ġerst": 4580,
      "cent": 4581,
      "ĠKl": 4582,
      "Ġcomple": 4583,
      "Ġpalab": 4584,
      "Ġage": 4585,
      "Ġwall": 4586,
      "Ġquasi": 4587,
      "Ġraz": 4588,
      "Ġsaying": 4589,
      "Ġtrovato": 4590,
      "Ġeduc": 4591,
      "ĠMit": 4592,
      "ugu": 4593,
      "Ġcach": 4594,
      "Ġbur": 4595,
      "gesch": 4596,
      "Ġhizo": 4597,
      "ÃŃan": 4598,
      "Ġbella": 4599,
      "Ġach": 4600,
      "Ġmenti": 4601,
      "ility": 4602,
      "astanza": 4603,
      "Ġcareful": 4604,
      "ĠEnglisch": 4605,
      "ĠÃ¡r": 4606,
      "Ġajudar": 4607,
      "Tien": 4608,
      "Ġplans": 4609,
      "ĠSchl": 4610,
      "stem": 4611,
      "Ġabbastanza": 4612,
      "Ġesa": 4613,
      "Ġclose": 4614,
      "duc": 4615,
      "meno": 4616,
      "Ġfinden": 4617,
      "rÃ¡s": 4618,
      "enz": 4619,
      "Ġthre": 4620,
      "Ġleer": 4621,
      "Ġestado": 4622,
      "Ġfinish": 4623,
      "Auf": 4624,
      "emp": 4625,
      "set": 4626,
      "Ġdiscuss": 4627,
      "Ġinteresting": 4628,
      "Ġneigh": 4629,
      "for": 4630,
      "Ġocchi": 4631,
      "endi": 4632,
      "Ġfour": 4633,
      "Ġquis": 4634,
      "imit": 4635,
      "Ġscha": 4636,
      "Ġchanged": 4637,
      "Ġdefin": 4638,
      "ĠBrief": 4639,
      "Ġmine": 4640,
      "Ġhomework": 4641,
      "ĠBel": 4642,
      "ĠWeg": 4643,
      "Ġmeer": 4644,
      "Ġpossiamo": 4645,
      "Creo": 4646,
      "ĠNat": 4647,
      "Ġvideo": 4648,
      "icas": 4649,
      "Ġlaugh": 4650,
      "Ġbox": 4651,
      "rar": 4652,
      "uela": 4653,
      "Ġhecho": 4654,
      "cted": 4655,
      "fica": 4656,
      "ieb": 4657,
      "Ġciud": 4658,
      "Just": 4659,
      "zer": 4660,
      "Ġmoved": 4661,
      "Ġcaught": 4662,
      "Av": 4663,
      "ilen": 4664,
      "Ġloves": 4665,
      "inland": 4666,
      "Ġnasc": 4667,
      "Ġdic": 4668,
      "ilfe": 4669,
      "Ġgiov": 4670,
      "ĠMuslim": 4671,
      "Ġsle": 4672,
      "Ġdopo": 4673,
      "Ġsitting": 4674,
      "Ġwrote": 4675,
      "Ġbi": 4676,
      "Ġatta": 4677,
      "Ġinj": 4678,
      "Ġwillst": 4679,
      "ĠÃ¡gua": 4680,
      "ĠinglÃªs": 4681,
      "Ġbiciclet": 4682,
      "Ġmondo": 4683,
      "tigen": 4684,
      "Ġacred": 4685,
      "Ġbill": 4686,
      "Ġgato": 4687,
      "Sa": 4688,
      "Ġsuc": 4689,
      "Ġtradu": 4690,
      "Ġmonths": 4691,
      "Niemand": 4692,
      "ĠgrÃ¶ÃŁ": 4693,
      "bracht": 4694,
      "Ġama": 4695,
      "ices": 4696,
      "Both": 4697,
      "Espero": 4698,
      "Ġnostra": 4699,
      "ĠTod": 4700,
      "Ġihrer": 4701,
      "ala": 4702,
      "One": 4703,
      "Ġsex": 4704,
      "Tutti": 4705,
      "Ġworry": 4706,
      "Ġmorte": 4707,
      "Ġmesa": 4708,
      "Ġperfect": 4709,
      "ĠGeb": 4710,
      "ĠtenÃŃa": 4711,
      "enhum": 4712,
      "Elas": 4713,
      "ĠinglÃ©s": 4714,
      "ahn": 4715,
      "Ġshoes": 4716,
      "ĠAngst": 4717,
      "Ġ'": 4718,
      "Thank": 4719,
      "ellt": 4720,
      "Ġguerra": 4721,
      "vered": 4722,
      "ficio": 4723,
      "ÃŃt": 4724,
      "Ġwilling": 4725,
      "Many": 4726,
      "Ġsan": 4727,
      "Ġerg": 4728,
      "Todo": 4729,
      "Ġnegozi": 4730,
      "sen": 4731,
      "Ġ10": 4732,
      "into": 4733,
      "reb": 4734,
      "ieme": 4735,
      "Ġsarebbe": 4736,
      "Ġfavorite": 4737,
      "ĠFreunde": 4738,
      "Ġnuevo": 4739,
      "Ġcult": 4740,
      "Ġlarge": 4741,
      "Ġcug": 4742,
      "Ġbuen": 4743,
      "ĠUniti": 4744,
      "Ġ4": 4745,
      "imming": 4746,
      "Ġhol": 4747,
      "Ġstrade": 4748,
      "Acho": 4749,
      "anas": 4750,
      "Ġbol": 4751,
      "Ġlibri": 4752,
      "inden": 4753,
      "Ġtransl": 4754,
      "ĠFrage": 4755,
      "ĠWoche": 4756,
      "irs": 4757,
      "Ġinizi": 4758,
      "jas": 4759,
      "ĠÃ¶": 4760,
      "Ġhid": 4761,
      "ries": 4762,
      "ulg": 4763,
      "Ġwarum": 4764,
      "zeug": 4765,
      "Ġbaby": 4766,
      "Ġchia": 4767,
      "ĠEltern": 4768,
      "Ġclothes": 4769,
      "Ġontem": 4770,
      "Ġweit": 4771,
      "geb": 4772,
      "Ġmaus": 4773,
      "Ġdark": 4774,
      "Ġquickly": 4775,
      "Ġarrived": 4776,
      "JÃ¡": 4777,
      "Ġcad": 4778,
      "Ġcham": 4779,
      "Ġfattor": 4780,
      "Ġpolic": 4781,
      "sehen": 4782,
      "Ġasleep": 4783,
      "ambiÃ©n": 4784,
      "atura": 4785,
      "ĠHo": 4786,
      "Ġedifici": 4787,
      "Ġquit": 4788,
      "Ġunsere": 4789,
      "Ġsollen": 4790,
      "Ġwenig": 4791,
      "orro": 4792,
      "Ġstrong": 4793,
      "ĠirmÃ£": 4794,
      "erst": 4795,
      "Ġpizza": 4796,
      "Ġtrat": 4797,
      "ĠperÃ²": 4798,
      "lagen": 4799,
      "ias": 4800,
      "Ġagua": 4801,
      "ĠChrist": 4802,
      "Ġcour": 4803,
      "ii": 4804,
      "Ġscar": 4805,
      "rag": 4806,
      "igar": 4807,
      "Ġweather": 4808,
      "ielor": 4809,
      "iga": 4810,
      "Ġdormir": 4811,
      "Ġdrunk": 4812,
      "Ġblack": 4813,
      "emente": 4814,
      "Ġtou": 4815,
      "umm": 4816,
      "Ġ(": 4817,
      "Ġsufici": 4818,
      "ez": 4819,
      "wei": 4820,
      "Ġdenaro": 4821,
      "schuld": 4822,
      "Ero": 4823,
      "Ob": 4824,
      "Ġdese": 4825,
      "ellos": 4826,
      "Ġscheint": 4827,
      "gunta": 4828,
      "xe": 4829,
      "Ġwohn": 4830,
      "Ġdias": 4831,
      "Ġheav": 4832,
      "Ġrice": 4833,
      "Ġvezes": 4834,
      "Ġcarriera": 4835,
      "Mit": 4836,
      "86": 4837,
      "omob": 4838,
      "Ġfoot": 4839,
      "tigt": 4840,
      "zig": 4841,
      "Ġens": 4842,
      "Ġhoy": 4843,
      "Ġtrovare": 4844,
      "Ġscuole": 4845,
      "Ġvoy": 4846,
      "Ġestamos": 4847,
      "ua": 4848,
      "leg": 4849,
      "Ġdovrebbe": 4850,
      "ĠDeutsch": 4851,
      "Ġconsegu": 4852,
      "Ġbot": 4853,
      "Ġstore": 4854,
      "Ġwatching": 4855,
      "Ġfas": 4856,
      "Ġimposs": 4857,
      "Ġmosche": 4858,
      "Nessuno": 4859,
      "Ġsoy": 4860,
      "Ġhus": 4861,
      "Ġcand": 4862,
      "Ġcena": 4863,
      "igente": 4864,
      "inken": 4865,
      "ijd": 4866,
      "Ãºmer": 4867,
      "Ġllev": 4868,
      "ĠuniversitÃł": 4869,
      "Ġwear": 4870,
      "Ġverloren": 4871,
      "emo": 4872,
      "ĠAnt": 4873,
      "Quero": 4874,
      "ĠMa": 4875,
      "Ġflow": 4876,
      "Ġaper": 4877,
      "eremos": 4878,
      "Ġparla": 4879,
      "Ġinsegnanti": 4880,
      "uttosto": 4881,
      "cke": 4882,
      "Ġring": 4883,
      "esi": 4884,
      "uchte": 4885,
      "Ġgenug": 4886,
      "ĠBruder": 4887,
      "Ġpublic": 4888,
      "Ġbleiben": 4889,
      "Ġristoranti": 4890,
      "ĠHilfe": 4891,
      "ĠIntern": 4892,
      "ÃŃr": 4893,
      "vious": 4894,
      "ĠLehrer": 4895,
      "ettere": 4896,
      "Ġleggere": 4897,
      "vil": 4898,
      "vit": 4899,
      "Ġtomar": 4900,
      "ĠtÃº": 4901,
      "agog": 4902,
      "auto": 4903,
      "Ġexpl": 4904,
      "orsa": 4905,
      "Ġganze": 4906,
      "Ġspricht": 4907,
      "rieben": 4908,
      "Ġswimming": 4909,
      "nos": 4910,
      "Ġirgend": 4911,
      "Ġstopped": 4912,
      "Ġsido": 4913,
      "Ġneue": 4914,
      "Ġallen": 4915,
      "Ġrestaurant": 4916,
      "iria": 4917,
      "Ġjunt": 4918,
      "Ġbastante": 4919,
      "hst": 4920,
      "ĠFamil": 4921,
      "DÃ³nde": 4922,
      "Ġtree": 4923,
      "Ġpad": 4924,
      "Ġihnen": 4925,
      "atore": 4926,
      "ĠNor": 4927,
      "Ġpiuttosto": 4928,
      "Ġside": 4929,
      "Ġbasi": 4930,
      "Ġfui": 4931,
      "Ġwine": 4932,
      "Ġpregunt": 4933,
      "craina": 4934,
      "Ġappe": 4935,
      "ĠÃ³": 4936,
      "Ġperro": 4937,
      "Eso": 4938,
      "ndo": 4939,
      "Ġweet": 4940,
      "Ġzwischen": 4941,
      "Ġsuas": 4942,
      "Ġamicizie": 4943,
      "Ġore": 4944,
      "Ġwusste": 4945,
      "Ġterra": 4946,
      "Ġponti": 4947,
      "Nach": 4948,
      "Ġgrow": 4949,
      "Ġevening": 4950,
      "bes": 4951,
      "Ġclear": 4952,
      "Ġfis": 4953,
      "Ġtriste": 4954,
      "Ġbanche": 4955,
      "ĠYork": 4956,
      "Ġbambini": 4957,
      "Ġgostaria": 4958,
      "Ġospedali": 4959,
      "ĠIhre": 4960,
      "Ġpren": 4961,
      "ĠCina": 4962,
      "Ġdimentic": 4963,
      "Ġcerteza": 4964,
      "Ġcimit": 4965,
      "ĠÃĦ": 4966,
      "ĠDas": 4967,
      "Ġreden": 4968,
      "Ġgirlfriend": 4969,
      "Ġpoderia": 4970,
      "Ġautostr": 4971,
      "ĠLiebe": 4972,
      "Ġciudad": 4973,
      "pas": 4974,
      "ycle": 4975,
      "Ġtel": 4976,
      "Ġdaz": 4977,
      "Ġatra": 4978,
      "Ġshall": 4979,
      "Ġbirrer": 4980,
      "84": 4981,
      "Ġpur": 4982,
      "acche": 4983,
      "Ġlose": 4984,
      "fÃ¼r": 4985,
      "form": 4986,
      "orme": 4987,
      "Ġgratta": 4988,
      "blie": 4989,
      "arias": 4990,
      "Ġothers": 4991,
      "izio": 4992,
      "ĠnÃºmer": 4993,
      "Ġcosas": 4994,
      "kte": 4995,
      "Ġnegli": 4996,
      "Ġliegt": 4997,
      "ĠgroÃŁe": 4998,
      "Ġimmediat": 4999,
      "ĠBett": 5000,
      "Ã¤us": 5001,
      "Ġpersonas": 5002,
      "Ġmilitari": 5003,
      "ande": 5004,
      "Ġreport": 5005,
      "Ġbiblioteche": 5006,
      "Ġfabbriche": 5007,
      "arono": 5008,
      "vem": 5009,
      "occo": 5010,
      "Ġmolte": 5011,
      "ĠKabylie": 5012,
      "Na": 5013,
      "Ġpick": 5014,
      "Ġsinagog": 5015,
      "ĠfrancÃ©s": 5016,
      "Ġtrip": 5017,
      "Ġgovern": 5018,
      "Ġgrattaci": 5019,
      "ĠMein": 5020,
      "terra": 5021,
      "ĠNord": 5022,
      "Ġtempli": 5023,
      "Ġmoschee": 5024,
      "Ap": 5025,
      "ĠKopf": 5026,
      "Ġolder": 5027,
      "Ġfattorie": 5028,
      "nung": 5029,
      "Ġwarm": 5030,
      "Ġrealized": 5031,
      "ĠIndia": 5032,
      "encia": 5033,
      "Ġwomen": 5034,
      "Ġcausa": 5035,
      "ĠChina": 5036,
      "Ġgrattacieli": 5037,
      "Ġsla": 5038,
      "Ġbew": 5039,
      "atoi": 5040,
      "Ġbuona": 5041,
      "Ġmausole": 5042,
      "Ġdaran": 5043,
      "Ġconosce": 5044,
      "Ġstoria": 5045,
      "Ġcimiteri": 5046,
      "ĠwÃ¼n": 5047,
      "Ġgez": 5048,
      "Ġqueste": 5049,
      "Ġpalestre": 5050,
      "vamenti": 5051,
      "Ġautostrade": 5052,
      "Ġbirrerie": 5053,
      "Lass": 5054,
      "ling": 5055,
      "ĠTo": 5056,
      "Ġallevamenti": 5057,
      "rugu": 5058,
      "Ġbaracche": 5059,
      "Ġarene": 5060,
      "QuiÃ©n": 5061,
      "Ġmattatoi": 5062,
      "Ġvergessen": 5063,
      "Ġsinagoghe": 5064,
      "Ġmausolei": 5065,
      "Mir": 5066,
      "Ġcercando": 5067,
      "Ġklein": 5068,
      "ĠMarÃŃa": 5069,
      "Ġsuit": 5070,
      "hai": 5071,
      "Ġpergunt": 5072,
      "cel": 5073,
      "af": 5074,
      "Ġcru": 5075,
      "Ġpract": 5076,
      "atic": 5077,
      "Ġbravo": 5078,
      "Ġbald": 5079,
      "Ġguitar": 5080,
      "Ġleicht": 5081,
      "Ġstati": 5082,
      "iment": 5083,
      "Ġpoor": 5084,
      "Ġdifferen": 5085,
      "outh": 5086,
      "eces": 5087,
      "Ð¾Ð": 5088,
      "val": 5089,
      "Ġrub": 5090,
      "Ġcama": 5091,
      "ĠParis": 5092,
      "ĠerzÃ¤": 5093,
      "Ġandremo": 5094,
      "Ġhur": 5095,
      "Ġkennen": 5096,
      "Ġotra": 5097,
      "ĠGlÃ¼ck": 5098,
      "Ġtardi": 5099,
      "Ġpopular": 5100,
      "Ġhusband": 5101,
      "isce": 5102,
      "uts": 5103,
      "ibi": 5104,
      "ĠZug": 5105,
      "under": 5106,
      "ully": 5107,
      "alien": 5108,
      "Ġflu": 5109,
      "ution": 5110,
      "Ġmot": 5111,
      "Ġhold": 5112,
      "Ġbij": 5113,
      "ĠGall": 5114,
      "ĠEnde": 5115,
      "Ġmangiato": 5116,
      "Ã³ria": 5117,
      "mais": 5118,
      "lhe": 5119,
      "Ġought": 5120,
      "Ġpio": 5121,
      "Ġsuccess": 5122,
      "ichen": 5123,
      "Ã¤h": 5124,
      "Ġsport": 5125,
      "Ġhist": 5126,
      "ĠSpagna": 5127,
      "Ġ6": 5128,
      "eron": 5129,
      "Ġganzen": 5130,
      "ĠlÃŃngua": 5131,
      "Ġjeder": 5132,
      "gou": 5133,
      "Ã¶hn": 5134,
      "Ġroad": 5135,
      "ensive": 5136,
      "Ġlearned": 5137,
      "Ġacha": 5138,
      "ilia": 5139,
      "Ġfazendo": 5140,
      "Ġragazza": 5141,
      "omer": 5142,
      "elijk": 5143,
      "ĠLebens": 5144,
      "Ġtick": 5145,
      "ĠSta": 5146,
      "Ġsalv": 5147,
      "oit": 5148,
      "Toms": 5149,
      "akt": 5150,
      "Ġlado": 5151,
      "Ġfair": 5152,
      "Ġtener": 5153,
      "Ġinteressante": 5154,
      "Ġster": 5155,
      "Ġandata": 5156,
      "Den": 5157,
      "ruck": 5158,
      "Qualc": 5159,
      "Ġextrem": 5160,
      "Ġcominci": 5161,
      "Ġkaufen": 5162,
      "bel": 5163,
      "tiop": 5164,
      "ĠJapanese": 5165,
      "Ġbirthday": 5166,
      "Ġcara": 5167,
      "Ġgiven": 5168,
      "Ġstreet": 5169,
      "Ġoper": 5170,
      "Ġdeze": 5171,
      "Ġcapital": 5172,
      "Spero": 5173,
      "Ã¼nd": 5174,
      "ĠvÃ¡": 5175,
      "Ġcup": 5176,
      "ritt": 5177,
      "Ġler": 5178,
      "Ġisto": 5179,
      "ĠspÃ¤t": 5180,
      "weise": 5181,
      "Ġmayor": 5182,
      "ĠEuropa": 5183,
      "ross": 5184,
      "osi": 5185,
      "Ġenfer": 5186,
      "Ġnadie": 5187,
      "Ġdare": 5188,
      "Ġshot": 5189,
      "ĠveritÃł": 5190,
      "hou": 5191,
      "heid": 5192,
      "ilterra": 5193,
      "ĠdarÃ¼ber": 5194,
      "Ġcollege": 5195,
      "hem": 5196,
      "Ġdemais": 5197,
      "Ġitali": 5198,
      "ĠGro": 5199,
      "ĠAnd": 5200,
      "enscha": 5201,
      "Ġscrit": 5202,
      "ghilterra": 5203,
      "Ġinglese": 5204,
      "ĠAmerica": 5205,
      "Ġlem": 5206,
      "Ġvamos": 5207,
      "ĠJack": 5208,
      "ĠViet": 5209,
      "Ġappro": 5210,
      "Ġdollars": 5211,
      "Ġning": 5212,
      "Ġquiet": 5213,
      "ĠSchwester": 5214,
      "Oggi": 5215,
      "ÃŃdo": 5216,
      "Ġfino": 5217,
      "Ġdomanda": 5218,
      "John": 5219,
      "Ġwash": 5220,
      "Ġju": 5221,
      "Ġaiuto": 5222,
      "ĠDeus": 5223,
      "Ġprincip": 5224,
      "Ġseveral": 5225,
      "ding": 5226,
      "Ġnenhum": 5227,
      "gew": 5228,
      "Ġricord": 5229,
      "Ġvolete": 5230,
      "Ġimpro": 5231,
      "Ġmorto": 5232,
      "Ġvos": 5233,
      "Ġnervous": 5234,
      "ĠmanhÃ£": 5235,
      "tanto": 5236,
      "Ġaccept": 5237,
      "Hat": 5238,
      "ĠsÃŃ": 5239,
      "Ġelect": 5240,
      "Ġfala": 5241,
      "Zij": 5242,
      "Ġearth": 5243,
      "Ġshowed": 5244,
      "ters": 5245,
      "ibo": 5246,
      "ĠKaffee": 5247,
      "otos": 5248,
      "Now": 5249,
      "Ġbank": 5250,
      "Ġfish": 5251,
      "ĠMorgen": 5252,
      "Ġviv": 5253,
      "Ġtemper": 5254,
      "Ġtaken": 5255,
      "Ġcatch": 5256,
      "Ġprenotare": 5257,
      "riÃ³": 5258,
      "Ġpodemos": 5259,
      "ountain": 5260,
      "eremo": 5261,
      "imar": 5262,
      "vole": 5263,
      "Ġlettera": 5264,
      "Sou": 5265,
      "Ġcuidado": 5266,
      "Ġchoc": 5267,
      "Ġdesper": 5268,
      "isp": 5269,
      "Ġembar": 5270,
      "ĠArgentina": 5271,
      "Ġcompletamente": 5272,
      "Ġlying": 5273,
      "Ġgas": 5274,
      "Ġsuon": 5275,
      "Ġduas": 5276,
      "ĠtambiÃ©n": 5277,
      "lled": 5278,
      "Ġbekommen": 5279,
      "Ġconven": 5280,
      "Ġrum": 5281,
      "ĠniÃ±os": 5282,
      "ĠVietnam": 5283,
      "cas": 5284,
      "met": 5285,
      "Ġzwe": 5286,
      "Ġdispia": 5287,
      "rÃ¡": 5288,
      "atti": 5289,
      "vert": 5290,
      "Ġradio": 5291,
      "Ġbev": 5292,
      "ĠVers": 5293,
      "Ġsollten": 5294,
      "Ġzehn": 5295,
      "Ġdazu": 5296,
      "Ġdachte": 5297,
      "Quer": 5298,
      "Ġapro": 5299,
      "Ġupset": 5300,
      "Ġferm": 5301,
      "gum": 5302,
      "Ġficou": 5303,
      "acebook": 5304,
      "Ġveces": 5305,
      "cato": 5306,
      "ĠninguÃ©m": 5307,
      "ibile": 5308,
      "Soy": 5309,
      "acqua": 5310,
      "Ġgekommen": 5311,
      "Ġprofes": 5312,
      "atica": 5313,
      "Ñģ": 5314,
      "ĠSte": 5315,
      "iamente": 5316,
      "Ġmujer": 5317,
      "fahren": 5318,
      "Ġhinter": 5319,
      "Ġfinito": 5320,
      "Ġreach": 5321,
      "lossen": 5322,
      "asera": 5323,
      "Ġinno": 5324,
      "Marie": 5325,
      "Estamos": 5326,
      "Ġpessoa": 5327,
      "folg": 5328,
      "Ġfamiglia": 5329,
      "Ġgarden": 5330,
      "Ġfahren": 5331,
      "Ġstol": 5332,
      "Ġfotograf": 5333,
      "Forse": 5334,
      "Ġfratello": 5335,
      "Pensavo": 5336,
      "Ġnormal": 5337,
      "Ġast": 5338,
      "ĠaÃ±o": 5339,
      "inato": 5340,
      "Ġpunto": 5341,
      "rias": 5342,
      "ĠAra": 5343,
      "Ġclim": 5344,
      "Ġappre": 5345,
      "atever": 5346,
      "Ġprossima": 5347,
      "Ġcres": 5348,
      "Ġidio": 5349,
      "Ġprimo": 5350,
      "ĠFinland": 5351,
      "Ġpain": 5352,
      "Ġtrem": 5353,
      "Ġbody": 5354,
      "Ġcontr": 5355,
      "Ġcolor": 5356,
      "Ve": 5357,
      "Ġnoti": 5358,
      "Ġandrai": 5359,
      "Ġperder": 5360,
      "ĠBaya": 5361,
      "Ġduring": 5362,
      "Nicht": 5363,
      "ĠhÃ¶": 5364,
      "Ġweeks": 5365,
      "Ġconvinc": 5366,
      "Ġgiorni": 5367,
      "Ġvriend": 5368,
      "unnen": 5369,
      "Ġdangerous": 5370,
      "fully": 5371,
      "rach": 5372,
      "Ġnovel": 5373,
      "igin": 5374,
      "Ġaltri": 5375,
      "ĠmÃ©dico": 5376,
      "ĠMess": 5377,
      "ds": 5378,
      "ah": 5379,
      "ĠFuÃŁ": 5380,
      "Ġgekauft": 5381,
      "Ð¸": 5382,
      "Ġverlie": 5383,
      "Ġfinally": 5384,
      "Ġspeaks": 5385,
      "Ġfiglio": 5386,
      "Ġsbagli": 5387,
      "agem": 5388,
      "enster": 5389,
      "fast": 5390,
      "arci": 5391,
      "urz": 5392,
      "Everybody": 5393,
      "Ġons": 5394,
      "istan": 5395,
      "Ġproblemas": 5396,
      "ĠGrecia": 5397,
      "Ġeing": 5398,
      "Ġvivere": 5399,
      "Ġesperar": 5400,
      "inese": 5401,
      "Ġpuoi": 5402,
      "bres": 5403,
      "Ġcompletely": 5404,
      "Ġtijd": 5405,
      "Ġali": 5406,
      "Ġfore": 5407,
      "Ġtelling": 5408,
      "Ġenerg": 5409,
      "Ġopened": 5410,
      "Bist": 5411,
      "ny": 5412,
      "Ġsorella": 5413,
      "Ġandrete": 5414,
      "fon": 5415,
      "uhe": 5416,
      "Ġsemp": 5417,
      "aged": 5418,
      "Ġbuon": 5419,
      "nten": 5420,
      "nehmen": 5421,
      "unda": 5422,
      "Ġandranno": 5423,
      "ĠGrund": 5424,
      "ĠhÃ¶ren": 5425,
      "Esto": 5426,
      "Ġgrado": 5427,
      "uÃŁer": 5428,
      "Ġfle": 5429,
      "ĠBulg": 5430,
      "Ġgun": 5431,
      "ĠDo": 5432,
      "erto": 5433,
      "Ġstesso": 5434,
      "aciones": 5435,
      "iere": 5436,
      "Ġspielen": 5437,
      "Ġspeaking": 5438,
      "Cont": 5439,
      "ĠAp": 5440,
      "Ġveget": 5441,
      "Ġfact": 5442,
      "Ġaz": 5443,
      "Ġdarauf": 5444,
      "jd": 5445,
      "Ġbicycle": 5446,
      "Ġsituation": 5447,
      "Ġprison": 5448,
      "haupt": 5449,
      "Ġsve": 5450,
      "Preciso": 5451,
      "Ġded": 5452,
      "Ġmater": 5453,
      "ĠSatz": 5454,
      "Ġrou": 5455,
      "ĠAm": 5456,
      "izia": 5457,
      "Ġgrad": 5458,
      "Ġcachorro": 5459,
      "Ġrigu": 5460,
      "Ġpower": 5461,
      "Ġvent": 5462,
      "Ġdocum": 5463,
      "Sc": 5464,
      "Ġdeu": 5465,
      "omobile": 5466,
      "uomo": 5467,
      "ÃŃc": 5468,
      "Ġgegangen": 5469,
      "Ġescuela": 5470,
      "Mio": 5471,
      "Ġnuova": 5472,
      "ierto": 5473,
      "Ġconstru": 5474,
      "ĠZel": 5475,
      "Tra": 5476,
      "remo": 5477,
      "Ġbott": 5478,
      "Ġtop": 5479,
      "ĠSaud": 5480,
      "lle": 5481,
      "Ġuomo": 5482,
      "ĠGeschichte": 5483,
      "Ġcibo": 5484,
      "olle": 5485,
      "Ġparlato": 5486,
      "Ġfuture": 5487,
      "Ġpaint": 5488,
      "Ġsenhora": 5489,
      "ĠBÃ¼cher": 5490,
      "ech": 5491,
      "Ġbent": 5492,
      "Ġlearning": 5493,
      "Ġcard": 5494,
      "ĠfrÃ¼h": 5495,
      "Ġstudenti": 5496,
      "Ġbraucht": 5497,
      "Ġbal": 5498,
      "oste": 5499,
      "ĠAustria": 5500,
      "atient": 5501,
      "ĠquerÃŃa": 5502,
      "ulo": 5503,
      "Ġpromise": 5504,
      "ĠPark": 5505,
      "cado": 5506,
      "ĠFacebook": 5507,
      "ĠKo": 5508,
      "Ġrecord": 5509,
      "After": 5510,
      "Ġsotto": 5511,
      "Ġband": 5512,
      "Ġgenti": 5513,
      "unter": 5514,
      "Ġnodig": 5515,
      "Ġerinn": 5516,
      "aben": 5517,
      "ĠPorto": 5518,
      "Ġotro": 5519,
      "ĠAlgerian": 5520,
      "Ġdivor": 5521,
      "Ġlucky": 5522,
      "Ġtreno": 5523,
      "Ġwished": 5524,
      "tir": 5525,
      "Ġmusica": 5526,
      "Ġsai": 5527,
      "Ġtext": 5528,
      "ĠnÃºmero": 5529,
      "Ġwhite": 5530,
      "prochen": 5531,
      "Ã¤f": 5532,
      "Heute": 5533,
      "Ġattention": 5534,
      "Ġfilho": 5535,
      "Ġpasado": 5536,
      "Anche": 5537,
      "Ġritardo": 5538,
      "Ġwerd": 5539,
      "Ġascolt": 5540,
      "arf": 5541,
      "mals": 5542,
      "stÃ¤nd": 5543,
      "Ġluz": 5544,
      "las": 5545,
      "ĠirmÃ£o": 5546,
      "Ġleaving": 5547,
      "mit": 5548,
      "Ġdenk": 5549,
      "Ġtutta": 5550,
      "Ġaos": 5551,
      "ĠMessico": 5552,
      "Esse": 5553,
      "weg": 5554,
      "ĠBrasile": 5555,
      "bania": 5556,
      "Minha": 5557,
      "eca": 5558,
      "Ġpicc": 5559,
      "Ġwann": 5560,
      "eless": 5561,
      "ĠDu": 5562,
      "Ġsomebody": 5563,
      "Ġbreakfast": 5564,
      "Ġbaseball": 5565,
      "wich": 5566,
      "Ġlad": 5567,
      "Ġinde": 5568,
      "ppen": 5569,
      "iero": 5570,
      "Ġcrying": 5571,
      "Ġeither": 5572,
      "Ã¤nger": 5573,
      "enne": 5574,
      "itter": 5575,
      "Ġsud": 5576,
      "Ġteu": 5577,
      "Ġsolltest": 5578,
      "ĠArabia": 5579,
      "Ġdall": 5580,
      "ingt": 5581,
      "ĠSve": 5582,
      "Ġpress": 5583,
      "Ġestudar": 5584,
      "adores": 5585,
      "Ġkit": 5586,
      "ĠMalta": 5587,
      "ĠRomania": 5588,
      "People": 5589,
      "Ġexplain": 5590,
      "ĠInghilterra": 5591,
      "ory": 5592,
      "Ġchegar": 5593,
      "ĠtrÃ¤": 5594,
      "Ġsolamente": 5595,
      "Give": 5596,
      "Ġsometimes": 5597,
      "Ġhuis": 5598,
      "Ġfoss": 5599,
      "Tienes": 5600,
      "ĠSvezia": 5601,
      "NinguÃ©m": 5602,
      "Ġnun": 5603,
      "ĠKon": 5604,
      "unci": 5605,
      "Ġesposa": 5606,
      "Ġslow": 5607,
      "Ġtienen": 5608,
      "rouw": 5609,
      "arli": 5610,
      "Ġfool": 5611,
      "altra": 5612,
      "Ġprossimo": 5613,
      "ĠBulgaria": 5614,
      "Ġincl": 5615,
      "ĠInternet": 5616,
      "fo": 5617,
      "gallo": 5618,
      "aps": 5619,
      "istic": 5620,
      "Ġsentence": 5621,
      "ĠGef": 5622,
      "ĠChristmas": 5623,
      "ĠPortogallo": 5624,
      "Ġforam": 5625,
      "Ġcole": 5626,
      "Ġconosco": 5627,
      "Ġtea": 5628,
      "ĠTurch": 5629,
      "Ġglauben": 5630,
      "Ġanimal": 5631,
      "ĠTurchia": 5632,
      "rom": 5633,
      "ĠalguÃ©m": 5634,
      "ĠSpiel": 5635,
      "Ġhang": 5636,
      "Ġquarto": 5637,
      "Ġzich": 5638,
      "Hier": 5639,
      "ĠhÃ¶r": 5640,
      "ĠSiria": 5641,
      "Ġtren": 5642,
      "Ecco": 5643,
      "heim": 5644,
      "ĠGott": 5645,
      "Ġriesce": 5646,
      "87": 5647,
      "Ġgam": 5648,
      "Ġemb": 5649,
      "Ġlieber": 5650,
      "Ġmattina": 5651,
      "Ġstrange": 5652,
      "Ġcrit": 5653,
      "idades": 5654,
      "schein": 5655,
      "ĠFinlandia": 5656,
      "arch": 5657,
      "Ġgele": 5658,
      "ĠBielor": 5659,
      "ĠdespuÃ©s": 5660,
      "ĠÂ¡": 5661,
      "erk": 5662,
      "Ġvill": 5663,
      "Ġnotic": 5664,
      "Deve": 5665,
      "inas": 5666,
      "Ġnar": 5667,
      "ends": 5668,
      "lik": 5669,
      "Ġbiblioteca": 5670,
      "ĠheiÃŁt": 5671,
      "ĠBan": 5672,
      "Ġtaxi": 5673,
      "Ġinside": 5674,
      "Ġstessa": 5675,
      "uova": 5676,
      "Ġandando": 5677,
      "ĠBild": 5678,
      "Ġenem": 5679,
      "Ġones": 5680,
      "Ġdisso": 5681,
      "ĠquiÃ©n": 5682,
      "ĠMeinung": 5683,
      "ĠZelanda": 5684,
      "ĠSaudita": 5685,
      "Ġtus": 5686,
      "Ġpais": 5687,
      "Ġacross": 5688,
      "Ġabsolut": 5689,
      "Ġmese": 5690,
      "stell": 5691,
      "Ġsense": 5692,
      "Waarom": 5693,
      "Ġdeiner": 5694,
      "ĠTokyo": 5695,
      "ĠKatze": 5696,
      "Ġsad": 5697,
      "Ab": 5698,
      "Ġlesen": 5699,
      "deu": 5700,
      "Ora": 5701,
      "irat": 5702,
      "Ġmihi": 5703,
      "Ġcaus": 5704,
      "Ġfalta": 5705,
      "ggia": 5706,
      "Ġdecision": 5707,
      "ĠSohn": 5708,
      "antos": 5709,
      "ĠTage": 5710,
      "Ġfinal": 5711,
      "Ġdarf": 5712,
      "Ġadvice": 5713,
      "Ġrema": 5714,
      "Ġguys": 5715,
      "Ġverstehen": 5716,
      "Ġbuilding": 5717,
      "Ġriver": 5718,
      "Ġbegin": 5719,
      "Ġlanguages": 5720,
      "teen": 5721,
      "Qualcuno": 5722,
      "80": 5723,
      "app": 5724,
      "mlich": 5725,
      "Ġfertig": 5726,
      "ĠLibia": 5727,
      "Kannst": 5728,
      "ĠBielorussia": 5729,
      "onos": 5730,
      "ĠSco": 5731,
      "ĠFar": 5732,
      "Ã¶glich": 5733,
      "ĠgustarÃŃa": 5734,
      "Ġflowers": 5735,
      "Cos": 5736,
      "ĠDinge": 5737,
      "ĠMarocco": 5738,
      "ĠpÃ¡": 5739,
      "itÃ¤t": 5740,
      "ĠNuova": 5741,
      "Ġguid": 5742,
      "reu": 5743,
      "Ġhabt": 5744,
      "Ġgeg": 5745,
      "Ġvivo": 5746,
      "ĠFamilie": 5747,
      "aÃ§Ã£o": 5748,
      "aggi": 5749,
      "Ġplayed": 5750,
      "ĠLibano": 5751,
      "zlich": 5752,
      "Ġcomb": 5753,
      "ĠPak": 5754,
      "Ġbuena": 5755,
      "Ġmeans": 5756,
      "Ġsoltanto": 5757,
      "Ġintenzione": 5758,
      "Ġrip": 5759,
      "hof": 5760,
      "Ġclosed": 5761,
      "Ġgeworden": 5762,
      "ĠScozia": 5763,
      "Ġthough": 5764,
      "unft": 5765,
      "irm": 5766,
      "ĠmÃ¶glich": 5767,
      "Ġdrinking": 5768,
      "ĠKÃ¼": 5769,
      "Ġupon": 5770,
      "Ġpeque": 5771,
      "Ġbeer": 5772,
      "ĠLitu": 5773,
      "ecer": 5774,
      "Seine": 5775,
      "ĠParagu": 5776,
      "gado": 5777,
      "ĠSuda": 5778,
      "Ġgolf": 5779,
      "ĠSudafrica": 5780,
      "Ġmountain": 5781,
      "ĠÃ¼berhaupt": 5782,
      "Ġihrem": 5783,
      "Ġwild": 5784,
      "Ġtienes": 5785,
      "ĠEgitto": 5786,
      "ruguay": 5787,
      "fft": 5788,
      "Ġcerto": 5789,
      "ĠIde": 5790,
      "Ġstaying": 5791,
      "Ġkey": 5792,
      "Ġgewesen": 5793,
      "ipro": 5794,
      "Ġhundred": 5795,
      "Ġgiocare": 5796,
      "ony": 5797,
      "Ġfired": 5798,
      "Ġideia": 5799,
      "ahl": 5800,
      "Ġwarten": 5801,
      "Ġminutos": 5802,
      "ĠNigeria": 5803,
      "ĠcÃ³mo": 5804,
      "asche": 5805,
      "ĠniÃ±o": 5806,
      "ĠAlbania": 5807,
      "ples": 5808,
      "Ġavevo": 5809,
      "Even": 5810,
      "Ġneuen": 5811,
      "achten": 5812,
      "Ġdriver": 5813,
      "Ġecht": 5814,
      "time": 5815,
      "ĠFil": 5816,
      "Ġliebe": 5817,
      "Ġsicura": 5818,
      "wel": 5819,
      "erop": 5820,
      "Ġconten": 5821,
      "Ġlied": 5822,
      "cire": 5823,
      "ciendo": 5824,
      "Which": 5825,
      "Ġfinestra": 5826,
      "ĠgroÃŁen": 5827,
      "Ġguess": 5828,
      "Ġfrequ": 5829,
      "Ġschre": 5830,
      "Ġcrazy": 5831,
      "Ġmedo": 5832,
      "Heb": 5833,
      "Ġfres": 5834,
      "ĠCipro": 5835,
      "Ġapartment": 5836,
      "rÃ¼ck": 5837,
      "Ġdivers": 5838,
      "ceed": 5839,
      "Ġcerca": 5840,
      "Ġrob": 5841,
      "Ġexpensive": 5842,
      "Ġconsigo": 5843,
      "Ġagreed": 5844,
      "ĠParaguay": 5845,
      "erson": 5846,
      "Ġchocol": 5847,
      "Ġdepois": 5848,
      "Ġpassiert": 5849,
      "ĠandrÃ²": 5850,
      "Ġtwe": 5851,
      "ĠGew": 5852,
      "Ġprogram": 5853,
      "cch": 5854,
      "cido": 5855,
      "ĠâĢľ": 5856,
      "elte": 5857,
      "Ġcontigo": 5858,
      "ĠLett": 5859,
      "Ġpreferito": 5860,
      "ĠLituania": 5861,
      "ĠmÃ¡": 5862,
      "Ġcomun": 5863,
      "aco": 5864,
      "ĠUcraina": 5865,
      "Ġsenten": 5866,
      "rt": 5867,
      "Ġice": 5868,
      "oden": 5869,
      "ĠPoliz": 5870,
      "SÃ³": 5871,
      "Ġespe": 5872,
      "ĠUm": 5873,
      "Ġcouple": 5874,
      "Ġarrested": 5875,
      "Ġapolog": 5876,
      "ĠNatale": 5877,
      "rus": 5878,
      "Ġboa": 5879,
      "Ġcort": 5880,
      "Ġcomput": 5881,
      "Ġpuedes": 5882,
      "Ġagrad": 5883,
      "Ġllegar": 5884,
      "vegia": 5885,
      "Ġreci": 5886,
      "Ġseguro": 5887,
      "ĠNorvegia": 5888,
      "ĠLettonia": 5889,
      "Ġterm": 5890,
      "ĠBelgio": 5891,
      "Ġcel": 5892,
      "eti": 5893,
      "Ġtelefono": 5894,
      "Ġfuturo": 5895,
      "ĠcrianÃ§as": 5896,
      "42": 5897,
      "Ã¡lia": 5898,
      "Ġdenken": 5899,
      "Ġgirls": 5900,
      "Ġace": 5901,
      "Ġseja": 5902,
      "Ġheraus": 5903,
      "elefon": 5904,
      "dem": 5905,
      "tijd": 5906,
      "Ġalta": 5907,
      "Ġnehmen": 5908,
      "Ġmuitas": 5909,
      "Ġconcern": 5910,
      "Ġpaper": 5911,
      "unst": 5912,
      "imarca": 5913,
      "Ġlist": 5914,
      "Ġdio": 5915,
      "ppy": 5916,
      "Ġvuel": 5917,
      "Ġdogs": 5918,
      "ĠDanimarca": 5919,
      "ĠQu": 5920,
      "Ġmass": 5921,
      "Ġproud": 5922,
      "Ġdonna": 5923,
      "Ġstudio": 5924,
      "Ġrealize": 5925,
      "Neces": 5926,
      "Ġemo": 5927,
      "Ġsala": 5928,
      "Ġut": 5929,
      "Ġcele": 5930,
      "ĠMil": 5931,
      "Ġfora": 5932,
      "ĠPh": 5933,
      "Ġmoglie": 5934,
      "accordo": 5935,
      "eng": 5936,
      "Ġhan": 5937,
      "Ġsole": 5938,
      "Ġencont": 5939,
      "iver": 5940,
      "estern": 5941,
      "Ġmilk": 5942,
      "ĠHerz": 5943,
      "iar": 5944,
      "Ġboss": 5945,
      "ĠTisch": 5946,
      "Mu": 5947,
      "Ġbede": 5948,
      "Ã¶t": 5949,
      "Ġpensar": 5950,
      "Vuoi": 5951,
      "Ġdott": 5952,
      "Ġcoc": 5953,
      "icol": 5954,
      "azioni": 5955,
      "nee": 5956,
      "Ġclos": 5957,
      "Ġpaese": 5958,
      "Ġpasse": 5959,
      "ĠGalles": 5960,
      "ented": 5961,
      "Ġschl": 5962,
      "Ġracc": 5963,
      "Ġpassed": 5964,
      "Ġtakes": 5965,
      "Ġscritto": 5966,
      "Ġann": 5967,
      "Ġleid": 5968,
      "Ġcart": 5969,
      "haus": 5970,
      "ĠhabitaciÃ³n": 5971,
      "Ġnahm": 5972,
      "ĠEurope": 5973,
      "Ġfigli": 5974,
      "ĠUruguay": 5975,
      "Ġersten": 5976,
      "ierte": 5977,
      "Ġoutro": 5978,
      "ĠEstonia": 5979,
      "Ġspoke": 5980,
      "bere": 5981,
      "idamente": 5982,
      "head": 5983,
      "Ġescuch": 5984,
      "indi": 5985,
      "Ġgrou": 5986,
      "Ġestavam": 5987,
      "Ġesperando": 5988,
      "Ã¼hle": 5989,
      "Ġlevant": 5990,
      "Ġmente": 5991,
      "reto": 5992,
      "Ġquase": 5993,
      "Ġumbre": 5994,
      "Ġfica": 5995,
      "ĠNamen": 5996,
      "ener": 5997,
      "Ġworth": 5998,
      "Ġsair": 5999,
      "Ġgift": 6000,
      "Ġintern": 6001,
      "Ġfaccia": 6002,
      "velop": 6003,
      "Ġgiovane": 6004,
      "hrend": 6005,
      "ĠFenster": 6006,
      "Ġconvinced": 6007,
      "orar": 6008,
      "Ġcapit": 6009,
      "Ġriusc": 6010,
      "tiopia": 6011,
      "giers": 6012,
      "Ġheel": 6013,
      "oten": 6014,
      "Ġestre": 6015,
      "Ġexplic": 6016,
      "Ġajud": 6017,
      "Parece": 6018,
      "Ġamer": 6019,
      "Ġmuchos": 6020,
      "Ġschlie": 6021,
      "Ġclaim": 6022,
      "Ġterrible": 6023,
      "Ġdeter": 6024,
      "Ġborrow": 6025,
      "Ġglo": 6026,
      "Ġanti": 6027,
      "ĠÃ©s": 6028,
      "mail": 6029,
      "Hoy": 6030,
      "hÃŃ": 6031,
      "illo": 6032,
      "ĠLa": 6033,
      "Ġregret": 6034,
      "Solo": 6035,
      "Ġsalt": 6036,
      "Ġcast": 6037,
      "Ġmeno": 6038,
      "Ġmatem": 6039,
      "Ġdisappo": 6040,
      "Ġsuficiente": 6041,
      "vamente": 6042,
      "enty": 6043,
      "Ġdisco": 6044,
      "Ġont": 6045,
      "Ġoutra": 6046,
      "Ġfuera": 6047,
      "Ġshopping": 6048,
      "Ġhonest": 6049,
      "Ġletzten": 6050,
      "Ġdance": 6051,
      "Ġgenau": 6052,
      "Ġgefunden": 6053,
      "Ġnombre": 6054,
      "ĠÃ¶ff": 6055,
      "orge": 6056,
      "Ġparole": 6057,
      "ĠPa": 6058,
      "Ġobs": 6059,
      "ĠFlug": 6060,
      "Ġocupado": 6061,
      "Ġaufge": 6062,
      "Ġhabla": 6063,
      "Ġevent": 6064,
      "gger": 6065,
      "Ġjuntos": 6066,
      "Ġdez": 6067,
      "Ġstadi": 6068,
      "Ġestran": 6069,
      "Essa": 6070,
      "ĠIslanda": 6071,
      "Ġnadar": 6072,
      "ĠWir": 6073,
      "Ġfloor": 6074,
      "Ġhoffe": 6075,
      "Ġmuitos": 6076,
      "Ġspecial": 6077,
      "Ġadmit": 6078,
      "line": 6079,
      "nger": 6080,
      "Ġexpress": 6081,
      "Ġgiusto": 6082,
      "Ġhopes": 6083,
      "ĠBrasil": 6084,
      "Ġblue": 6085,
      "Ġnosotros": 6086,
      "Ġaten": 6087,
      "Ġyounger": 6088,
      "ury": 6089,
      "istas": 6090,
      "Ġobj": 6091,
      "Didn": 6092,
      "Ġwurden": 6093,
      "ton": 6094,
      "ĠUr": 6095,
      "ĠAlice": 6096,
      "halt": 6097,
      "Ġsento": 6098,
      "Ġnell": 6099,
      "Ġbeach": 6100,
      "licher": 6101,
      "Ġsalute": 6102,
      "Ġcorrect": 6103,
      "rieden": 6104,
      "Ġfuncion": 6105,
      "voc": 6106,
      "Ġeaten": 6107,
      "Ġolvid": 6108,
      "Ġdate": 6109,
      "Ġvenuto": 6110,
      "nibus": 6111,
      "Ġ9": 6112,
      "ecto": 6113,
      "ĠGroÃŁ": 6114,
      "arvi": 6115,
      "ature": 6116,
      "Ġbello": 6117,
      "ĠOlanda": 6118,
      "Ġenjoyed": 6119,
      "Somet": 6120,
      "Ġsimple": 6121,
      "ĠwÃ¤hrend": 6122,
      "Ġarbeiten": 6123,
      "Ġgovernment": 6124,
      "Ġaud": 6125,
      "Ġpint": 6126,
      "ĠStud": 6127,
      "gno": 6128,
      "ya": 6129,
      "Ġbath": 6130,
      "eles": 6131,
      "Ġcarry": 6132,
      "Ġentender": 6133,
      "Ġtouch": 6134,
      "utz": 6135,
      "Ġhatten": 6136,
      "sy": 6137,
      "Ġragazzo": 6138,
      "Ġchoice": 6139,
      "ĠMusik": 6140,
      "Ġmurder": 6141,
      "sh": 6142,
      "ately": 6143,
      "Ġaconteceu": 6144,
      "ĠÃºltima": 6145,
      "Ġmare": 6146,
      "aka": 6147,
      "Ġsleeping": 6148,
      "Ġabandon": 6149,
      "asso": 6150,
      "Ġescrit": 6151,
      "Ġtran": 6152,
      "à¥": 6153,
      "ĠEtiopia": 6154,
      "Ġusar": 6155,
      "Sein": 6156,
      "Ġcommun": 6157,
      "Ġcontrol": 6158,
      "ĠSkura": 6159,
      "jes": 6160,
      "Ġmam": 6161,
      "Ġline": 6162,
      "Ġinves": 6163,
      "ĠDie": 6164,
      "Ã¤tze": 6165,
      "Ġletzte": 6166,
      "ienti": 6167,
      "inare": 6168,
      "Ġpena": 6169,
      "entr": 6170,
      "ativo": 6171,
      "Ġwritten": 6172,
      "ĠÈĻi": 6173,
      "Ġ7": 6174,
      "ĠBus": 6175,
      "Ġpotrebbe": 6176,
      "Ġjard": 6177,
      "Ġbrauchen": 6178,
      "Ġscrivere": 6179,
      "Ġdevi": 6180,
      "Ġerf": 6181,
      "Ġcansado": 6182,
      "pend": 6183,
      "rog": 6184,
      "ĠkÃ¼": 6185,
      "ummer": 6186,
      "Ġnei": 6187,
      "Ġpensando": 6188,
      "Een": 6189,
      "ĠCile": 6190,
      "Ġfilhos": 6191,
      "Ġrespect": 6192,
      "ination": 6193,
      "Ġpec": 6194,
      "Ġpersonal": 6195,
      "Ġpictures": 6196,
      "Ġschlecht": 6197,
      "enschaft": 6198,
      "Ġalun": 6199,
      "Ġstare": 6200,
      "Ġstim": 6201,
      "Ġhermano": 6202,
      "Ġdriving": 6203,
      "Ġnosso": 6204,
      "Ġnossa": 6205,
      "Ġesqu": 6206,
      "Ġmostr": 6207,
      "Dobbiamo": 6208,
      "Ġpuerta": 6209,
      "Ġfacile": 6210,
      "Ġmachte": 6211,
      "Ġdormire": 6212,
      "Ja": 6213,
      "Ġellos": 6214,
      "ode": 6215,
      "abile": 6216,
      "Ġflores": 6217,
      "Ġbread": 6218,
      "uerdo": 6219,
      "Ġobvious": 6220,
      "hme": 6221,
      "Ġvem": 6222,
      "ĠRuss": 6223,
      "Ġhappening": 6224,
      "Puoi": 6225,
      "zio": 6226,
      "ciate": 6227,
      "Ġsozinho": 6228,
      "Ġweight": 6229,
      "Ġquieres": 6230,
      "Ġriguardo": 6231,
      "Austr": 6232,
      "erca": 6233,
      "ĠdÃ³nde": 6234,
      "ĠWas": 6235,
      "Ġpote": 6236,
      "ĠArzt": 6237,
      "Ġajuda": 6238,
      "ĠPlan": 6239,
      "Ġiets": 6240,
      "Ġdeep": 6241,
      "Ġvoice": 6242,
      "ĠKabyle": 6243,
      "ĠdafÃ¼r": 6244,
      "Ġpiens": 6245,
      "Ġsingle": 6246,
      "Ġtemos": 6247,
      "icious": 6248,
      "ĠfrÃ¼": 6249,
      "elegen": 6250,
      "Ġpequ": 6251,
      "Ġ200": 6252,
      "Ġopinion": 6253,
      "ĠPakistan": 6254,
      "orr": 6255,
      "lichkeit": 6256,
      "Ġbeza": 6257,
      "Ġbrauche": 6258,
      "Ġstrada": 6259,
      "Ġinvited": 6260,
      "Ġwhatever": 6261,
      "CuÃ¡l": 6262,
      "usst": 6263,
      "iros": 6264,
      "ischer": 6265,
      "EstÃ¡s": 6266,
      "Ã¤nde": 6267,
      "Ġsorr": 6268,
      "timmt": 6269,
      "Vuole": 6270,
      "ften": 6271,
      "Ġbiss": 6272,
      "Ġmoeten": 6273,
      "Ġved": 6274,
      "cked": 6275,
      "Ġcomport": 6276,
      "Ave": 6277,
      "Ġscorsa": 6278,
      "ances": 6279,
      "Ġregalo": 6280,
      "Ġsend": 6281,
      "Ġwichtig": 6282,
      "Ġrequ": 6283,
      "Ã¤ter": 6284,
      "Ġpub": 6285,
      "ĠStraÃŁe": 6286,
      "Ġsandwich": 6287,
      "ĠSomalia": 6288,
      "rieg": 6289,
      "Ġsang": 6290,
      "ĠcÃ¢": 6291,
      "ichten": 6292,
      "ensch": 6293,
      "Ġspi": 6294,
      "Ġhorse": 6295,
      "culo": 6296,
      "ĠlÃ¤sst": 6297,
      "Ġing": 6298,
      "boren": 6299,
      "Ġsystem": 6300,
      "Ġequ": 6301,
      "Ġscop": 6302,
      "Ġcake": 6303,
      "arbeit": 6304,
      "icken": 6305,
      "uien": 6306,
      "Ġlasciato": 6307,
      "Ese": 6308,
      "por": 6309,
      "ĠMo": 6310,
      "Ġwegen": 6311,
      "Ġhacerlo": 6312,
      "Ã¡nto": 6313,
      "Ġrecei": 6314,
      "Fin": 6315,
      "ĠPap": 6316,
      "Ġfigure": 6317,
      "Most": 6318,
      "Ġfri": 6319,
      "Ġmeisten": 6320,
      "Ġspieg": 6321,
      "Deber": 6322,
      "Ġtaught": 6323,
      "ĠgefÃ¤llt": 6324,
      "Ġsomos": 6325,
      "Ġ2013": 6326,
      "Ġumbrella": 6327,
      "Ġfred": 6328,
      "ilar": 6329,
      "ots": 6330,
      "Ġpensi": 6331,
      "Ġsmart": 6332,
      "Ġfortun": 6333,
      "Ġvoc": 6334,
      "Ġscre": 6335,
      "Voy": 6336,
      "Ġayudar": 6337,
      "zus": 6338,
      "anken": 6339,
      "Ġfest": 6340,
      "Ġjue": 6341,
      "Ġgebe": 6342,
      "Ġconcert": 6343,
      "App": 6344,
      "MÃ¶": 6345,
      "ÃŃlia": 6346,
      "ĠallÃŃ": 6347,
      "Ġintro": 6348,
      "Sind": 6349,
      "Ġkunnen": 6350,
      "ĠRegno": 6351,
      "Ġanders": 6352,
      "Ġviu": 6353,
      "Ġwalking": 6354,
      "Ġtat": 6355,
      "TomÃ¡s": 6356,
      "Ġjung": 6357,
      "Ġjaar": 6358,
      "ĠUnito": 6359,
      "Ġbroken": 6360,
      "Ġtesta": 6361,
      "Ġsf": 6362,
      "Puedes": 6363,
      "Ġsocial": 6364,
      "ÅŁ": 6365,
      "icul": 6366,
      "Ġbevor": 6367,
      "Ġalte": 6368,
      "Ġspar": 6369,
      "Ġdesk": 6370,
      "Ġbatt": 6371,
      "astic": 6372,
      "Ġgaat": 6373,
      "ko": 6374,
      "osten": 6375,
      "hood": 6376,
      "Ġwinter": 6377,
      "Aren": 6378,
      "gre": 6379,
      "Ġwed": 6380,
      "Ġayer": 6381,
      "Stop": 6382,
      "Ġexperience": 6383,
      "igkeiten": 6384,
      "ĠdÃ³": 6385,
      "Ġstasera": 6386,
      "Ġdabei": 6387,
      "Ġcostum": 6388,
      "Ġalguien": 6389,
      "Alles": 6390,
      "Ġgeschrieben": 6391,
      "uge": 6392,
      "ĠKÃ¶n": 6393,
      "Ġavrebbe": 6394,
      "Ġvogliono": 6395,
      "Ġproblemi": 6396,
      "Ġeye": 6397,
      "Ġburn": 6398,
      "Ġquest": 6399,
      "Ġalz": 6400,
      "Ġrul": 6401,
      "Ġamore": 6402,
      "Ġpranz": 6403,
      "anden": 6404,
      "Ġhoping": 6405,
      "Ġaspettare": 6406,
      "Ġsignific": 6407,
      "Guard": 6408,
      "Ġtend": 6409,
      "Ġmuse": 6410,
      "Ġjapon": 6411,
      "Ð½": 6412,
      "Ġparola": 6413,
      "Ġcontar": 6414,
      "Ġfamous": 6415,
      "Ġsupport": 6416,
      "Ġkitchen": 6417,
      "Ġnac": 6418,
      "Ġfur": 6419,
      "cip": 6420,
      "Ġlivros": 6421,
      "Ġwriting": 6422,
      "Jeder": 6423,
      "Ġesperanto": 6424,
      "Ġtelefon": 6425,
      "ĠÃºnico": 6426,
      "Ġcoll": 6427,
      "Ġhelping": 6428,
      "Ġuw": 6429,
      "Foi": 6430,
      "Ġkenne": 6431,
      "Ġguter": 6432,
      "ittel": 6433,
      "Ġsmell": 6434,
      "Ġfragte": 6435,
      "Ġfly": 6436,
      "Ġodi": 6437,
      "Ġcross": 6438,
      "Ġmult": 6439,
      "Ġhic": 6440,
      "ĠSal": 6441,
      "ĠbeschÃ¤f": 6442,
      "Ġlibros": 6443,
      "inte": 6444,
      "Ġestu": 6445,
      "ĠSache": 6446,
      "Puedo": 6447,
      "Ġpalavras": 6448,
      "dle": 6449,
      "utto": 6450,
      "ĠtodavÃŃa": 6451,
      "ĠHerr": 6452,
      "Ġmud": 6453,
      "Ġbother": 6454,
      "Ġkennt": 6455,
      "Ġlaat": 6456,
      "Ã¶l": 6457,
      "chia": 6458,
      "Ã¼gen": 6459,
      "Ġnuotare": 6460,
      "Ġself": 6461,
      "Ġmistakes": 6462,
      "Grazie": 6463,
      "Fa": 6464,
      "Mag": 6465,
      "lijk": 6466,
      "Ġhebt": 6467,
      "Ġcompet": 6468,
      "Ġspeech": 6469,
      "Ġsmoking": 6470,
      "Ġmusste": 6471,
      "Ġtrabalhar": 6472,
      "Ġcanz": 6473,
      "Ġriman": 6474,
      "Ġheld": 6475,
      "Ġhurry": 6476,
      "ousand": 6477,
      "landese": 6478,
      "Ġrefused": 6479,
      "Take": 6480,
      "Ġvale": 6481,
      "Ġresol": 6482,
      "ĠStunden": 6483,
      "Ġpedir": 6484,
      "Ġavi": 6485,
      "akes": 6486,
      "ĠandrÃł": 6487,
      "Ġorigin": 6488,
      "Ġmaior": 6489,
      "Ġrunning": 6490,
      "Ġinformation": 6491,
      "Ġseis": 6492,
      "Ġinsegnante": 6493,
      "Ġ30": 6494,
      "Ġcora": 6495,
      "ciÃ³": 6496,
      "chmal": 6497,
      "Ġstuff": 6498,
      "ĠUnited": 6499,
      "Neither": 6500,
      "Ġbicicleta": 6501,
      "Nad": 6502,
      "Odio": 6503,
      "onese": 6504,
      "Ġkrank": 6505,
      "Quello": 6506,
      "Ġrelations": 6507,
      "Ġrichtig": 6508,
      "blieft": 6509,
      "Ġstat": 6510,
      "ĠSonne": 6511,
      "Ġrisposta": 6512,
      "utet": 6513,
      "Ġrecogn": 6514,
      "Ġcust": 6515,
      "Ġrar": 6516,
      "omos": 6517,
      "nete": 6518,
      "Ġvolver": 6519,
      "Ã¶rter": 6520,
      "Ġolhos": 6521,
      "Ġnooit": 6522,
      "Ġchair": 6523,
      "ierra": 6524,
      "Eres": 6525,
      "Ġpiacerebbe": 6526,
      "Ġboyfriend": 6527,
      "Ġfost": 6528,
      "guas": 6529,
      "Ġrock": 6530,
      "Deze": 6531,
      "Ġbringen": 6532,
      "Ġkissed": 6533,
      "Ġescrever": 6534,
      "ganda": 6535,
      "oken": 6536,
      "ĠHimm": 6537,
      "Ġgefallen": 6538,
      "ĠEssen": 6539,
      "glades": 6540,
      "Ġminhas": 6541,
      "Ġpriv": 6542,
      "Ġempez": 6543,
      "ĠCanad": 6544,
      "atten": 6545,
      "Ġintel": 6546,
      "Ġfunny": 6547,
      "But": 6548,
      "cu": 6549,
      "lese": 6550,
      "ides": 6551,
      "Ġincre": 6552,
      "igr": 6553,
      "ersto": 6554,
      "Sape": 6555,
      "Ġbeiden": 6556,
      "Ġinjured": 6557,
      "Ġbisschen": 6558,
      "Ġforgi": 6559,
      "Ġclub": 6560,
      "Ġkleine": 6561,
      "Ġbereits": 6562,
      "ÑĢ": 6563,
      "ĠSo": 6564,
      "Ġeinige": 6565,
      "Ġvisited": 6566,
      "Ã¤hrt": 6567,
      "ushed": 6568,
      "Ġesque": 6569,
      "ĠAt": 6570,
      "hoto": 6571,
      "Ġcampo": 6572,
      "ĠmÃ¼de": 6573,
      "ĠAmerican": 6574,
      "Ġvari": 6575,
      "itive": 6576,
      "Ġnuove": 6577,
      "gens": 6578,
      "Å£": 6579,
      "ĠauÃŁer": 6580,
      "Ġern": 6581,
      "Ġstanco": 6582,
      "ĠBanglades": 6583,
      "Ġpud": 6584,
      "ĠvÃ£o": 6585,
      "amer": 6586,
      "Ġpiedi": 6587,
      "Ġstudied": 6588,
      "Ġcapelli": 6589,
      "arr": 6590,
      "Ġfamos": 6591,
      "ĠStre": 6592,
      "Ġwaited": 6593,
      "rauen": 6594,
      "uh": 6595,
      "unken": 6596,
      "Ġgrew": 6597,
      "TÃº": 6598,
      "Ġlead": 6599,
      "iling": 6600,
      "Look": 6601,
      "Tal": 6602,
      "Ġsleepy": 6603,
      "Ġpac": 6604,
      "Ġfill": 6605,
      "Ġschreiben": 6606,
      "Ġpref": 6607,
      "Hoje": 6608,
      "Ġprovato": 6609,
      "Ġkni": 6610,
      "Ġride": 6611,
      "Ġerav": 6612,
      "ĠcÃ¡": 6613,
      "Ġski": 6614,
      "Ġgradu": 6615,
      "inglese": 6616,
      "Ġspeci": 6617,
      "Ġhalten": 6618,
      "Ġvicino": 6619,
      "Ke": 6620,
      "Ġpien": 6621,
      "Ġinvol": 6622,
      "Ġdor": 6623,
      "Ġsmo": 6624,
      "Ġbelong": 6625,
      "altro": 6626,
      "Ġsignifica": 6627,
      "ĠBangladesh": 6628,
      "Ġtoc": 6629,
      "Ġdica": 6630,
      "uren": 6631,
      "hlte": 6632,
      "rebbero": 6633,
      "Par": 6634,
      "usi": 6635,
      "Ã¼ÃŁ": 6636,
      "Ġdaar": 6637,
      "Ġsatisf": 6638,
      "pf": 6639,
      "itely": 6640,
      "ĠFern": 6641,
      "ĠUganda": 6642,
      "Ġcapp": 6643,
      "ĠSpan": 6644,
      "FÃ¼r": 6645,
      "Uma": 6646,
      "iente": 6647,
      "pres": 6648,
      "Ġnecessary": 6649,
      "bit": 6650,
      "Ġalem": 6651,
      "cut": 6652,
      "Ġdonde": 6653,
      "Ġfece": 6654,
      "Ġstood": 6655,
      "ĠChinese": 6656,
      "Ġziemlich": 6657,
      "iapponese": 6658,
      "Ġbasta": 6659,
      "Ġchocolate": 6660,
      "Und": 6661,
      "dest": 6662,
      "Ġausge": 6663,
      "ĠSh": 6664,
      "ĠTelefon": 6665,
      "Ġvorrei": 6666,
      "ĠWochen": 6667,
      "buch": 6668,
      "ĠAd": 6669,
      "Ġanimals": 6670,
      "Ġmissed": 6671,
      "Ġgegessen": 6672,
      "Ben": 6673,
      "Ġpier": 6674,
      "quier": 6675,
      "Ġentire": 6676,
      "ondere": 6677,
      "Ġpossono": 6678,
      "Ġcourse": 6679,
      "Ġfame": 6680,
      "Ġusc": 6681,
      "Ġcaro": 6682,
      "Adesso": 6683,
      "tiamo": 6684,
      "ĠÃ´": 6685,
      "ĠSchla": 6686,
      "Ġdeixar": 6687,
      "Ġpossibile": 6688,
      "Ġinte": 6689,
      "ĠMr": 6690,
      "ĠAs": 6691,
      "ffic": 6692,
      "ĠfrÃ¼her": 6693,
      "erste": 6694,
      "Ġindoss": 6695,
      "Ġnatural": 6696,
      "elegenheit": 6697,
      "Ġcen": 6698,
      "ĠArab": 6699,
      "odo": 6700,
      "ĠOs": 6701,
      "Ġimpression": 6702,
      "phone": 6703,
      "Ġsofort": 6704,
      "idung": 6705,
      "ĠEx": 6706,
      "52": 6707,
      "Ġfratelli": 6708,
      "Ġneighbor": 6709,
      "Ġconm": 6710,
      "Ġfrente": 6711,
      "Ã§ar": 6712,
      "halb": 6713,
      "Ġglasses": 6714,
      "Ġqualquer": 6715,
      "med": 6716,
      "uis": 6717,
      "ments": 6718,
      "standen": 6719,
      "Ġcommon": 6720,
      "nia": 6721,
      "Ġfug": 6722,
      "Ġook": 6723,
      "Ġsuic": 6724,
      "Ġourselves": 6725,
      "Ġtav": 6726,
      "Ġdobbiamo": 6727,
      "Ġgeboren": 6728,
      "Ġcool": 6729,
      "Ġhoped": 6730,
      "ĠÃ´nibus": 6731,
      "Ġpoi": 6732,
      "Ġegg": 6733,
      "Ġverde": 6734,
      "Ġrimas": 6735,
      "Ġcuri": 6736,
      "Ġpassato": 6737,
      "Ġmotor": 6738,
      "Sal": 6739,
      "Ġcondu": 6740,
      "Ġforward": 6741,
      "Ġdeinem": 6742,
      "Ġbeide": 6743,
      "inos": 6744,
      "entras": 6745,
      "stellen": 6746,
      "ission": 6747,
      "Ġasking": 6748,
      "PuÃ²": 6749,
      "SÃ©": 6750,
      "Ġhar": 6751,
      "Ġreich": 6752,
      "Ġdiez": 6753,
      "Ġzuf": 6754,
      "Ġentrar": 6755,
      "Ġprimeiro": 6756,
      "Ahora": 6757,
      "temp": 6758,
      "Ġdejar": 6759,
      "Ġlebt": 6760,
      "Ġdieci": 6761,
      "Ġpeace": 6762,
      "immt": 6763,
      "Ġcinema": 6764,
      "Ġvoglia": 6765,
      "Ġaltijd": 6766,
      "Ġerste": 6767,
      "ĠGesicht": 6768,
      "Ġphoto": 6769,
      "Ġgatto": 6770,
      "rael": 6771,
      "Ã¼ch": 6772,
      "ĠTr": 6773,
      "Ġaquilo": 6774,
      "Ġsapevo": 6775,
      "iratet": 6776,
      "Ust": 6777,
      "Viel": 6778,
      "Ġlig": 6779,
      "ierig": 6780,
      "ĠWetter": 6781,
      "mento": 6782,
      "itet": 6783,
      "quei": 6784,
      "ĠPr": 6785,
      "Devi": 6786,
      "Ġescol": 6787,
      "Ġcapaz": 6788,
      "Ã¤ngt": 6789,
      "Mia": 6790,
      "Ð»": 6791,
      "Ġcedo": 6792,
      "Ġkw": 6793,
      "lained": 6794,
      "Ġcasi": 6795,
      "care": 6796,
      "aked": 6797,
      "ĠfarÃł": 6798,
      "Ġassist": 6799,
      "ĠIhr": 6800,
      "Ġcuenta": 6801,
      "Ġmuchas": 6802,
      "bile": 6803,
      "cos": 6804,
      "fangen": 6805,
      "Quella": 6806,
      "aking": 6807,
      "Ġfeito": 6808,
      "Ġmotiv": 6809,
      "Ġlocal": 6810,
      "Ã¼ssel": 6811,
      "ĠhistÃ³ria": 6812,
      "Ġcelebr": 6813,
      "Tem": 6814,
      "Ġvot": 6815,
      "Ġspace": 6816,
      "Ġcual": 6817,
      "Ġstole": 6818,
      "Cred": 6819,
      "Ġkaum": 6820,
      "Ġmea": 6821,
      "ĠGarten": 6822,
      "ilos": 6823,
      "Ġelas": 6824,
      "schte": 6825,
      "Ġmarry": 6826,
      "Ġblind": 6827,
      "Ġdetermin": 6828,
      "Ġyell": 6829,
      "Ġbeber": 6830,
      "Viele": 6831,
      "Ġtrabaj": 6832,
      "Here": 6833,
      "Ġul": 6834,
      "quanto": 6835,
      "enten": 6836,
      "izione": 6837,
      "ĠNachricht": 6838,
      "Ġseat": 6839,
      "immen": 6840,
      "ĠHol": 6841,
      "Ġaprend": 6842,
      "ĠSommer": 6843,
      "Ġacht": 6844,
      "Ġhappens": 6845,
      "Ġnuestra": 6846,
      "Ġpersu": 6847,
      "Ġsentir": 6848,
      "ĠAmerik": 6849,
      "ĠsÃ³lo": 6850,
      "idge": 6851,
      "Ġcoat": 6852,
      "zogen": 6853,
      "Ġwondered": 6854,
      "Ġvolevo": 6855,
      "forta": 6856,
      "Ġamar": 6857,
      "wohl": 6858,
      "Ġarrest": 6859,
      "Ken": 6860,
      "lin": 6861,
      "stÃ¼ck": 6862,
      "ĠatrÃ¡s": 6863,
      "ĠJunge": 6864,
      "Ġvielleicht": 6865,
      "Ġpermit": 6866,
      "Ġalguns": 6867,
      "Ġsale": 6868,
      "Ġlista": 6869,
      "Ġgraag": 6870,
      "Ġbambino": 6871,
      "Ġprimeira": 6872,
      "Ã©u": 6873,
      "Ġpodem": 6874,
      "ĠUnivers": 6875,
      "Ġniemals": 6876,
      "Ġconvince": 6877,
      "Zijn": 6878,
      "Ġprender": 6879,
      "Ġacord": 6880,
      "ĠfamÃŃlia": 6881,
      "ĠFreundin": 6882,
      "ais": 6883,
      "Ġgelo": 6884,
      "Ġhardly": 6885,
      "ĠJackson": 6886,
      "raum": 6887,
      "Ġmeat": 6888,
      "Ġmani": 6889,
      "etzte": 6890,
      "Ġdefinitely": 6891,
      "ĠbeschÃ¤ftigt": 6892,
      "ĠhÃ¤lt": 6893,
      "ÃŁig": 6894,
      "Ġbaci": 6895,
      "Ġparec": 6896,
      "Ġhijo": 6897,
      "stag": 6898,
      "Ġtor": 6899,
      "enen": 6900,
      "Ġbran": 6901,
      "ĠTomÃ¡s": 6902,
      "ĠPre": 6903,
      "Ġseeing": 6904,
      "ĠÃ¼bers": 6905,
      "Get": 6906,
      "With": 6907,
      "etas": 6908,
      "Ġfrasi": 6909,
      "ccia": 6910,
      "Ġclase": 6911,
      "10": 6912,
      "chs": 6913,
      "itud": 6914,
      "Ġseid": 6915,
      "Ġshirt": 6916,
      "Ġarea": 6917,
      "Ġarre": 6918,
      "Ġbueno": 6919,
      "ĠStates": 6920,
      "Today": 6921,
      "Ġblood": 6922,
      "Ġoccupato": 6923,
      "Ġprofesor": 6924,
      "Ġforeign": 6925,
      "gang": 6926,
      "itten": 6927,
      "Ġdepress": 6928,
      "aper": 6929,
      "Ġconoscen": 6930,
      "prechen": 6931,
      "Ġunserer": 6932,
      "Ġdispiace": 6933,
      "onnen": 6934,
      "itor": 6935,
      "Ġalive": 6936,
      "Ġparlando": 6937,
      "Ġmesma": 6938,
      "Ġprepared": 6939,
      "rass": 6940,
      "ĠBaum": 6941,
      "Ġstiamo": 6942,
      "hando": 6943,
      "wend": 6944,
      "Ġflie": 6945,
      "Ġsucceed": 6946,
      "Ġgesto": 6947,
      "eds": 6948,
      "viÃ³": 6949,
      "ĠdeberÃŃa": 6950,
      "ĠLondon": 6951,
      "igentlich": 6952,
      "rich": 6953,
      "Ġnote": 6954,
      "Ġspav": 6955,
      "Ġship": 6956,
      "arlier": 6957,
      "Nadie": 6958,
      "Ġconmigo": 6959,
      "enzi": 6960,
      "oci": 6961,
      "chtest": 6962,
      "Ġdent": 6963,
      "uper": 6964,
      "ĠAustrÃ¡lia": 6965,
      "Ġliebt": 6966,
      "Ġpadres": 6967,
      "Ġtwee": 6968,
      "Ġescrib": 6969,
      "ĠRecht": 6970,
      "lÃ¤r": 6971,
      "Ġgrat": 6972,
      "bria": 6973,
      "ĠMinuten": 6974,
      "Ġpalabras": 6975,
      "Ġsiste": 6976,
      "rift": 6977,
      "Ġersch": 6978,
      "Ġfunzion": 6979,
      "ĠAntwort": 6980,
      "ancia": 6981,
      "Ġpedi": 6982,
      "Ġcomplic": 6983,
      "Ã¡tica": 6984,
      "Ġodia": 6985,
      "Ġling": 6986,
      "Ġdim": 6987,
      "Ġsup": 6988,
      "Ġuscire": 6989,
      "Ġstehen": 6990,
      "Ġdoming": 6991,
      "Ġayud": 6992,
      "ove": 6993,
      "ienza": 6994,
      "Ġdag": 6995,
      "Ġense": 6996,
      "Ã¶ne": 6997,
      "Ġfiesta": 6998,
      "Ġfamilia": 6999,
      "gÃ³": 7000,
      "anze": 7001,
      "Ġthousand": 7002,
      "Ġsomewhere": 7003,
      "Ġrespond": 7004,
      "Ġpeso": 7005,
      "Ġearlier": 7006,
      "ĠMan": 7007,
      "ĠAut": 7008,
      "mmer": 7009,
      "Ġandar": 7010,
      "Ġcapire": 7011,
      "Ġpossa": 7012,
      "Dei": 7013,
      "Ġfro": 7014,
      "uran": 7015,
      "ocked": 7016,
      "Ġscel": 7017,
      "Ġscorso": 7018,
      "Ġsiano": 7019,
      "Ġrespe": 7020,
      "Ġfarm": 7021,
      "Ġregn": 7022,
      "Ġnuestro": 7023,
      "Ġfault": 7024,
      "CuÃ¡ndo": 7025,
      "Tr": 7026,
      "iday": 7027,
      "Ġminuto": 7028,
      "Ġlengua": 7029,
      "iff": 7030,
      "vio": 7031,
      "ash": 7032,
      "Ġzien": 7033,
      "ĠEng": 7034,
      "Ġduro": 7035,
      "Ġalguna": 7036,
      "ekt": 7037,
      "bte": 7038,
      "Ġunf": 7039,
      "ĠFrauen": 7040,
      "namor": 7041,
      "ĠFilm": 7042,
      "Ġeres": 7043,
      "Ġmain": 7044,
      "ney": 7045,
      "Ġdistur": 7046,
      "Bei": 7047,
      "ned": 7048,
      "zimmer": 7049,
      "Ġmora": 7050,
      "atte": 7051,
      "Ġfem": 7052,
      "Ġquar": 7053,
      "ĠPerson": 7054,
      "Ġyours": 7055,
      "ĠgewÃ¶hn": 7056,
      "ĠFeuer": 7057,
      "Ġbasket": 7058,
      "onna": 7059,
      "Ġsave": 7060,
      "Ġdovrei": 7061,
      "Mach": 7062,
      "Ġdebe": 7063,
      "ĠLinda": 7064,
      "Siempre": 7065,
      "Ġhermana": 7066,
      "Ġimmediately": 7067,
      "879": 7068,
      "isi": 7069,
      "oper": 7070,
      "Ġnoticed": 7071,
      "Ġameric": 7072,
      "Fe": 7073,
      "Ġlont": 7074,
      "ables": 7075,
      "Conos": 7076,
      "Ġchiamato": 7077,
      "ĠdÃ³lar": 7078,
      "fied": 7079,
      "Ġlent": 7080,
      "Ġquam": 7081,
      "Ġproduc": 7082,
      "cios": 7083,
      "Ġtrinken": 7084,
      "ĠErde": 7085,
      "Ġhavia": 7086,
      "Ġmache": 7087,
      "Ġmessage": 7088,
      "Ġkomme": 7089,
      "vido": 7090,
      "Vogl": 7091,
      "Ġcertainly": 7092,
      "Acc": 7093,
      "ĠseÃ±": 7094,
      "Ġripar": 7095,
      "Ġwedding": 7096,
      "artet": 7097,
      "Ġconfer": 7098,
      "Ġsopra": 7099,
      "ĠLicht": 7100,
      "Ġ100": 7101,
      "Ġamm": 7102,
      "ĠUnidos": 7103,
      "Ġwordt": 7104,
      "Ġchiave": 7105,
      "ĠTochter": 7106,
      "bio": 7107,
      "hÃ¶ren": 7108,
      "nes": 7109,
      "Ġau": 7110,
      "usti": 7111,
      "ĠFragen": 7112,
      "Ġayuda": 7113,
      "Ġheavy": 7114,
      "ĠhÃ¶rte": 7115,
      "elbst": 7116,
      "ilitÃł": 7117,
      "ĠAle": 7118,
      "Ġveio": 7119,
      "ĠSpa": 7120,
      "Volete": 7121,
      "Ġinvestig": 7122,
      "Ġfanno": 7123,
      "Ġkomm": 7124,
      "Ġsuffer": 7125,
      "Ġinteres": 7126,
      "Ġverlassen": 7127,
      "Ġgustan": 7128,
      "SerÃ¡": 7129,
      "Ġmort": 7130,
      "alle": 7131,
      "icip": 7132,
      "Ġbetra": 7133,
      "Everything": 7134,
      "Ġinnamor": 7135,
      "Ġeten": 7136,
      "icks": 7137,
      "ĠAlgiers": 7138,
      "Ġplayer": 7139,
      "Ġcrede": 7140,
      "Ġprocur": 7141,
      "Ġextremely": 7142,
      "Ġsudden": 7143,
      "iglio": 7144,
      "Ġteve": 7145,
      "ories": 7146,
      "Ġsorelle": 7147,
      "Ġpresente": 7148,
      "Ġinflu": 7149,
      "Ġmedia": 7150,
      "Stai": 7151,
      "Ġsapeva": 7152,
      "ĠHimmel": 7153,
      "teil": 7154,
      "Ã©t": 7155,
      "Ġcanad": 7156,
      "ĠSchÃ¼": 7157,
      "Ġniets": 7158,
      "3879": 7159,
      "Disse": 7160,
      "Ġpack": 7161,
      "inkt": 7162,
      "Ġtrasc": 7163,
      "ĠWÃ¶rter": 7164,
      "vies": 7165,
      "bringen": 7166,
      "Ġcolore": 7167,
      "Ġaccount": 7168,
      "Ġsalir": 7169,
      "Ġintent": 7170,
      "roffen": 7171,
      "Ġchurch": 7172,
      "urre": 7173,
      "Ã¤nner": 7174,
      "Gost": 7175,
      "gere": 7176,
      "itur": 7177,
      "oph": 7178,
      "Ġminute": 7179,
      "Ġarrivato": 7180,
      "Ġhistoria": 7181,
      "Ġsv": 7182,
      "otel": 7183,
      "Ġshop": 7184,
      "Ġbenut": 7185,
      "Ġcalor": 7186,
      "Ġcrime": 7187,
      "Ġdisappointed": 7188,
      "\",": 7189,
      "come": 7190,
      "gende": 7191,
      "atemi": 7192,
      "Ġtoward": 7193,
      "scht": 7194,
      "Ġguten": 7195,
      "Ġmember": 7196,
      "Pl": 7197,
      "rada": 7198,
      "vendo": 7199,
      "Ġaller": 7200,
      "Ġfacciamo": 7201,
      "endeu": 7202,
      "com": 7203,
      "hand": 7204,
      "anco": 7205,
      "Ġfim": 7206,
      "Ġgeld": 7207,
      "Ġfinde": 7208,
      "veu": 7209,
      "ĠÃ®nt": 7210,
      "Ġsimp": 7211,
      "Ġidioma": 7212,
      "Ġwood": 7213,
      "Ġaspettando": 7214,
      "Ġhistory": 7215,
      "Ġdifference": 7216,
      "erve": 7217,
      "Ġvedo": 7218,
      "Ġodio": 7219,
      "ÃŃm": 7220,
      "Ġprotect": 7221,
      "Ġsounds": 7222,
      "inner": 7223,
      "Ġtocar": 7224,
      "Ġojos": 7225,
      "Ġalleen": 7226,
      "Ġideas": 7227,
      "Ġseguir": 7228,
      "Ġpopul": 7229,
      "Ġpalavra": 7230,
      "ĠnÃ¤chsten": 7231,
      "icolo": 7232,
      "Ġoutros": 7233,
      "Ġescap": 7234,
      "Ġcielo": 7235,
      "Ġarrive": 7236,
      "Ġcell": 7237,
      "ĠlieÃŁ": 7238,
      "Ġerrore": 7239,
      "Ġvicini": 7240,
      "atori": 7241,
      "Ġschlafen": 7242,
      "Ġmensen": 7243,
      "Ġeinzige": 7244,
      "Ġscarpe": 7245,
      "Ġ8": 7246,
      "Ġà¤": 7247,
      "alous": 7248,
      "igung": 7249,
      "Ġreun": 7250,
      "void": 7251,
      "Ġsolu": 7252,
      "Ġpotete": 7253,
      "Ġcerve": 7254,
      "ĠsabÃŃa": 7255,
      "Ainda": 7256,
      "ĠMen": 7257,
      "ĠMÃ¼": 7258,
      "Ġprice": 7259,
      "Ġfeet": 7260,
      "Ġjoven": 7261,
      "Sua": 7262,
      "Ag": 7263,
      "Biso": 7264,
      "hung": 7265,
      "vier": 7266,
      "Ãİ": 7267,
      "Ġplant": 7268,
      "Ġclasse": 7269,
      "iÃŁt": 7270,
      "Ġlibrary": 7271,
      "Ġbesteht": 7272,
      "fle": 7273,
      "Ġliter": 7274,
      "Ġrico": 7275,
      "Ġserio": 7276,
      "Ġvacation": 7277,
      "tiva": 7278,
      "ection": 7279,
      "Ġtreffen": 7280,
      "Ġanger": 7281,
      "ĠRo": 7282,
      "Ġground": 7283,
      "Ġpresidente": 7284,
      "inning": 7285,
      "ĠEstados": 7286,
      "ĠprÃ³ximo": 7287,
      "xit": 7288,
      "Ġjan": 7289,
      "Ġpagar": 7290,
      "osen": 7291,
      "raft": 7292,
      "Ġnobody": 7293,
      "Ġleven": 7294,
      "Ġmedicine": 7295,
      "Ġlawyer": 7296,
      "Gib": 7297,
      "uchst": 7298,
      "ranken": 7299,
      "bas": 7300,
      "Ġx": 7301,
      "Ġdrank": 7302,
      "achsen": 7303,
      "airo": 7304,
      "Ġpiang": 7305,
      "auen": 7306,
      "8642": 7307,
      "ĠBahn": 7308,
      "eller": 7309,
      "Ġproject": 7310,
      "ntest": 7311,
      "Ġsembr": 7312,
      "Ġblame": 7313,
      "Ġplanned": 7314,
      "Ġstanding": 7315,
      "Ġmonta": 7316,
      "Far": 7317,
      "lassen": 7318,
      "Ġdevelop": 7319,
      "Ġacost": 7320,
      "Ġdeciso": 7321,
      "Ġsagten": 7322,
      "Ġgroup": 7323,
      "Ġmesso": 7324,
      "entru": 7325,
      "inder": 7326,
      "Ġaggi": 7327,
      "Ġcrimin": 7328,
      "fortable": 7329,
      "mann": 7330,
      "Ġvid": 7331,
      "Ġeg": 7332,
      "ĠspÃ¤ter": 7333,
      "Nothing": 7334,
      "erstood": 7335,
      "ĠahÃŃ": 7336,
      "glia": 7337,
      "Ġexist": 7338,
      "Ġlungo": 7339,
      "Mr": 7340,
      "Ġcrow": 7341,
      "undert": 7342,
      "Ġ18": 7343,
      "Ġbirra": 7344,
      "ĠSund": 7345,
      "Ġjud": 7346,
      "Ġaware": 7347,
      "Yes": 7348,
      "lung": 7349,
      "voll": 7350,
      "Ġador": 7351,
      "ĠArt": 7352,
      "Ġbesten": 7353,
      "bbed": 7354,
      "ype": 7355,
      "Ġgegeben": 7356,
      "Ġcinque": 7357,
      "Ġlung": 7358,
      "Ġwatched": 7359,
      "Ġarrabbiato": 7360,
      "Ġevid": 7361,
      "ionario": 7362,
      "ises": 7363,
      "acter": 7364,
      "allow": 7365,
      "Ġutilizz": 7366,
      "Ġfreddo": 7367,
      "Sol": 7368,
      "ares": 7369,
      "ĠWagen": 7370,
      "Ġsonst": 7371,
      "ĠcomeÃ§ou": 7372,
      "Ġimpegnato": 7373,
      "tiger": 7374,
      "Ġorgo": 7375,
      "Ã¤nder": 7376,
      "by": 7377,
      "eer": 7378,
      "Ġsehe": 7379,
      "Ġvivir": 7380,
      "Ġ15": 7381,
      "Ġbehav": 7382,
      "haps": 7383,
      "ium": 7384,
      "adamente": 7385,
      "icio": 7386,
      "ÃŃcia": 7387,
      "ĠDi": 7388,
      "Ġmuita": 7389,
      "Ġblij": 7390,
      "Ġuf": 7391,
      "Ġnoise": 7392,
      "Ġrepar": 7393,
      "Ġonder": 7394,
      "Ġsper": 7395,
      "Ġanywhere": 7396,
      "Ġkeys": 7397,
      "andaag": 7398,
      "Ġvelho": 7399,
      "Willst": 7400,
      "Ġview": 7401,
      "Ġricev": 7402,
      "ging": 7403,
      "vez": 7404,
      "ĠStim": 7405,
      "Ġmajor": 7406,
      "Ġveloc": 7407,
      "Ġmouth": 7408,
      "Ġfan": 7409,
      "Those": 7410,
      "Ġembarrass": 7411,
      "ĠPolizei": 7412,
      "Ġpet": 7413,
      "ĠMas": 7414,
      "Ġpermitted": 7415,
      "KÃ¶nnen": 7416,
      "Ġimpossible": 7417,
      "lang": 7418,
      "atÄĥ": 7419,
      "Ġpomer": 7420,
      "ĠPfer": 7421,
      "ĠRegen": 7422,
      "Ġmillion": 7423,
      "ypt": 7424,
      "Ġfrut": 7425,
      "ĠRat": 7426,
      "Ġconfused": 7427,
      "Puede": 7428,
      "rigado": 7429,
      "Ġpleas": 7430,
      "Dur": 7431,
      "Nein": 7432,
      "zug": 7433,
      "Ġsod": 7434,
      "Ġego": 7435,
      "Ġley": 7436,
      "ĠBrot": 7437,
      "Ġarbeitet": 7438,
      "Ġvoltar": 7439,
      "ĠGeburt": 7440,
      "Ġreceived": 7441,
      "Ġcentro": 7442,
      "Ġmeio": 7443,
      "Ġpueden": 7444,
      "Ġmodern": 7445,
      "Ġdrove": 7446,
      "Ġattend": 7447,
      "aren": 7448,
      "anos": 7449,
      "vera": 7450,
      "Ġperfe": 7451,
      "ĠEarth": 7452,
      "ĠWorte": 7453,
      "Ġboys": 7454,
      "Ġvisitar": 7455,
      "Ġrisk": 7456,
      "Ġopportun": 7457,
      "ird": 7458,
      "otte": 7459,
      "Ġvoz": 7460,
      "Ġgenere": 7461,
      "ĠweiÃŁt": 7462,
      "ĠsarÃ²": 7463,
      "Ġitaliano": 7464,
      "Ir": 7465,
      "Ġtedes": 7466,
      "Ġheir": 7467,
      "Ġfail": 7468,
      "Ġfamili": 7469,
      "Ġmeses": 7470,
      "ĠErfolg": 7471,
      "Ġsvegli": 7472,
      "Ihre": 7473,
      "zco": 7474,
      "isk": 7475,
      "Ġlit": 7476,
      "ĠentÃ£o": 7477,
      "ĠpolÃŃt": 7478,
      "Ġfelic": 7479,
      "Vielleicht": 7480,
      "Jetzt": 7481,
      "Ġcli": 7482,
      "Ġvre": 7483,
      "Ġtruck": 7484,
      "ĠWind": 7485,
      "Ġmiedo": 7486,
      "Ġdicho": 7487,
      "Ġcalm": 7488,
      "Ġseriously": 7489,
      "fono": 7490,
      "Ġdeta": 7491,
      "Ġsight": 7492,
      "chn": 7493,
      "ict": 7494,
      "open": 7495,
      "ĠChic": 7496,
      "Ġsbagliato": 7497,
      "Ġseria": 7498,
      "Ġtrees": 7499,
      "xim": 7500,
      "Ġcit": 7501,
      "Ġnav": 7502,
      "Ġescri": 7503,
      "Ġconsci": 7504,
      "Ġfaccio": 7505,
      "Son": 7506,
      "icher": 7507,
      "uras": 7508,
      "gef": 7509,
      "Ġmoe": 7510,
      "biÃ³": 7511,
      "Ġassum": 7512,
      "Ġjoin": 7513,
      "Ġeigenen": 7514,
      "Ġgh": 7515,
      "Ġyen": 7516,
      "key": 7517,
      "genommen": 7518,
      "Esa": 7519,
      "ĠStunde": 7520,
      "blico": 7521,
      "worten": 7522,
      "Ġtibi": 7523,
      "Ġcorn": 7524,
      "Ġkurz": 7525,
      "Ġjug": 7526,
      "indet": 7527,
      "Ġvenir": 7528,
      "Ġexcited": 7529,
      "ĠcoraÃ§Ã£o": 7530,
      "Sai": 7531,
      "the": 7532,
      "Ġisst": 7533,
      "Ã¶ll": 7534,
      "ĠNatur": 7535,
      "Ġsky": 7536,
      "Komm": 7537,
      "fico": 7538,
      "esia": 7539,
      "Ġfund": 7540,
      "Ġsapp": 7541,
      "Ġneve": 7542,
      "ĠLo": 7543,
      "Ġtegen": 7544,
      "ĠPart": 7545,
      "izar": 7546,
      "Ġassieme": 7547,
      "einander": 7548,
      "rete": 7549,
      "Ġigu": 7550,
      "ically": 7551,
      "Ġworse": 7552,
      "Ġjogo": 7553,
      "Ġcomputador": 7554,
      "Ġperio": 7555,
      "ĠEle": 7556,
      "Ġpensate": 7557,
      "Ġconhec": 7558,
      "ĠÃ¤l": 7559,
      "ĠNon": 7560,
      "ĠGem": 7561,
      "ativa": 7562,
      "Ġjealous": 7563,
      "bild": 7564,
      "Ġaccomp": 7565,
      "quired": 7566,
      "Ġgiornata": 7567,
      "Poss": 7568,
      "iendo": 7569,
      "Ġflor": 7570,
      "ĠdÃ³lares": 7571,
      "ĠChicago": 7572,
      "Ġhub": 7573,
      "Ġlog": 7574,
      "Ġgetroffen": 7575,
      "Ġcars": 7576,
      "Ġgira": 7577,
      "ĠlunedÃ¬": 7578,
      "ĠFadil": 7579,
      "Ġfear": 7580,
      "ĠHaupt": 7581,
      "Ġexperien": 7582,
      "Ġescr": 7583,
      "culos": 7584,
      "Ġhuge": 7585,
      "Ġmoving": 7586,
      "Ġverstehe": 7587,
      "Ġidiomas": 7588,
      "'.": 7589,
      "gri": 7590,
      "Quanti": 7591,
      "wegen": 7592,
      "Ġaddress": 7593,
      "ĠCairo": 7594,
      "Ġtrabajar": 7595,
      "Ġbleibt": 7596,
      "Ġalgumas": 7597,
      "Ġrules": 7598,
      "Ġpomerig": 7599,
      "Ġavoid": 7600,
      "Ġvro": 7601,
      "ĠSu": 7602,
      "Ġpapel": 7603,
      "ĠtÃ¨": 7604,
      "anche": 7605,
      "Ġcreo": 7606,
      "Ġvecchio": 7607,
      "Ġprimera": 7608,
      "Ġnotice": 7609,
      "Ġsembrava": 7610,
      "Ġweniger": 7611,
      "Ġlistening": 7612,
      "ĠcrianÃ§a": 7613,
      "Ġmere": 7614,
      "raz": 7615,
      "iras": 7616,
      "Ġnova": 7617,
      "ĠHar": 7618,
      "Ġhoe": 7619,
      "Ġcamin": 7620,
      "Ġfirm": 7621,
      "Ġreturned": 7622,
      "isst": 7623,
      "cks": 7624,
      "ĠWohn": 7625,
      "Ġcompiti": 7626,
      "Ġfiel": 7627,
      "ctive": 7628,
      "fri": 7629,
      "Ġparque": 7630,
      "ĠArm": 7631,
      "Uns": 7632,
      "Ġconsegui": 7633,
      "Fac": 7634,
      "Pi": 7635,
      "ji": 7636,
      "Â»": 7637,
      "Ġfallen": 7638,
      "Ġcono": 7639,
      "annte": 7640,
      "order": 7641,
      "Ġbuono": 7642,
      "Ġeasily": 7643,
      "Ġdivertente": 7644,
      "emplo": 7645,
      "Ġwohnt": 7646,
      "Ġfishing": 7647,
      "Ġpomeriggio": 7648,
      "Sag": 7649,
      "ex": 7650,
      "Ġbell": 7651,
      "Ġparar": 7652,
      "ĠHung": 7653,
      "Habt": 7654,
      "Ġairport": 7655,
      "Ġstraight": 7656,
      "ĠÃ¡rv": 7657,
      "Â«": 7658,
      "Ġeigentlich": 7659,
      "erein": 7660,
      "anzen": 7661,
      "Ġfalando": 7662,
      "plic": 7663,
      "stairs": 7664,
      "Ġtorta": 7665,
      "Ġdiction": 7666,
      "erete": 7667,
      "ĠZuk": 7668,
      "Ġnumero": 7669,
      "Ġlangsam": 7670,
      "Ġtas": 7671,
      "Ġstavo": 7672,
      "Ġpolizia": 7673,
      "Ġafford": 7674,
      "Ã¢ncia": 7675,
      "Ġristorante": 7676,
      "Ġpiece": 7677,
      "blig": 7678,
      "Ġcamino": 7679,
      "Algun": 7680,
      "atter": 7681,
      "olf": 7682,
      "onden": 7683,
      "cts": 7684,
      "Ġaquele": 7685,
      "Ġgrandes": 7686,
      "ktion": 7687,
      "ites": 7688,
      "Ġhaciendo": 7689,
      "Ġshut": 7690,
      "Ġdiss": 7691,
      "Ġhoch": 7692,
      "Ġcontrib": 7693,
      "Ġfilme": 7694,
      "aufen": 7695,
      "Ġsentire": 7696,
      "Ġkleinen": 7697,
      "Ġsuggest": 7698,
      "Dice": 7699,
      "usso": 7700,
      "Ġcoz": 7701,
      "Ġnemmeno": 7702,
      "Ġspavent": 7703,
      "Ġdum": 7704,
      "ĠvÃ¶ll": 7705,
      "ĠMund": 7706,
      "Ġzei": 7707,
      "zeich": 7708,
      "altÃł": 7709,
      "Ġbored": 7710,
      "ĠZukunft": 7711,
      "Ñĥ": 7712,
      "ĠtÃ©": 7713,
      "veel": 7714,
      "rauÃŁen": 7715,
      "Contin": 7716,
      "ĠWhat": 7717,
      "Ġpentru": 7718,
      "Ġgaro": 7719,
      "Ġdrug": 7720,
      "Ġorgogli": 7721,
      "Much": 7722,
      "Pass": 7723,
      "Ġlock": 7724,
      "menti": 7725,
      "Ġlett": 7726,
      "Ġsentences": 7727,
      "tre": 7728,
      "vely": 7729,
      "ĠlÃł": 7730,
      "Ġstren": 7731,
      "Ġrapp": 7732,
      "âĢľ,": 7733,
      "Ġpronta": 7734,
      "Thanks": 7735,
      "Ġembora": 7736,
      "Ġspielt": 7737,
      "Ã¤uf": 7738,
      "ĠFÃ¼": 7739,
      "ĠRoma": 7740,
      "Ġirrit": 7741,
      "Ġsurprise": 7742,
      "Ġlonely": 7743,
      "fa": 7744,
      "gono": 7745,
      "Ġuncle": 7746,
      "Ġbeat": 7747,
      "Ġschien": 7748,
      "Ġschuld": 7749,
      "Esc": 7750,
      "Ġboek": 7751,
      "Ġmedio": 7752,
      "Ġzoo": 7753,
      "blick": 7754,
      "Ġnature": 7755,
      "Ġlingue": 7756,
      "zent": 7757,
      "road": 7758,
      "Ġfinalmente": 7759,
      "Ġsenso": 7760,
      "ĠIdee": 7761,
      "bu": 7762,
      "Ġhide": 7763,
      "iego": 7764,
      "rown": 7765,
      "ichter": 7766,
      "cerÃł": 7767,
      "Ġterminar": 7768,
      "Ġbonita": 7769,
      "alla": 7770,
      "Ġexiste": 7771,
      "Ġbuilt": 7772,
      "Ġgotten": 7773,
      "Ġharder": 7774,
      "ĠBlumen": 7775,
      "Ġmentre": 7776,
      "Ġslept": 7777,
      "Tiene": 7778,
      "Ġnative": 7779,
      "ellte": 7780,
      "ĠAustralien": 7781,
      "Ġrecon": 7782,
      "Ġcountries": 7783,
      "Should": 7784,
      "case": 7785,
      "Ġfai": 7786,
      "Ġunlik": 7787,
      "Ã¶ff": 7788,
      "Ġpromet": 7789,
      "Ġfatta": 7790,
      "Ġdecide": 7791,
      "Ġsmile": 7792,
      "Ã¶rper": 7793,
      "ĠcabeÃ§a": 7794,
      "ened": 7795,
      "atamente": 7796,
      "ĠRa": 7797,
      "Äĥr": 7798,
      "Ġseines": 7799,
      "Ġterror": 7800,
      "Ġcomprou": 7801,
      "ofd": 7802,
      "ĠtelÃ©": 7803,
      "mes": 7804,
      "tur": 7805,
      "ĠmÃ£o": 7806,
      "Ġharm": 7807,
      "Ġfate": 7808,
      "avam": 7809,
      "Ġallerg": 7810,
      "Ġpresident": 7811,
      "Ġimparato": 7812,
      "Tutto": 7813,
      "Ġunlikely": 7814,
      "Vol": 7815,
      "Ġvede": 7816,
      "Ã³rio": 7817,
      "avano": 7818,
      "Ġchiedere": 7819,
      "iges": 7820,
      "ĠAll": 7821,
      "auer": 7822,
      "ensei": 7823,
      "Sabes": 7824,
      "schen": 7825,
      "Ġdad": 7826,
      "Ġpulled": 7827,
      "stead": 7828,
      "Ġapri": 7829,
      "Ġzeg": 7830,
      "ĠhÃ¤tten": 7831,
      "Ġerror": 7832,
      "llar": 7833,
      "ĠSorgen": 7834,
      "Ġamong": 7835,
      "pria": 7836,
      "Ġcute": 7837,
      "Ġouvi": 7838,
      "Ġpicked": 7839,
      "Ġgrave": 7840,
      "ĠÃºnica": 7841,
      "Ġquebr": 7842,
      "ille": 7843,
      "Ġdai": 7844,
      "ggiare": 7845,
      "Ġbelieved": 7846,
      "Ġsegunda": 7847,
      "ĠMittag": 7848,
      "Ġcanzone": 7849,
      "Ġaum": 7850,
      "Ġfrei": 7851,
      "ĠrealtÃł": 7852,
      "ĠBÃ¤": 7853,
      "Ġthank": 7854,
      "Ġfield": 7855,
      "ĠpodrÃŃa": 7856,
      "ÃŃcula": 7857,
      "ĠSchÃ¼ler": 7858,
      "runken": 7859,
      "ĠdÃ¡": 7860,
      "Ġalco": 7861,
      "Ġavrei": 7862,
      "Ġlieben": 7863,
      "fang": 7864,
      "Ġness": 7865,
      "Ġiss": 7866,
      "veis": 7867,
      "ĠDeutschland": 7868,
      "Ġubria": 7869,
      "Ġsurvi": 7870,
      "Compr": 7871,
      "ĠSpaÃŁ": 7872,
      "issenschaft": 7873,
      "Ġbelle": 7874,
      "Ġgelesen": 7875,
      "ĠFluss": 7876,
      "Ġsociet": 7877,
      "ĠÃºltimo": 7878,
      "Ce": 7879,
      "oto": 7880,
      "Ġfand": 7881,
      "Ġrifi": 7882,
      "Ġapar": 7883,
      "Ġfeels": 7884,
      "Ġoud": 7885,
      "Ġgentile": 7886,
      "iva": 7887,
      "erde": 7888,
      "Ġmic": 7889,
      "Ġmanten": 7890,
      "Ġquale": 7891,
      "lace": 7892,
      "ician": 7893,
      "Ġauthor": 7894,
      "ĠSeite": 7895,
      "Ġham": 7896,
      "Ġalten": 7897,
      "Ã¤ft": 7898,
      "Ġdovremmo": 7899,
      "Ġriconos": 7900,
      "MarÃŃa": 7901,
      "ĠPlatz": 7902,
      "Ġknife": 7903,
      "ĠMarias": 7904,
      "ĠTa": 7905,
      "ĠKranken": 7906,
      "Ġhates": 7907,
      "Ġimpressed": 7908,
      "Ġsuonare": 7909,
      "Ġdottore": 7910,
      "Ġagu": 7911,
      "orum": 7912,
      "Ġindo": 7913,
      "Ġjij": 7914,
      "Ġspaz": 7915,
      "ĠChe": 7916,
      "Ġwerk": 7917,
      "Ġconfess": 7918,
      "Ġinvent": 7919,
      "Ġattenzione": 7920,
      "Amo": 7921,
      "Ġdanc": 7922,
      "Ġpassar": 7923,
      "Ġsinging": 7924,
      "Ġfragen": 7925,
      "atr": 7926,
      "ahren": 7927,
      "Ġrelationship": 7928,
      "Gostaria": 7929,
      "adra": 7930,
      "str": 7931,
      "ĠBier": 7932,
      "Ġatras": 7933,
      "Ġdaqui": 7934,
      "ĠPer": 7935,
      "ĠCol": 7936,
      "Bisogna": 7937,
      "Cada": 7938,
      "Ġ$": 7939,
      "Ġnoss": 7940,
      "Ġadop": 7941,
      "CuÃ¡nto": 7942,
      "Lav": 7943,
      "cando": 7944,
      "Ġstri": 7945,
      "Ġsprach": 7946,
      "ĠÃ¼berras": 7947,
      "Jap": 7948,
      "elho": 7949,
      "Ġguil": 7950,
      "Ġcoloc": 7951,
      "retta": 7952,
      "Ġpleased": 7953,
      "Ai": 7954,
      "Sus": 7955,
      "ĠvÃª": 7956,
      "igi": 7957,
      "Ġwaste": 7958,
      "Ġreti": 7959,
      "ĠBank": 7960,
      "Ġpregunta": 7961,
      "Ġmovies": 7962,
      "Ġhoud": 7963,
      "Ġsentido": 7964,
      "Ġstudentesse": 7965,
      "ĠSonn": 7966,
      "Ġtranqu": 7967,
      "Domani": 7968,
      "hÃ¶r": 7969,
      "rest": 7970,
      "Ġterug": 7971,
      "Ġdomande": 7972,
      "Ġcabeza": 7973,
      "Ġfaster": 7974,
      "scheinlich": 7975,
      "Ġsett": 7976,
      "Ġcried": 7977,
      "Ġinse": 7978,
      "Ġesti": 7979,
      "icked": 7980,
      "Ġkalt": 7981,
      "Ġbreve": 7982,
      "Someone": 7983,
      "Ġbottle": 7984,
      "alen": 7985,
      "Ġpred": 7986,
      "Ġjovem": 7987,
      "ĠÃ¤nd": 7988,
      "ĠGedanken": 7989,
      "Potete": 7990,
      "Necesito": 7991,
      "Von": 7992,
      "tei": 7993,
      "ĠSm": 7994,
      "Ġpergunta": 7995,
      "Ġusa": 7996,
      "Ġcontroll": 7997,
      "Ġtavolo": 7998,
      "liches": 7999,
      "Ġnewsp": 8000,
      "Ġcow": 8001,
      "Ġgiapponese": 8002,
      "adora": 8003,
      "ierno": 8004,
      "Ġgescha": 8005,
      "resp": 8006,
      "clock": 8007,
      "Ġconcerned": 8008,
      "gunto": 8009,
      "orf": 8010,
      "imp": 8011,
      "antar": 8012,
      "bert": 8013,
      "ĠJe": 8014,
      "Ġrestare": 8015,
      "Ġthrew": 8016,
      "ĠTrÃ¤": 8017,
      "anne": 8018,
      "Ġhandle": 8019,
      "eroporto": 8020,
      "uesta": 8021,
      "Ġkn": 8022,
      "Ġsoft": 8023,
      "own": 8024,
      "Ġdenkt": 8025,
      "Ġrapidamente": 8026,
      "ĠFahrrad": 8027,
      "Ġticket": 8028,
      "ĠMilch": 8029,
      "Ġguilty": 8030,
      "45": 8031,
      "osas": 8032,
      "ĠDios": 8033,
      "ĠUS": 8034,
      "Ġfailed": 8035,
      "Ġcorpo": 8036,
      "Ã¼cken": 8037,
      "Ġfamoso": 8038,
      "Ġtaz": 8039,
      "Ġbos": 8040,
      "Ġperdi": 8041,
      "Ġenti": 8042,
      "Ġfruit": 8043,
      "Ġyourselves": 8044,
      "iciÃ³n": 8045,
      "Ġtax": 8046,
      "Ġnamor": 8047,
      "Ġhil": 8048,
      "Ġfant": 8049,
      "unkt": 8050,
      "Ġandati": 8051,
      "igte": 8052,
      "Ġperse": 8053,
      "Ġlogo": 8054,
      "Ġproper": 8055,
      "ĠKrieg": 8056,
      "Ġapple": 8057,
      "Ġbanco": 8058,
      "Ġerrado": 8059,
      "Ġschwimmen": 8060,
      "Ġtotal": 8061,
      "ĠÃ¡rbol": 8062,
      "Kein": 8063,
      "Ġfantas": 8064,
      "ĠMill": 8065,
      "Ã¢nd": 8066,
      "Ġseparat": 8067,
      "Ġpalabra": 8068,
      "ĠJapÃ³n": 8069,
      "Ġautor": 8070,
      "Ġlegge": 8071,
      "istir": 8072,
      "Ġstorm": 8073,
      "Hey": 8074,
      "atevi": 8075,
      "Ġterrib": 8076,
      "Ġmeines": 8077,
      "Ġlief": 8078,
      "Ġouvir": 8079,
      "Ġhijos": 8080,
      "Ġportugu": 8081,
      "ĠMenge": 8082,
      "ĠtelÃ©fono": 8083,
      "bil": 8084,
      "ific": 8085,
      "Ġsort": 8086,
      "omini": 8087,
      "Ġremo": 8088,
      "Ġweak": 8089,
      "Ġcammin": 8090,
      "Ġvicine": 8091,
      "Ġcondition": 8092,
      "Ries": 8093,
      "aso": 8094,
      "Ġmeant": 8095,
      "Ġstazione": 8096,
      "Enc": 8097,
      "isteren": 8098,
      "Ġsettimane": 8099,
      "ĠCanadian": 8100,
      "setz": 8101,
      "Åį": 8102,
      "onio": 8103,
      "aded": 8104,
      "Ġmorreu": 8105,
      "Ġrisol": 8106,
      "Prefer": 8107,
      "ĠThomas": 8108,
      "Ġlago": 8109,
      "Ġawake": 8110,
      "Ġwonderful": 8111,
      "TodavÃŃa": 8112,
      "father": 8113,
      "gaben": 8114,
      "jam": 8115,
      "ĠmÄĥ": 8116,
      "itate": 8117,
      "inger": 8118,
      "Ġdolor": 8119,
      "ĠrazÃ³n": 8120,
      "ĠSchuld": 8121,
      "Comp": 8122,
      "Ġazul": 8123,
      "Ġguidare": 8124,
      "vista": 8125,
      "chine": 8126,
      "Ġenquanto": 8127,
      "Ġamaz": 8128,
      "Ġunderstood": 8129,
      "Ġtraffic": 8130,
      "ccio": 8131,
      "Ġhombres": 8132,
      "Ġfiglia": 8133,
      "Ġpazienti": 8134,
      "ĠprÃ³xima": 8135,
      "ĠvÃ¶llig": 8136,
      "edem": 8137,
      "Ġbee": 8138,
      "ĠPal": 8139,
      "Ġacuerdo": 8140,
      "Ġapare": 8141,
      "Ġeats": 8142,
      "yoto": 8143,
      "Fue": 8144,
      "Ġpatient": 8145,
      "Ġkomen": 8146,
      "imi": 8147,
      "ĠLuft": 8148,
      "Tenemos": 8149,
      "ciones": 8150,
      "ĠElke": 8151,
      "lass": 8152,
      "Ġquien": 8153,
      "Ġchegou": 8154,
      "abo": 8155,
      "Ġmientras": 8156,
      "Ġsolito": 8157,
      "ĠfarÃ²": 8158,
      "Ã¶sen": 8159,
      "Ġindic": 8160,
      "Were": 8161,
      "Ġgewe": 8162,
      "ĠPort": 8163,
      "Ġversucht": 8164,
      "Ġexpecting": 8165,
      "ĠTee": 8166,
      "Ġdictionary": 8167,
      "Fui": 8168,
      "Ġalber": 8169,
      "Ġalmo": 8170,
      "ciato": 8171,
      "ĠpossÃŃvel": 8172,
      "Ġlaughed": 8173,
      "82": 8174,
      "Ãľber": 8175,
      "Ġsino": 8176,
      "Ġbug": 8177,
      "Ã¤ng": 8178,
      "Ġusing": 8179,
      "Ġgesche": 8180,
      "Ġidee": 8181,
      "Ġsmoke": 8182,
      "cn": 8183,
      "omin": 8184,
      "elde": 8185,
      "Ġunos": 8186,
      "Ġriun": 8187,
      "Ġentend": 8188,
      "CuÃ¡nt": 8189,
      "Ġleaves": 8190,
      "Ġglaubt": 8191,
      "Pol": 8192,
      "orben": 8193,
      "Ġjam": 8194,
      "ĠGo": 8195,
      "Ġcarte": 8196,
      "Ġpassado": 8197,
      "Ġaccidente": 8198,
      "Ġintend": 8199,
      "reichen": 8200,
      "ĠwÃ¼nschte": 8201,
      "cciÃ³n": 8202,
      "Ġdovete": 8203,
      "imus": 8204,
      "Ġstia": 8205,
      "Ġspring": 8206,
      "ĠschÃ¶ne": 8207,
      "vai": 8208,
      "Ġmorire": 8209,
      "Ġcantare": 8210,
      "Ġeffort": 8211,
      "Ġoffered": 8212,
      "Put": 8213,
      "bado": 8214,
      "Ġvader": 8215,
      "Ġseven": 8216,
      "Ġestas": 8217,
      "ĠpodÃŃa": 8218,
      "Ġcapito": 8219,
      "Ġmiser": 8220,
      "ĠGeheim": 8221,
      "Ġmaggi": 8222,
      "Ġsubject": 8223,
      "Ġmosque": 8224,
      "Ġfumar": 8225,
      "Ġlatte": 8226,
      "Ġmiddle": 8227,
      "bur": 8228,
      "uva": 8229,
      "esame": 8230,
      "Ġpaci": 8231,
      "Ġcaix": 8232,
      "Ġvit": 8233,
      "emd": 8234,
      "ĠBet": 8235,
      "Ġjugar": 8236,
      "Ġcomplain": 8237,
      "Ġdesco": 8238,
      "Ġmenino": 8239,
      "aly": 8240,
      "Ġsete": 8241,
      "Ġverz": 8242,
      "Ġcause": 8243,
      "Ġversuchte": 8244,
      "Sim": 8245,
      "sicht": 8246,
      "will": 8247,
      "Ġlament": 8248,
      "Ġguarda": 8249,
      "Ġguardare": 8250,
      "Ġhielt": 8251,
      "ĠaÃºn": 8252,
      "chsel": 8253,
      "Ġluc": 8254,
      "Ġbru": 8255,
      "oses": 8256,
      "urd": 8257,
      "ĠFle": 8258,
      "Ġherum": 8259,
      "ierung": 8260,
      "Ġpensare": 8261,
      "Ġsuggested": 8262,
      "Ġconseguir": 8263,
      "blo": 8264,
      "dad": 8265,
      "Ġquad": 8266,
      "Ġabitu": 8267,
      "Ġuur": 8268,
      "Ġperdido": 8269,
      "Ġcontact": 8270,
      "ĠTokio": 8271,
      "Ġintelligent": 8272,
      "Ġfit": 8273,
      "Ġisland": 8274,
      "ereo": 8275,
      "Ġperto": 8276,
      "Ġeram": 8277,
      "ĠfaÃ§a": 8278,
      "AlguÃ©m": 8279,
      "Ġdating": 8280,
      "Ġdomen": 8281,
      "Ġnuma": 8282,
      "ĠSprachen": 8283,
      "ris": 8284,
      "Ġhun": 8285,
      "Ġquatt": 8286,
      "Ġtive": 8287,
      "Ġrecently": 8288,
      "Ġbereit": 8289,
      "Rec": 8290,
      "ĠsÃ¡": 8291,
      "esch": 8292,
      "etic": 8293,
      "Ġmaneira": 8294,
      "Ġdenen": 8295,
      "Ġchiedo": 8296,
      "Ġoportun": 8297,
      "Ġtenha": 8298,
      "Ġended": 8299,
      "ology": 8300,
      "Mis": 8301,
      "Ġsente": 8302,
      "Ġvelo": 8303,
      "Ġempre": 8304,
      "Ġido": 8305,
      "Ġras": 8306,
      "Ġpobre": 8307,
      "Ġdrie": 8308,
      "ĠWein": 8309,
      "Ġselten": 8310,
      "Ġorden": 8311,
      "Ġsorpresa": 8312,
      "Ġfidanz": 8313,
      "Ġvillage": 8314,
      "Ġdere": 8315,
      "ĠdrauÃŁen": 8316,
      "Ġoce": 8317,
      "Ġabsolutely": 8318,
      "Dic": 8319,
      "disf": 8320,
      "vamos": 8321,
      "ĠMi": 8322,
      "ĠMÃ¤nner": 8323,
      "Ġrent": 8324,
      "Ġnonni": 8325,
      "ĠFall": 8326,
      "Ġmaken": 8327,
      "onders": 8328,
      "Ġcuore": 8329,
      "endete": 8330,
      "Ġfelici": 8331,
      "Ġgelernt": 8332,
      "nisse": 8333,
      "ĠMonat": 8334,
      "Ġcucina": 8335,
      "hÃ¤lt": 8336,
      "Ġtare": 8337,
      "Ġtour": 8338,
      "onces": 8339,
      "uros": 8340,
      "Ġfrases": 8341,
      "Ġviajar": 8342,
      "geln": 8343,
      "Ġtwice": 8344,
      "Ġriusci": 8345,
      "Welche": 8346,
      "Ġpane": 8347,
      "Ġrequired": 8348,
      "ĠcuÃ¡": 8349,
      "Ġinsieme": 8350,
      "automobile": 8351,
      "Darf": 8352,
      "Tudo": 8353,
      "Ġpill": 8354,
      "ĠfÃ¤hrt": 8355,
      "elas": 8356,
      "Ġei": 8357,
      "Ġemer": 8358,
      "Ã³m": 8359,
      "Ġacqu": 8360,
      "Ġportato": 8361,
      "Ġanci": 8362,
      "iac": 8363,
      "hrte": 8364,
      "Ã§os": 8365,
      "Deine": 8366,
      "bles": 8367,
      "Ġfeelings": 8368,
      "Ġtelefone": 8369,
      "Ġvestido": 8370,
      "Ġsangue": 8371,
      "Ġstolen": 8372,
      "een": 8373,
      "van": 8374,
      "Ġtyp": 8375,
      "Ġlou": 8376,
      "Ġspoken": 8377,
      "Ġargum": 8378,
      "Ġlasciare": 8379,
      "aixo": 8380,
      "ymus": 8381,
      "Ġbigli": 8382,
      "raag": 8383,
      "Lasci": 8384,
      "ziehen": 8385,
      "Ġdeixou": 8386,
      "Ġcrowd": 8387,
      "Ni": 8388,
      "ware": 8389,
      "ĠpÃ´": 8390,
      "Ġconto": 8391,
      "Ġsolve": 8392,
      "Ġmarido": 8393,
      "ucir": 8394,
      "ÈĻte": 8395,
      "Ġnegozio": 8396,
      "Ġnamed": 8397,
      "ĠEgypt": 8398,
      "Ġsweet": 8399,
      "Fi": 8400,
      "ians": 8401,
      "ties": 8402,
      "Ġalter": 8403,
      "lage": 8404,
      "ugend": 8405,
      "paÃ±": 8406,
      "ĠTeil": 8407,
      "Ġconhece": 8408,
      "Ġfortuna": 8409,
      "ĠMeer": 8410,
      "Ġpure": 8411,
      "ĠAlter": 8412,
      "Ġfalsch": 8413,
      "ĠUnfall": 8414,
      "ĠErk": 8415,
      "Ġgioco": 8416,
      "ĠBahnhof": 8417,
      "ĠQ": 8418,
      "elos": 8419,
      "ĠMom": 8420,
      "Ġcancel": 8421,
      "Ġgiard": 8422,
      "prano": 8423,
      "Ġresponder": 8424,
      "Ġprofessori": 8425,
      "ologia": 8426,
      "spra": 8427,
      "Ġvinto": 8428,
      "bby": 8429,
      "Auch": 8430,
      "eken": 8431,
      "hundert": 8432,
      "ĠPfl": 8433,
      "brochen": 8434,
      "ledge": 8435,
      "oÃ£o": 8436,
      "Ġverdi": 8437,
      "Ġspir": 8438,
      "Ġdeles": 8439,
      "Ġscord": 8440,
      "remos": 8441,
      "Ġamiga": 8442,
      "sk": 8443,
      "uct": 8444,
      "Ġeens": 8445,
      "Ġanderes": 8446,
      "Ġarran": 8447,
      "Ġmuerte": 8448,
      "Seu": 8449,
      "isches": 8450,
      "Ġmarket": 8451,
      "attamente": 8452,
      "Ġinvolved": 8453,
      "Mas": 8454,
      "Pri": 8455,
      "Ġbele": 8456,
      "ĠSinn": 8457,
      "ording": 8458,
      "ĠSchuhe": 8459,
      "Ġwelche": 8460,
      "ĠX": 8461,
      "Ġsiento": 8462,
      "Ġnet": 8463,
      "Ġbian": 8464,
      "pper": 8465,
      "ĠWor": 8466,
      "Ġgiving": 8467,
      "Ġotros": 8468,
      "ĠBrÃ¼": 8469,
      "Ġdropped": 8470,
      "Ġjogar": 8471,
      "Ġdata": 8472,
      "Ġprog": 8473,
      "gers": 8474,
      "Ġlocked": 8475,
      "Ġcirc": 8476,
      "Bu": 8477,
      "Sm": 8478,
      "Tatoeba": 8479,
      "Ġdestro": 8480,
      "esper": 8481,
      "Ġboca": 8482,
      "Ġgri": 8483,
      "Ġov": 8484,
      "ĠTur": 8485,
      "Ġexamen": 8486,
      "Ġbeginning": 8487,
      "Ġcugini": 8488,
      "ĠtrÃ¤gt": 8489,
      "Ġoil": 8490,
      "ĠHÃ¶": 8491,
      "Ġviver": 8492,
      "ancy": 8493,
      "Ġvirt": 8494,
      "Ġkomt": 8495,
      "Ġcritic": 8496,
      "Ogni": 8497,
      "Ġlow": 8498,
      "Ġshy": 8499,
      "Ġmangia": 8500,
      "undheit": 8501,
      "Ġmorrer": 8502,
      "ĠSchlaf": 8503,
      "Ġescribir": 8504,
      "esp": 8505,
      "Ġanz": 8506,
      "Ġexcept": 8507,
      "haft": 8508,
      "Ġpian": 8509,
      "Ġpartire": 8510,
      "Ġrestaurante": 8511,
      "Ġwet": 8512,
      "itze": 8513,
      "ĠBo": 8514,
      "Ġallo": 8515,
      "Ġbrinc": 8516,
      "Ġdepart": 8517,
      "Ġadvised": 8518,
      "Ġsquadra": 8519,
      "Ġahead": 8520,
      "asta": 8521,
      "rel": 8522,
      "Ġgall": 8523,
      "ĠMed": 8524,
      "stra": 8525,
      "Ġstellen": 8526,
      "Ġprove": 8527,
      "ĠWinter": 8528,
      "Ġminuti": 8529,
      "Ġaccett": 8530,
      "Ġdomenica": 8531,
      "Aus": 8532,
      "Ġpuso": 8533,
      "Ġbemer": 8534,
      "urr": 8535,
      "Ġprod": 8536,
      "ĠSchre": 8537,
      "Ġmachine": 8538,
      "Ġpurp": 8539,
      "Ġcigar": 8540,
      "ouse": 8541,
      "ĠSen": 8542,
      "Ġinsult": 8543,
      "werk": 8544,
      "Ġgreen": 8545,
      "Gio": 8546,
      "gos": 8547,
      "Ġkno": 8548,
      "ĠPf": 8549,
      "Ġusare": 8550,
      "ienen": 8551,
      "Ġwert": 8552,
      "Ġbesuchen": 8553,
      "Ġgroot": 8554,
      "Agora": 8555,
      "Ġdiga": 8556,
      "imal": 8557,
      "ural": 8558,
      "ckte": 8559,
      "brello": 8560,
      "Ġpasa": 8561,
      "Ġsimples": 8562,
      "Ġfollowed": 8563,
      "ĠUnterschied": 8564,
      "Ass": 8565,
      "rand": 8566,
      "Ġaula": 8567,
      "Ġquell": 8568,
      "Quale": 8569,
      "Ġplays": 8570,
      "Ġeure": 8571,
      "Pode": 8572,
      "Ġhoudt": 8573,
      "Mol": 8574,
      "ĠdÃ¼r": 8575,
      "recht": 8576,
      "Ġneues": 8577,
      "ĠfrÃŃo": 8578,
      "ussa": 8579,
      "Ġconsigli": 8580,
      "Ġbegann": 8581,
      "Ġerrori": 8582,
      "Ġtornare": 8583,
      "Ġforgotten": 8584,
      "Ġvrouw": 8585,
      "Ġmanager": 8586,
      "ĠNÃ¤": 8587,
      "Ġdesap": 8588,
      "reek": 8589,
      "Ġrelax": 8590,
      "Ġneighb": 8591,
      "Nur": 8592,
      "Ġesattamente": 8593,
      "Ġabit": 8594,
      "riage": 8595,
      "Ġwore": 8596,
      "ĠHotel": 8597,
      "Ġreserv": 8598,
      "resa": 8599,
      "Ġpasar": 8600,
      "Ġschwar": 8601,
      "Ġcapisco": 8602,
      "iner": 8603,
      "Ġhell": 8604,
      "Ġgere": 8605,
      "ques": 8606,
      "stu": 8607,
      "ards": 8608,
      "Ġdemand": 8609,
      "Ġ12": 8610,
      "plom": 8611,
      "Desp": 8612,
      "jen": 8613,
      "inhos": 8614,
      "Ġloud": 8615,
      "Ġdiv": 8616,
      "lev": 8617,
      "Ġunha": 8618,
      "Ġprova": 8619,
      "ĠKir": 8620,
      "Ġscus": 8621,
      "Ġoptim": 8622,
      "Ġcapac": 8623,
      "Ġdrinks": 8624,
      "graph": 8625,
      "Ġdressed": 8626,
      "Ġestudiar": 8627,
      "ĠpolicÃŃa": 8628,
      "ĠSunday": 8629,
      "Ġgal": 8630,
      "Ġnonne": 8631,
      "Ġtemprano": 8632,
      "ĠSchul": 8633,
      "ĠOn": 8634,
      "Ġpropos": 8635,
      "Ġcantar": 8636,
      "ĠProbleme": 8637,
      "Ġdimenticato": 8638,
      "ĠSmith": 8639,
      "Port": 8640,
      "ilomet": 8641,
      "ĠKunst": 8642,
      "Ġarte": 8643,
      "icial": 8644,
      "ĠWei": 8645,
      "ĠgefÃ¤hr": 8646,
      "Ġpretend": 8647,
      "ĠSchlÃ¼ssel": 8648,
      "Ġconoscenze": 8649,
      "Ġlend": 8650,
      "Ġexerc": 8651,
      "Ġfueron": 8652,
      "rieb": 8653,
      "Ġstudiando": 8654,
      "bat": 8655,
      "esten": 8656,
      "cker": 8657,
      "schlag": 8658,
      "Ġmenudo": 8659,
      "ĠFrank": 8660,
      "Ġbringt": 8661,
      "Ġcugine": 8662,
      "ĠKen": 8663,
      "Ġdemoc": 8664,
      "zehn": 8665,
      "Ġbull": 8666,
      "Ġvielen": 8667,
      "Ġarms": 8668,
      "Ġabrir": 8669,
      "Amer": 8670,
      "Dam": 8671,
      "Imp": 8672,
      "Ġanima": 8673,
      "lei": 8674,
      "Ġenvi": 8675,
      "ĠTre": 8676,
      "ĠComp": 8677,
      "Ġhoofd": 8678,
      "Ġmoon": 8679,
      "attina": 8680,
      "Ġmachst": 8681,
      "Ġfilha": 8682,
      "Ġcredo": 8683,
      "Ġjail": 8684,
      "erweise": 8685,
      "legen": 8686,
      "Ġsechs": 8687,
      "Ġneanche": 8688,
      "agh": 8689,
      "Ġgiro": 8690,
      "Ġpegar": 8691,
      "Ġfuerte": 8692,
      "Ã¤ndig": 8693,
      "Ġculpa": 8694,
      "Ġiniziato": 8695,
      "Ġricevuto": 8696,
      "ete": 8697,
      "Ġdirig": 8698,
      "Ġanzi": 8699,
      "avit": 8700,
      "upo": 8701,
      "arika": 8702,
      "Ġjobs": 8703,
      "Ġraining": 8704,
      "Lib": 8705,
      "mother": 8706,
      "anÃ§a": 8707,
      "Ġmissing": 8708,
      "Ġklar": 8709,
      "ĠpelÃŃcula": 8710,
      "SarÃł": 8711,
      "Sk": 8712,
      "ĠhÃ¼": 8713,
      "Ġcro": 8714,
      "Ġfasc": 8715,
      "assi": 8716,
      "lies": 8717,
      "orda": 8718,
      "ĠIsrael": 8719,
      "ĠKÃ¶nig": 8720,
      "ws": 8721,
      "Ġech": 8722,
      "WeiÃŁt": 8723,
      "gth": 8724,
      "gabe": 8725,
      "Ġphys": 8726,
      "Prob": 8727,
      "Ġpartir": 8728,
      "ĠningÃºn": 8729,
      "50": 8730,
      "Ġpig": 8731,
      "reg": 8732,
      "Ġbeij": 8733,
      "aves": 8734,
      "ijf": 8735,
      "Ġmention": 8736,
      "Ġsabem": 8737,
      "Ġsistema": 8738,
      "ĠschlÃ¤": 8739,
      "ĠKan": 8740,
      "Ġcompre": 8741,
      "ĠVol": 8742,
      "Estaba": 8743,
      "Ġsapete": 8744,
      "Ġeventually": 8745,
      "Hav": 8746,
      "Ġpock": 8747,
      "Ġlla": 8748,
      "Ġvandaag": 8749,
      "ontro": 8750,
      "Ġcalling": 8751,
      "Ġcaldo": 8752,
      "Ġvestiti": 8753,
      "Ġpue": 8754,
      "isci": 8755,
      "Ġeinge": 8756,
      "ickt": 8757,
      "Ġgrandfather": 8758,
      "Ġconsidered": 8759,
      "Ġridere": 8760,
      "Ġatrav": 8761,
      "Ġpiccolo": 8762,
      "ilig": 8763,
      "aban": 8764,
      "Ġappo": 8765,
      "ĠpasÃ³": 8766,
      "Ġcarefully": 8767,
      "cendo": 8768,
      "ĠpÃº": 8769,
      "oura": 8770,
      "Ġasta": 8771,
      "Ġparco": 8772,
      "ests": 8773,
      "Quel": 8774,
      "lied": 8775,
      "ughing": 8776,
      "Ġmotivo": 8777,
      "Ġgesprochen": 8778,
      "Ġcream": 8779,
      "ĠhÃ¤ttest": 8780,
      "Ġcooking": 8781,
      "Ġberbero": 8782,
      "rÃ¼ckt": 8783,
      "Ġeggs": 8784,
      "Aber": 8785,
      "hÃ¶": 8786,
      "ĠSto": 8787,
      "antly": 8788,
      "Ġverschw": 8789,
      "Ġdiventare": 8790,
      "Ġrimanere": 8791,
      "Gibt": 8792,
      "Gestern": 8793,
      "Ġwit": 8794,
      "Ġcree": 8795,
      "Ġante": 8796,
      "Ġperman": 8797,
      "beite": 8798,
      "ĠFir": 8799,
      "ĠLi": 8800,
      "Ġvenuta": 8801,
      "Ġflight": 8802,
      "chtet": 8803,
      "ising": 8804,
      "Ġvinho": 8805,
      "amore": 8806,
      "Ġzii": 8807,
      "verÃł": 8808,
      "sty": 8809,
      "Ġromp": 8810,
      "ĠKyoto": 8811,
      "Ġacerca": 8812,
      "Ġstep": 8813,
      "Ġsinger": 8814,
      "Ġ199": 8815,
      "Ġconcerto": 8816,
      "Ġtort": 8817,
      "anha": 8818,
      "Ġearn": 8819,
      "icia": 8820,
      "Ġsull": 8821,
      "Ġstom": 8822,
      "Ġenf": 8823,
      "Quid": 8824,
      "Ġprem": 8825,
      "Ġidade": 8826,
      "lus": 8827,
      "Ġbege": 8828,
      "ciuta": 8829,
      "Ġencu": 8830,
      "Danke": 8831,
      "Ġritorn": 8832,
      "ĠDollar": 8833,
      "Ġalcohol": 8834,
      "cet": 8835,
      "enÃ§a": 8836,
      "quiera": 8837,
      "ĠSche": 8838,
      "Ã³g": 8839,
      "Ġfech": 8840,
      "Ġgeno": 8841,
      "Ġreached": 8842,
      "Ġacostum": 8843,
      "Ġpisc": 8844,
      "Ġuniver": 8845,
      "Ġbear": 8846,
      "Ġlabor": 8847,
      "chenk": 8848,
      "Ġrim": 8849,
      "Ġdarin": 8850,
      "Ġprofessoresse": 8851,
      "Ġordered": 8852,
      "bis": 8853,
      "Ġhug": 8854,
      "Ġtoe": 8855,
      "Ġdiret": 8856,
      "Ġlaughing": 8857,
      "Ġsuff": 8858,
      "Ġverte": 8859,
      "Ġjack": 8860,
      "enso": 8861,
      "ĠestaciÃ³n": 8862,
      "Ġtenemos": 8863,
      "ential": 8864,
      "Ġbrut": 8865,
      "Ġpranzo": 8866,
      "rÃ³": 8867,
      "Ġbeant": 8868,
      "Ġneben": 8869,
      "Ġabroad": 8870,
      "ultima": 8871,
      "azÃ³n": 8872,
      "Ġmorir": 8873,
      "Ġcalle": 8874,
      "Ġsabes": 8875,
      "Ġchiama": 8876,
      "Ġwid": 8877,
      "ĠTan": 8878,
      "ĠDer": 8879,
      "Ġsalud": 8880,
      "Ġfootball": 8881,
      "Ġunhappy": 8882,
      "Ġgonna": 8883,
      "Ġabove": 8884,
      "Ġteeth": 8885,
      "siasi": 8886,
      "Ġforgive": 8887,
      "Ġpediu": 8888,
      "Ġsoddisf": 8889,
      "aÃ±": 8890,
      "Ġbac": 8891,
      "Ġconver": 8892,
      "ĠLust": 8893,
      "Ġvoce": 8894,
      "Ġbrava": 8895,
      "Ġbecom": 8896,
      "uwe": 8897,
      "ril": 8898,
      "ĠRaum": 8899,
      "Ġhomens": 8900,
      "State": 8901,
      "Ġvincere": 8902,
      "Ġrotto": 8903,
      "ark": 8904,
      "anese": 8905,
      "tile": 8906,
      "Ġscher": 8907,
      "Ġnuest": 8908,
      "Ġinstru": 8909,
      "Ġhealthy": 8910,
      "Ġidiota": 8911,
      "Ġsir": 8912,
      "Ġthrow": 8913,
      "Ġeight": 8914,
      "Ġschm": 8915,
      "Ġdura": 8916,
      "Ġwillen": 8917,
      "ĠLiebl": 8918,
      "Gosto": 8919,
      "Ġtype": 8920,
      "Ġdonne": 8921,
      "Ġmolta": 8922,
      "Ġcaminho": 8923,
      "Ġsports": 8924,
      "ĠenseÃ±": 8925,
      "fore": 8926,
      "ral": 8927,
      "table": 8928,
      "Ġbeha": 8929,
      "Ġverhe": 8930,
      "Ġuso": 8931,
      "Ġrio": 8932,
      "ĠRad": 8933,
      "Ġpartic": 8934,
      "Ġviagem": 8935,
      "Ġdollari": 8936,
      "Ġgedacht": 8937,
      "Sor": 8938,
      "oll": 8939,
      "zte": 8940,
      "Ġtes": 8941,
      "Ġade": 8942,
      "avel": 8943,
      "Dein": 8944,
      "Ġaffair": 8945,
      "Stud": 8946,
      "Ġlonge": 8947,
      "wed": 8948,
      "Ġquatro": 8949,
      "verno": 8950,
      "ieri": 8951,
      "Ġbestimmt": 8952,
      "Ġaiuter": 8953,
      "ĠIngl": 8954,
      "edereen": 8955,
      "Ġfright": 8956,
      "Well": 8957,
      "ÑĮ": 8958,
      "Ġvind": 8959,
      "Ġmanc": 8960,
      "Ġbedroom": 8961,
      "Lie": 8962,
      "ĠlÃŃ": 8963,
      "Ġsac": 8964,
      "Ġspl": 8965,
      "ĠPor": 8966,
      "Ġgeneral": 8967,
      "Ġbedeutet": 8968,
      "hle": 8969,
      "unte": 8970,
      "erebbe": 8971,
      "Ġrace": 8972,
      "Ġcamisa": 8973,
      "ĠHaare": 8974,
      "Ġconsegue": 8975,
      "Ġextran": 8976,
      "Ġmedicina": 8977,
      "Ġtill": 8978,
      "edor": 8979,
      "Ġuomini": 8980,
      "ĠmÃ¶gen": 8981,
      "Ġprimavera": 8982,
      "Ġanswered": 8983,
      "Ġcurr": 8984,
      "Ġcambiare": 8985,
      "ĠBÃ¼ro": 8986,
      "Ayer": 8987,
      "mÃ¶glich": 8988,
      "Ġdess": 8989,
      "Ġcondi": 8990,
      "Ġcani": 8991,
      "Ġestaban": 8992,
      "ĠReise": 8993,
      "Ġjoke": 8994,
      "ĠPoliti": 8995,
      "Ant": 8996,
      "Ġpisto": 8997,
      "Ġhabr": 8998,
      "ppi": 8999,
      "ĠWald": 9000,
      "issimo": 9001,
      "Ġcolazione": 9002,
      "anzig": 9003,
      "Ġempty": 9004,
      "ocks": 9005,
      "Ġartic": 9006,
      "ĠconheÃ§o": 9007,
      "Ġtwenty": 9008,
      "wing": 9009,
      "onto": 9010,
      "ĠSy": 9011,
      "ĠKuchen": 9012,
      "ĠPrÃ¼": 9013,
      "Ġdeste": 9014,
      "Ġlots": 9015,
      "ĠwÃ¼rden": 9016,
      "Ġhumor": 9017,
      "Ġsubito": 9018,
      "Since": 9019,
      "bum": 9020,
      "usend": 9021,
      "idiÃ³": 9022,
      "Ġhacia": 9023,
      "ijke": 9024,
      "Ġarro": 9025,
      "ĠPri": 9026,
      "Ġbuying": 9027,
      "Ġcolpa": 9028,
      "Ġimmag": 9029,
      "Ġbright": 9030,
      "Keep": 9031,
      "Ġtar": 9032,
      "Ġcous": 9033,
      "Ġbras": 9034,
      "Ġquerem": 9035,
      "Ġnev": 9036,
      "ĠLage": 9037,
      "Ġteil": 9038,
      "ĠRep": 9039,
      "Ġgramm": 9040,
      "Ġkeiner": 9041,
      "Ġhorri": 9042,
      "ÈĻti": 9043,
      "Ġsenhores": 9044,
      "Ġnueva": 9045,
      "Ġintelligente": 9046,
      "Stiamo": 9047,
      "fung": 9048,
      "ĠlÃ¤ch": 9049,
      "ennst": 9050,
      "ĠFrance": 9051,
      "Ġpotuto": 9052,
      "Et": 9053,
      "ĠThey": 9054,
      "Ġtough": 9055,
      "Ġpess": 9056,
      "Ġkap": 9057,
      "Quante": 9058,
      "Ġversuchen": 9059,
      "ismus": 9060,
      "kken": 9061,
      "omb": 9062,
      "amed": 9063,
      "icamente": 9064,
      "Ġaiutato": 9065,
      "Ġschwierig": 9066,
      "Ġinnocent": 9067,
      "Ġthy": 9068,
      "Ġunbe": 9069,
      "tero": 9070,
      "Ġilleg": 9071,
      "Ġvorbei": 9072,
      "Ġallem": 9073,
      "Ġperdere": 9074,
      "Ġsymp": 9075,
      "Bill": 9076,
      "Ġblau": 9077,
      "Ġexha": 9078,
      "ected": 9079,
      "Ġassol": 9080,
      "Ġendlich": 9081,
      "Ġobserv": 9082,
      "Fran": 9083,
      "Ġtin": 9084,
      "Ġdesse": 9085,
      "Ġnut": 9086,
      "amiento": 9087,
      "Ġdise": 9088,
      "Ġtuvo": 9089,
      "Ġmala": 9090,
      "Fu": 9091,
      "Ġdip": 9092,
      "Ġthee": 9093,
      "Ġqueda": 9094,
      "Ġenorme": 9095,
      "ĠSchnee": 9096,
      "Ġchieder": 9097,
      "Ġaltre": 9098,
      "Ġaspetta": 9099,
      "Ġacontecer": 9100,
      "Ġerinnern": 9101,
      "dom": 9102,
      "tamente": 9103,
      "Ġhinge": 9104,
      "ĠErd": 9105,
      "ĠmÃ£os": 9106,
      "Zu": 9107,
      "Ġlay": 9108,
      "Ġrelo": 9109,
      "guei": 9110,
      "Ã±as": 9111,
      "Ġmucha": 9112,
      "ĠStelle": 9113,
      "Ġsterben": 9114,
      "fia": 9115,
      "gul": 9116,
      "Quis": 9117,
      "Ġdenied": 9118,
      "Ġbrief": 9119,
      "Ġdescri": 9120,
      "ĠGeburtstag": 9121,
      "ĠtÃ¤": 9122,
      "rea": 9123,
      "Ġchess": 9124,
      "Ġcooper": 9125,
      "rang": 9126,
      "ĠpaÃŃses": 9127,
      "fÃ¼hl": 9128,
      "ãģ": 9129,
      "Ġhoc": 9130,
      "Ġfrio": 9131,
      "ĠHÃ¤nde": 9132,
      "ĠJungen": 9133,
      "ounded": 9134,
      "Unser": 9135,
      "Ġrude": 9136,
      "Ġsenhoras": 9137,
      "Ġinteligente": 9138,
      "Ġsvago": 9139,
      "enken": 9140,
      "Ġalm": 9141,
      "Ġsugar": 9142,
      "Ġlij": 9143,
      "Ġsieben": 9144,
      "schl": 9145,
      "Ġpude": 9146,
      "Ġclaro": 9147,
      "bled": 9148,
      "Ġlavora": 9149,
      "Ġruh": 9150,
      "Ġgarage": 9151,
      "ĠFrÃ¼": 9152,
      "Om": 9153,
      "Ġhous": 9154,
      "orando": 9155,
      "Ġsage": 9156,
      "Ġchiese": 9157,
      "Didymus": 9158,
      "Ġentrare": 9159,
      "Ġsposato": 9160,
      "Ġsemplic": 9161,
      "Ġveloce": 9162,
      "erm": 9163,
      "Ġeius": 9164,
      "Ġgev": 9165,
      "Esper": 9166,
      "Ġhated": 9167,
      "Ã¡ss": 9168,
      "Ġtip": 9169,
      "Ġconserv": 9170,
      "Ġpartita": 9171,
      "ĠJapÃ£o": 9172,
      "Ġgemein": 9173,
      "Ġking": 9174,
      "Ġbrauchst": 9175,
      "Ġjemanden": 9176,
      "Ġdedic": 9177,
      "Ġboc": 9178,
      "Ġmanera": 9179,
      "Ã¶tzlich": 9180,
      "ĠOsaka": 9181,
      "Ġhes": 9182,
      "icina": 9183,
      "Ġhelpen": 9184,
      "Ġmoeder": 9185,
      "Ġeuro": 9186,
      "Ġmatrim": 9187,
      "ĠInter": 9188,
      "ĠEngland": 9189,
      "night": 9190,
      "eram": 9191,
      "umped": 9192,
      "ĠFisch": 9193,
      "Ġdesta": 9194,
      "Ġcaused": 9195,
      "ĠcorazÃ³n": 9196,
      "Ġwake": 9197,
      "Quieres": 9198,
      "Ġlegal": 9199,
      "Ġletters": 9200,
      "Ġincontrato": 9201,
      "ĠKleid": 9202,
      "Ġtedesco": 9203,
      "Ġgingen": 9204,
      "Ġinm": 9205,
      "ĠAustrali": 9206,
      "achts": 9207,
      "Ġexplained": 9208,
      "Ġteaching": 9209,
      "à¤¾": 9210,
      "Ġslowly": 9211,
      "Ġapologize": 9212,
      "Ġzeggen": 9213,
      "atus": 9214,
      "Ġinstead": 9215,
      "Ġstam": 9216,
      "Ġjedem": 9217,
      "ĠLord": 9218,
      "Ġsched": 9219,
      "Ġshare": 9220,
      "Ġcuatro": 9221,
      "Ġelev": 9222,
      "Ġincred": 9223,
      "Ġzeigen": 9224,
      "Ġemplo": 9225,
      "ĠestarÃ¡": 9226,
      "Ġpsy": 9227,
      "Ġbab": 9228,
      "amor": 9229,
      "ety": 9230,
      "top": 9231,
      "Ġsoff": 9232,
      "Ġgewo": 9233,
      "Ã¶se": 9234,
      "Ġcanc": 9235,
      "Ġarbeite": 9236,
      "kk": 9237,
      "ocht": 9238,
      "Ġfrustr": 9239,
      "Ġgru": 9240,
      "Ġtragen": 9241,
      "ĠFreude": 9242,
      "ĠgroÃŁer": 9243,
      "Ġpiangere": 9244,
      "ĠWeihn": 9245,
      "Nada": 9246,
      "ĠSÃ¤tze": 9247,
      "Ġverso": 9248,
      "Quantos": 9249,
      "Ġmanos": 9250,
      "ĠKom": 9251,
      "Perd": 9252,
      "Ġpoem": 9253,
      "gress": 9254,
      "Ġprobabilmente": 9255,
      "ĠEntsche": 9256,
      "Ġdomingo": 9257,
      "orde": 9258,
      "osos": 9259,
      "Ġvento": 9260,
      "Ġcheg": 9261,
      "Ġcompras": 9262,
      "Ġrecomm": 9263,
      "Asp": 9264,
      "Ġthird": 9265,
      "ĠprÃ³p": 9266,
      "Ġlibert": 9267,
      "zzi": 9268,
      "Ġllo": 9269,
      "emen": 9270,
      "Ġonline": 9271,
      "iza": 9272,
      "Ġpesce": 9273,
      "Ġocchiali": 9274,
      "Ġenergy": 9275,
      "Ġsuddenly": 9276,
      "Ġgiardino": 9277,
      "Ġgatos": 9278,
      "llt": 9279,
      "Ġzog": 9280,
      "Ġnave": 9281,
      "Ġdirty": 9282,
      "Ġdirect": 9283,
      "Ġernst": 9284,
      "Ġquattro": 9285,
      "Ġqueremos": 9286,
      "Ġkla": 9287,
      "Ġchica": 9288,
      "Ġrein": 9289,
      "endet": 9290,
      "Ġjouw": 9291,
      "abil": 9292,
      "Ġcura": 9293,
      "Ġcats": 9294,
      "Unsere": 9295,
      "avelmente": 9296,
      "onn": 9297,
      "Ġhina": 9298,
      "Ġander": 9299,
      "Ġopini": 9300,
      "Ġfindet": 9301,
      "Ġlavorando": 9302,
      "Ġbrothers": 9303,
      "ĠGeschÃ¤ft": 9304,
      "ĠArabic": 9305,
      "Col": 9306,
      "Ġcima": 9307,
      "Ġdig": 9308,
      "urso": 9309,
      "ĠKÃ¶rper": 9310,
      "Ġfiume": 9311,
      "Ġtalks": 9312,
      "tory": 9313,
      "Usted": 9314,
      "kan": 9315,
      "acca": 9316,
      "Ġmanz": 9317,
      "Dovete": 9318,
      "Ġmisma": 9319,
      "Ġbajo": 9320,
      "Ġbrill": 9321,
      "Jane": 9322,
      "ĠmÃªs": 9323,
      "isso": 9324,
      "ĠnÃ©": 9325,
      "Ġprovare": 9326,
      "Ġheiraten": 9327,
      "Vers": 9328,
      "nic": 9329,
      "Ġmudar": 9330,
      "Ġanal": 9331,
      "ĠAfrica": 9332,
      "ĠestÃº": 9333,
      "Ġluce": 9334,
      "Ġbird": 9335,
      "Ġsimilar": 9336,
      "Ġpermission": 9337,
      "Ġobviously": 9338,
      "Ġpis": 9339,
      "Ġstatt": 9340,
      "Ġrie": 9341,
      "illas": 9342,
      "ĠWar": 9343,
      "Ġescond": 9344,
      "Ġetwa": 9345,
      "Ġtreat": 9346,
      "Ġstanca": 9347,
      "Ġzufrieden": 9348,
      "ĠPferd": 9349,
      "Ea": 9350,
      "wÃ¼r": 9351,
      "esus": 9352,
      "Ġusando": 9353,
      "ÃŁt": 9354,
      "ĠcompaÃ±": 9355,
      "Ġtiv": 9356,
      "Ġcinese": 9357,
      "Ġnecesit": 9358,
      "Ġ50": 9359,
      "Ã©rica": 9360,
      "Ġromant": 9361,
      "Ġbike": 9362,
      "ĠLieblings": 9363,
      "Ġgold": 9364,
      "Ġsubst": 9365,
      "Ġjour": 9366,
      "kehr": 9367,
      "Perhaps": 9368,
      "cat": 9369,
      "ĠShe": 9370,
      "Questi": 9371,
      "ĠKla": 9372,
      "ieni": 9373,
      "Ġpensava": 9374,
      "Ġeleg": 9375,
      "Ġricco": 9376,
      "ĠAmerika": 9377,
      "ĠComputer": 9378,
      "Men": 9379,
      "alten": 9380,
      "ĠkÃ¤": 9381,
      "ĠsaÃŁ": 9382,
      "Ġrosa": 9383,
      "Ġjantar": 9384,
      "ĠSchiff": 9385,
      "Ġcovered": 9386,
      "Ġcorrer": 9387,
      "eldom": 9388,
      "Ġnimmt": 9389,
      "ostet": 9390,
      "Ġtowel": 9391,
      "ulta": 9392,
      "ierta": 9393,
      "Pensa": 9394,
      "Ġgrandi": 9395,
      "Ġbirds": 9396,
      "Ġlargo": 9397,
      "Ġragazzi": 9398,
      "Ġnenhuma": 9399,
      "ĠStimme": 9400,
      "Parl": 9401,
      "wick": 9402,
      "Ġmezzo": 9403,
      "Ġstellte": 9404,
      "istr": 9405,
      "Ġportare": 9406,
      "ea": 9407,
      "ller": 9408,
      "Ġsau": 9409,
      "Ġweird": 9410,
      "Ġcasar": 9411,
      "Ġscat": 9412,
      "Ġpois": 9413,
      "Ġfiori": 9414,
      "itude": 9415,
      "Ġnelle": 9416,
      "Ġcontinue": 9417,
      "ĠKrankenhaus": 9418,
      "Ġzer": 9419,
      "Ã¶p": 9420,
      "Ġschme": 9421,
      "ersi": 9422,
      "scheiden": 9423,
      "Ġgaf": 9424,
      "Ġchiamare": 9425,
      "Ġsituazione": 9426,
      "Ġnecesita": 9427,
      "Ġhiding": 9428,
      "Ġcominciato": 9429,
      "Ġpainting": 9430,
      "Try": 9431,
      "piel": 9432,
      "ĠlÃ¤nger": 9433,
      "idio": 9434,
      "uramente": 9435,
      "Ġsob": 9436,
      "ijt": 9437,
      "eph": 9438,
      "Ġdirlo": 9439,
      "ĠFrans": 9440,
      "Ġautomobile": 9441,
      "Ġcredere": 9442,
      "edaan": 9443,
      "Ġvestito": 9444,
      "ĠerzÃ¤hlt": 9445,
      "ĠFarid": 9446,
      "Ġfresh": 9447,
      "Ġcualquier": 9448,
      "Ġseldom": 9449,
      "Ġpei": 9450,
      "ĠfÃ¤llt": 9451,
      "Their": 9452,
      "ppa": 9453,
      "Ġmira": 9454,
      "Ġinterr": 9455,
      "Ġconsiglio": 9456,
      "timos": 9457,
      "Ġnieuwe": 9458,
      "Ġkeeps": 9459,
      "Ber": 9460,
      "vin": 9461,
      "Ġoss": 9462,
      "Ġrose": 9463,
      "ulas": 9464,
      "Ġherr": 9465,
      "Ġconsid": 9466,
      "Ġplanet": 9467,
      "ĠwÃ¼rdest": 9468,
      "Ġscience": 9469,
      "Ġfollowing": 9470,
      "Ġtaller": 9471,
      "Ġappear": 9472,
      "Ġpurpose": 9473,
      "Dem": 9474,
      "hib": 9475,
      "ĠBar": 9476,
      "Ġerfahren": 9477,
      "ĠNot": 9478,
      "Ġsignor": 9479,
      "Volevo": 9480,
      "Ġimmediatamente": 9481,
      "Ġsatisfied": 9482,
      "Ġigual": 9483,
      "jÃ³": 9484,
      "ĠThat": 9485,
      "Ġhue": 9486,
      "Ġneste": 9487,
      "Ġknowledge": 9488,
      "ĠEu": 9489,
      "Ġbelo": 9490,
      "ĠTages": 9491,
      "Ġindivid": 9492,
      "mittag": 9493,
      "Ġcappello": 9494,
      "Ġcaixa": 9495,
      "Uno": 9496,
      "len": 9497,
      "zw": 9498,
      "Ġhart": 9499,
      "Ġnose": 9500,
      "Ġbun": 9501,
      "Ġfond": 9502,
      "ammo": 9503,
      "stadt": 9504,
      "Ġwithin": 9505,
      "avi": 9506,
      "ĠKrank": 9507,
      "Ġrij": 9508,
      "ĠDorf": 9509,
      "Ġpoter": 9510,
      "ĠalgÃºn": 9511,
      "ĠStreet": 9512,
      "Ġrifiut": 9513,
      "Ġnewspaper": 9514,
      "Ġsemplicemente": 9515,
      "elig": 9516,
      "idet": 9517,
      "Ġneck": 9518,
      "Ġspia": 9519,
      "Ġactiv": 9520,
      "ĠZiel": 9521,
      "Ġentf": 9522,
      "ĠGeist": 9523,
      "Ġpretended": 9524,
      "Ġconosciuto": 9525,
      "ologio": 9526,
[...]
